{
  "version": "1.0",
  "truncation": null,
  "padding": null,
  "added_tokens": [
    {
      "id": 0,
      "content": "<|begin_of_text|>",
      "single_word": false,
      "lstrip": false,
      "rstrip": false,
      "normalized": false,
      "special": true
    },
    {
      "id": 1,
      "content": "<|end_of_text|>",
      "single_word": false,
      "lstrip": false,
      "rstrip": false,
      "normalized": false,
      "special": true
    },
    {
      "id": 2,
      "content": "<pad>",
      "single_word": false,
      "lstrip": false,
      "rstrip": false,
      "normalized": false,
      "special": true
    },
    {
      "id": 3,
      "content": "<|fim_prefix|>",
      "single_word": false,
      "lstrip": false,
      "rstrip": false,
      "normalized": false,
      "special": true
    },
    {
      "id": 4,
      "content": "<|fim_middle|>",
      "single_word": false,
      "lstrip": false,
      "rstrip": false,
      "normalized": false,
      "special": true
    },
    {
      "id": 5,
      "content": "<|fim_suffix|>",
      "single_word": false,
      "lstrip": false,
      "rstrip": false,
      "normalized": false,
      "special": true
    },
    {
      "id": 6,
      "content": "<0x00>",
      "single_word": false,
      "lstrip": false,
      "rstrip": false,
      "normalized": false,
      "special": true
    },
    {
      "id": 7,
      "content": "<0x01>",
      "single_word": false,
      "lstrip": false,
      "rstrip": false,
      "normalized": false,
      "special": true
    },
    {
      "id": 8,
      "content": "<0x02>",
      "single_word": false,
      "lstrip": false,
      "rstrip": false,
      "normalized": false,
      "special": true
    },
    {
      "id": 9,
      "content": "<0x03>",
      "single_word": false,
      "lstrip": false,
      "rstrip": false,
      "normalized": false,
      "special": true
    },
    {
      "id": 10,
      "content": "<0x04>",
      "single_word": false,
      "lstrip": false,
      "rstrip": false,
      "normalized": false,
      "special": true
    },
    {
      "id": 11,
      "content": "<0x05>",
      "single_word": false,
      "lstrip": false,
      "rstrip": false,
      "normalized": false,
      "special": true
    },
    {
      "id": 12,
      "content": "<0x06>",
      "single_word": false,
      "lstrip": false,
      "rstrip": false,
      "normalized": false,
      "special": true
    },
    {
      "id": 13,
      "content": "<0x07>",
      "single_word": false,
      "lstrip": false,
      "rstrip": false,
      "normalized": false,
      "special": true
    },
    {
      "id": 14,
      "content": "<0x08>",
      "single_word": false,
      "lstrip": false,
      "rstrip": false,
      "normalized": false,
      "special": true
    },
    {
      "id": 15,
      "content": "<0x09>",
      "single_word": false,
      "lstrip": false,
      "rstrip": false,
      "normalized": false,
      "special": true
    },
    {
      "id": 16,
      "content": "<0x0A>",
      "single_word": false,
      "lstrip": false,
      "rstrip": false,
      "normalized": false,
      "special": true
    },
    {
      "id": 17,
      "content": "<0x0B>",
      "single_word": false,
      "lstrip": false,
      "rstrip": false,
      "normalized": false,
      "special": true
    },
    {
      "id": 18,
      "content": "<0x0C>",
      "single_word": false,
      "lstrip": false,
      "rstrip": false,
      "normalized": false,
      "special": true
    },
    {
      "id": 19,
      "content": "<0x0D>",
      "single_word": false,
      "lstrip": false,
      "rstrip": false,
      "normalized": false,
      "special": true
    },
    {
      "id": 20,
      "content": "<0x0E>",
      "single_word": false,
      "lstrip": false,
      "rstrip": false,
      "normalized": false,
      "special": true
    },
    {
      "id": 21,
      "content": "<0x0F>",
      "single_word": false,
      "lstrip": false,
      "rstrip": false,
      "normalized": false,
      "special": true
    },
    {
      "id": 22,
      "content": "<0x10>",
      "single_word": false,
      "lstrip": false,
      "rstrip": false,
      "normalized": false,
      "special": true
    },
    {
      "id": 23,
      "content": "<0x11>",
      "single_word": false,
      "lstrip": false,
      "rstrip": false,
      "normalized": false,
      "special": true
    },
    {
      "id": 24,
      "content": "<0x12>",
      "single_word": false,
      "lstrip": false,
      "rstrip": false,
      "normalized": false,
      "special": true
    },
    {
      "id": 25,
      "content": "<0x13>",
      "single_word": false,
      "lstrip": false,
      "rstrip": false,
      "normalized": false,
      "special": true
    },
    {
      "id": 26,
      "content": "<0x14>",
      "single_word": false,
      "lstrip": false,
      "rstrip": false,
      "normalized": false,
      "special": true
    },
    {
      "id": 27,
      "content": "<0x15>",
      "single_word": false,
      "lstrip": false,
      "rstrip": false,
      "normalized": false,
      "special": true
    },
    {
      "id": 28,
      "content": "<0x16>",
      "single_word": false,
      "lstrip": false,
      "rstrip": false,
      "normalized": false,
      "special": true
    },
    {
      "id": 29,
      "content": "<0x17>",
      "single_word": false,
      "lstrip": false,
      "rstrip": false,
      "normalized": false,
      "special": true
    },
    {
      "id": 30,
      "content": "<0x18>",
      "single_word": false,
      "lstrip": false,
      "rstrip": false,
      "normalized": false,
      "special": true
    },
    {
      "id": 31,
      "content": "<0x19>",
      "single_word": false,
      "lstrip": false,
      "rstrip": false,
      "normalized": false,
      "special": true
    },
    {
      "id": 32,
      "content": "<0x1A>",
      "single_word": false,
      "lstrip": false,
      "rstrip": false,
      "normalized": false,
      "special": true
    },
    {
      "id": 33,
      "content": "<0x1B>",
      "single_word": false,
      "lstrip": false,
      "rstrip": false,
      "normalized": false,
      "special": true
    },
    {
      "id": 34,
      "content": "<0x1C>",
      "single_word": false,
      "lstrip": false,
      "rstrip": false,
      "normalized": false,
      "special": true
    },
    {
      "id": 35,
      "content": "<0x1D>",
      "single_word": false,
      "lstrip": false,
      "rstrip": false,
      "normalized": false,
      "special": true
    },
    {
      "id": 36,
      "content": "<0x1E>",
      "single_word": false,
      "lstrip": false,
      "rstrip": false,
      "normalized": false,
      "special": true
    },
    {
      "id": 37,
      "content": "<0x1F>",
      "single_word": false,
      "lstrip": false,
      "rstrip": false,
      "normalized": false,
      "special": true
    },
    {
      "id": 38,
      "content": "<0x20>",
      "single_word": false,
      "lstrip": false,
      "rstrip": false,
      "normalized": false,
      "special": true
    },
    {
      "id": 39,
      "content": "<0x21>",
      "single_word": false,
      "lstrip": false,
      "rstrip": false,
      "normalized": false,
      "special": true
    },
    {
      "id": 40,
      "content": "<0x22>",
      "single_word": false,
      "lstrip": false,
      "rstrip": false,
      "normalized": false,
      "special": true
    },
    {
      "id": 41,
      "content": "<0x23>",
      "single_word": false,
      "lstrip": false,
      "rstrip": false,
      "normalized": false,
      "special": true
    },
    {
      "id": 42,
      "content": "<0x24>",
      "single_word": false,
      "lstrip": false,
      "rstrip": false,
      "normalized": false,
      "special": true
    },
    {
      "id": 43,
      "content": "<0x25>",
      "single_word": false,
      "lstrip": false,
      "rstrip": false,
      "normalized": false,
      "special": true
    },
    {
      "id": 44,
      "content": "<0x26>",
      "single_word": false,
      "lstrip": false,
      "rstrip": false,
      "normalized": false,
      "special": true
    },
    {
      "id": 45,
      "content": "<0x27>",
      "single_word": false,
      "lstrip": false,
      "rstrip": false,
      "normalized": false,
      "special": true
    },
    {
      "id": 46,
      "content": "<0x28>",
      "single_word": false,
      "lstrip": false,
      "rstrip": false,
      "normalized": false,
      "special": true
    },
    {
      "id": 47,
      "content": "<0x29>",
      "single_word": false,
      "lstrip": false,
      "rstrip": false,
      "normalized": false,
      "special": true
    },
    {
      "id": 48,
      "content": "<0x2A>",
      "single_word": false,
      "lstrip": false,
      "rstrip": false,
      "normalized": false,
      "special": true
    },
    {
      "id": 49,
      "content": "<0x2B>",
      "single_word": false,
      "lstrip": false,
      "rstrip": false,
      "normalized": false,
      "special": true
    },
    {
      "id": 50,
      "content": "<0x2C>",
      "single_word": false,
      "lstrip": false,
      "rstrip": false,
      "normalized": false,
      "special": true
    },
    {
      "id": 51,
      "content": "<0x2D>",
      "single_word": false,
      "lstrip": false,
      "rstrip": false,
      "normalized": false,
      "special": true
    },
    {
      "id": 52,
      "content": "<0x2E>",
      "single_word": false,
      "lstrip": false,
      "rstrip": false,
      "normalized": false,
      "special": true
    },
    {
      "id": 53,
      "content": "<0x2F>",
      "single_word": false,
      "lstrip": false,
      "rstrip": false,
      "normalized": false,
      "special": true
    },
    {
      "id": 54,
      "content": "<0x30>",
      "single_word": false,
      "lstrip": false,
      "rstrip": false,
      "normalized": false,
      "special": true
    },
    {
      "id": 55,
      "content": "<0x31>",
      "single_word": false,
      "lstrip": false,
      "rstrip": false,
      "normalized": false,
      "special": true
    },
    {
      "id": 56,
      "content": "<0x32>",
      "single_word": false,
      "lstrip": false,
      "rstrip": false,
      "normalized": false,
      "special": true
    },
    {
      "id": 57,
      "content": "<0x33>",
      "single_word": false,
      "lstrip": false,
      "rstrip": false,
      "normalized": false,
      "special": true
    },
    {
      "id": 58,
      "content": "<0x34>",
      "single_word": false,
      "lstrip": false,
      "rstrip": false,
      "normalized": false,
      "special": true
    },
    {
      "id": 59,
      "content": "<0x35>",
      "single_word": false,
      "lstrip": false,
      "rstrip": false,
      "normalized": false,
      "special": true
    },
    {
      "id": 60,
      "content": "<0x36>",
      "single_word": false,
      "lstrip": false,
      "rstrip": false,
      "normalized": false,
      "special": true
    },
    {
      "id": 61,
      "content": "<0x37>",
      "single_word": false,
      "lstrip": false,
      "rstrip": false,
      "normalized": false,
      "special": true
    },
    {
      "id": 62,
      "content": "<0x38>",
      "single_word": false,
      "lstrip": false,
      "rstrip": false,
      "normalized": false,
      "special": true
    },
    {
      "id": 63,
      "content": "<0x39>",
      "single_word": false,
      "lstrip": false,
      "rstrip": false,
      "normalized": false,
      "special": true
    },
    {
      "id": 64,
      "content": "<0x3A>",
      "single_word": false,
      "lstrip": false,
      "rstrip": false,
      "normalized": false,
      "special": true
    },
    {
      "id": 65,
      "content": "<0x3B>",
      "single_word": false,
      "lstrip": false,
      "rstrip": false,
      "normalized": false,
      "special": true
    },
    {
      "id": 66,
      "content": "<0x3C>",
      "single_word": false,
      "lstrip": false,
      "rstrip": false,
      "normalized": false,
      "special": true
    },
    {
      "id": 67,
      "content": "<0x3D>",
      "single_word": false,
      "lstrip": false,
      "rstrip": false,
      "normalized": false,
      "special": true
    },
    {
      "id": 68,
      "content": "<0x3E>",
      "single_word": false,
      "lstrip": false,
      "rstrip": false,
      "normalized": false,
      "special": true
    },
    {
      "id": 69,
      "content": "<0x3F>",
      "single_word": false,
      "lstrip": false,
      "rstrip": false,
      "normalized": false,
      "special": true
    },
    {
      "id": 70,
      "content": "<0x40>",
      "single_word": false,
      "lstrip": false,
      "rstrip": false,
      "normalized": false,
      "special": true
    },
    {
      "id": 71,
      "content": "<0x41>",
      "single_word": false,
      "lstrip": false,
      "rstrip": false,
      "normalized": false,
      "special": true
    },
    {
      "id": 72,
      "content": "<0x42>",
      "single_word": false,
      "lstrip": false,
      "rstrip": false,
      "normalized": false,
      "special": true
    },
    {
      "id": 73,
      "content": "<0x43>",
      "single_word": false,
      "lstrip": false,
      "rstrip": false,
      "normalized": false,
      "special": true
    },
    {
      "id": 74,
      "content": "<0x44>",
      "single_word": false,
      "lstrip": false,
      "rstrip": false,
      "normalized": false,
      "special": true
    },
    {
      "id": 75,
      "content": "<0x45>",
      "single_word": false,
      "lstrip": false,
      "rstrip": false,
      "normalized": false,
      "special": true
    },
    {
      "id": 76,
      "content": "<0x46>",
      "single_word": false,
      "lstrip": false,
      "rstrip": false,
      "normalized": false,
      "special": true
    },
    {
      "id": 77,
      "content": "<0x47>",
      "single_word": false,
      "lstrip": false,
      "rstrip": false,
      "normalized": false,
      "special": true
    },
    {
      "id": 78,
      "content": "<0x48>",
      "single_word": false,
      "lstrip": false,
      "rstrip": false,
      "normalized": false,
      "special": true
    },
    {
      "id": 79,
      "content": "<0x49>",
      "single_word": false,
      "lstrip": false,
      "rstrip": false,
      "normalized": false,
      "special": true
    },
    {
      "id": 80,
      "content": "<0x4A>",
      "single_word": false,
      "lstrip": false,
      "rstrip": false,
      "normalized": false,
      "special": true
    },
    {
      "id": 81,
      "content": "<0x4B>",
      "single_word": false,
      "lstrip": false,
      "rstrip": false,
      "normalized": false,
      "special": true
    },
    {
      "id": 82,
      "content": "<0x4C>",
      "single_word": false,
      "lstrip": false,
      "rstrip": false,
      "normalized": false,
      "special": true
    },
    {
      "id": 83,
      "content": "<0x4D>",
      "single_word": false,
      "lstrip": false,
      "rstrip": false,
      "normalized": false,
      "special": true
    },
    {
      "id": 84,
      "content": "<0x4E>",
      "single_word": false,
      "lstrip": false,
      "rstrip": false,
      "normalized": false,
      "special": true
    },
    {
      "id": 85,
      "content": "<0x4F>",
      "single_word": false,
      "lstrip": false,
      "rstrip": false,
      "normalized": false,
      "special": true
    },
    {
      "id": 86,
      "content": "<0x50>",
      "single_word": false,
      "lstrip": false,
      "rstrip": false,
      "normalized": false,
      "special": true
    },
    {
      "id": 87,
      "content": "<0x51>",
      "single_word": false,
      "lstrip": false,
      "rstrip": false,
      "normalized": false,
      "special": true
    },
    {
      "id": 88,
      "content": "<0x52>",
      "single_word": false,
      "lstrip": false,
      "rstrip": false,
      "normalized": false,
      "special": true
    },
    {
      "id": 89,
      "content": "<0x53>",
      "single_word": false,
      "lstrip": false,
      "rstrip": false,
      "normalized": false,
      "special": true
    },
    {
      "id": 90,
      "content": "<0x54>",
      "single_word": false,
      "lstrip": false,
      "rstrip": false,
      "normalized": false,
      "special": true
    },
    {
      "id": 91,
      "content": "<0x55>",
      "single_word": false,
      "lstrip": false,
      "rstrip": false,
      "normalized": false,
      "special": true
    },
    {
      "id": 92,
      "content": "<0x56>",
      "single_word": false,
      "lstrip": false,
      "rstrip": false,
      "normalized": false,
      "special": true
    },
    {
      "id": 93,
      "content": "<0x57>",
      "single_word": false,
      "lstrip": false,
      "rstrip": false,
      "normalized": false,
      "special": true
    },
    {
      "id": 94,
      "content": "<0x58>",
      "single_word": false,
      "lstrip": false,
      "rstrip": false,
      "normalized": false,
      "special": true
    },
    {
      "id": 95,
      "content": "<0x59>",
      "single_word": false,
      "lstrip": false,
      "rstrip": false,
      "normalized": false,
      "special": true
    },
    {
      "id": 96,
      "content": "<0x5A>",
      "single_word": false,
      "lstrip": false,
      "rstrip": false,
      "normalized": false,
      "special": true
    },
    {
      "id": 97,
      "content": "<0x5B>",
      "single_word": false,
      "lstrip": false,
      "rstrip": false,
      "normalized": false,
      "special": true
    },
    {
      "id": 98,
      "content": "<0x5C>",
      "single_word": false,
      "lstrip": false,
      "rstrip": false,
      "normalized": false,
      "special": true
    },
    {
      "id": 99,
      "content": "<0x5D>",
      "single_word": false,
      "lstrip": false,
      "rstrip": false,
      "normalized": false,
      "special": true
    },
    {
      "id": 100,
      "content": "<0x5E>",
      "single_word": false,
      "lstrip": false,
      "rstrip": false,
      "normalized": false,
      "special": true
    },
    {
      "id": 101,
      "content": "<0x5F>",
      "single_word": false,
      "lstrip": false,
      "rstrip": false,
      "normalized": false,
      "special": true
    },
    {
      "id": 102,
      "content": "<0x60>",
      "single_word": false,
      "lstrip": false,
      "rstrip": false,
      "normalized": false,
      "special": true
    },
    {
      "id": 103,
      "content": "<0x61>",
      "single_word": false,
      "lstrip": false,
      "rstrip": false,
      "normalized": false,
      "special": true
    },
    {
      "id": 104,
      "content": "<0x62>",
      "single_word": false,
      "lstrip": false,
      "rstrip": false,
      "normalized": false,
      "special": true
    },
    {
      "id": 105,
      "content": "<0x63>",
      "single_word": false,
      "lstrip": false,
      "rstrip": false,
      "normalized": false,
      "special": true
    },
    {
      "id": 106,
      "content": "<0x64>",
      "single_word": false,
      "lstrip": false,
      "rstrip": false,
      "normalized": false,
      "special": true
    },
    {
      "id": 107,
      "content": "<0x65>",
      "single_word": false,
      "lstrip": false,
      "rstrip": false,
      "normalized": false,
      "special": true
    },
    {
      "id": 108,
      "content": "<0x66>",
      "single_word": false,
      "lstrip": false,
      "rstrip": false,
      "normalized": false,
      "special": true
    },
    {
      "id": 109,
      "content": "<0x67>",
      "single_word": false,
      "lstrip": false,
      "rstrip": false,
      "normalized": false,
      "special": true
    },
    {
      "id": 110,
      "content": "<0x68>",
      "single_word": false,
      "lstrip": false,
      "rstrip": false,
      "normalized": false,
      "special": true
    },
    {
      "id": 111,
      "content": "<0x69>",
      "single_word": false,
      "lstrip": false,
      "rstrip": false,
      "normalized": false,
      "special": true
    },
    {
      "id": 112,
      "content": "<0x6A>",
      "single_word": false,
      "lstrip": false,
      "rstrip": false,
      "normalized": false,
      "special": true
    },
    {
      "id": 113,
      "content": "<0x6B>",
      "single_word": false,
      "lstrip": false,
      "rstrip": false,
      "normalized": false,
      "special": true
    },
    {
      "id": 114,
      "content": "<0x6C>",
      "single_word": false,
      "lstrip": false,
      "rstrip": false,
      "normalized": false,
      "special": true
    },
    {
      "id": 115,
      "content": "<0x6D>",
      "single_word": false,
      "lstrip": false,
      "rstrip": false,
      "normalized": false,
      "special": true
    },
    {
      "id": 116,
      "content": "<0x6E>",
      "single_word": false,
      "lstrip": false,
      "rstrip": false,
      "normalized": false,
      "special": true
    },
    {
      "id": 117,
      "content": "<0x6F>",
      "single_word": false,
      "lstrip": false,
      "rstrip": false,
      "normalized": false,
      "special": true
    },
    {
      "id": 118,
      "content": "<0x70>",
      "single_word": false,
      "lstrip": false,
      "rstrip": false,
      "normalized": false,
      "special": true
    },
    {
      "id": 119,
      "content": "<0x71>",
      "single_word": false,
      "lstrip": false,
      "rstrip": false,
      "normalized": false,
      "special": true
    },
    {
      "id": 120,
      "content": "<0x72>",
      "single_word": false,
      "lstrip": false,
      "rstrip": false,
      "normalized": false,
      "special": true
    },
    {
      "id": 121,
      "content": "<0x73>",
      "single_word": false,
      "lstrip": false,
      "rstrip": false,
      "normalized": false,
      "special": true
    },
    {
      "id": 122,
      "content": "<0x74>",
      "single_word": false,
      "lstrip": false,
      "rstrip": false,
      "normalized": false,
      "special": true
    },
    {
      "id": 123,
      "content": "<0x75>",
      "single_word": false,
      "lstrip": false,
      "rstrip": false,
      "normalized": false,
      "special": true
    },
    {
      "id": 124,
      "content": "<0x76>",
      "single_word": false,
      "lstrip": false,
      "rstrip": false,
      "normalized": false,
      "special": true
    },
    {
      "id": 125,
      "content": "<0x77>",
      "single_word": false,
      "lstrip": false,
      "rstrip": false,
      "normalized": false,
      "special": true
    },
    {
      "id": 126,
      "content": "<0x78>",
      "single_word": false,
      "lstrip": false,
      "rstrip": false,
      "normalized": false,
      "special": true
    },
    {
      "id": 127,
      "content": "<0x79>",
      "single_word": false,
      "lstrip": false,
      "rstrip": false,
      "normalized": false,
      "special": true
    },
    {
      "id": 128,
      "content": "<0x7A>",
      "single_word": false,
      "lstrip": false,
      "rstrip": false,
      "normalized": false,
      "special": true
    },
    {
      "id": 129,
      "content": "<0x7B>",
      "single_word": false,
      "lstrip": false,
      "rstrip": false,
      "normalized": false,
      "special": true
    },
    {
      "id": 130,
      "content": "<0x7C>",
      "single_word": false,
      "lstrip": false,
      "rstrip": false,
      "normalized": false,
      "special": true
    },
    {
      "id": 131,
      "content": "<0x7D>",
      "single_word": false,
      "lstrip": false,
      "rstrip": false,
      "normalized": false,
      "special": true
    },
    {
      "id": 132,
      "content": "<0x7E>",
      "single_word": false,
      "lstrip": false,
      "rstrip": false,
      "normalized": false,
      "special": true
    },
    {
      "id": 133,
      "content": "<0x7F>",
      "single_word": false,
      "lstrip": false,
      "rstrip": false,
      "normalized": false,
      "special": true
    },
    {
      "id": 134,
      "content": "<0x80>",
      "single_word": false,
      "lstrip": false,
      "rstrip": false,
      "normalized": false,
      "special": true
    },
    {
      "id": 135,
      "content": "<0x81>",
      "single_word": false,
      "lstrip": false,
      "rstrip": false,
      "normalized": false,
      "special": true
    },
    {
      "id": 136,
      "content": "<0x82>",
      "single_word": false,
      "lstrip": false,
      "rstrip": false,
      "normalized": false,
      "special": true
    },
    {
      "id": 137,
      "content": "<0x83>",
      "single_word": false,
      "lstrip": false,
      "rstrip": false,
      "normalized": false,
      "special": true
    },
    {
      "id": 138,
      "content": "<0x84>",
      "single_word": false,
      "lstrip": false,
      "rstrip": false,
      "normalized": false,
      "special": true
    },
    {
      "id": 139,
      "content": "<0x85>",
      "single_word": false,
      "lstrip": false,
      "rstrip": false,
      "normalized": false,
      "special": true
    },
    {
      "id": 140,
      "content": "<0x86>",
      "single_word": false,
      "lstrip": false,
      "rstrip": false,
      "normalized": false,
      "special": true
    },
    {
      "id": 141,
      "content": "<0x87>",
      "single_word": false,
      "lstrip": false,
      "rstrip": false,
      "normalized": false,
      "special": true
    },
    {
      "id": 142,
      "content": "<0x88>",
      "single_word": false,
      "lstrip": false,
      "rstrip": false,
      "normalized": false,
      "special": true
    },
    {
      "id": 143,
      "content": "<0x89>",
      "single_word": false,
      "lstrip": false,
      "rstrip": false,
      "normalized": false,
      "special": true
    },
    {
      "id": 144,
      "content": "<0x8A>",
      "single_word": false,
      "lstrip": false,
      "rstrip": false,
      "normalized": false,
      "special": true
    },
    {
      "id": 145,
      "content": "<0x8B>",
      "single_word": false,
      "lstrip": false,
      "rstrip": false,
      "normalized": false,
      "special": true
    },
    {
      "id": 146,
      "content": "<0x8C>",
      "single_word": false,
      "lstrip": false,
      "rstrip": false,
      "normalized": false,
      "special": true
    },
    {
      "id": 147,
      "content": "<0x8D>",
      "single_word": false,
      "lstrip": false,
      "rstrip": false,
      "normalized": false,
      "special": true
    },
    {
      "id": 148,
      "content": "<0x8E>",
      "single_word": false,
      "lstrip": false,
      "rstrip": false,
      "normalized": false,
      "special": true
    },
    {
      "id": 149,
      "content": "<0x8F>",
      "single_word": false,
      "lstrip": false,
      "rstrip": false,
      "normalized": false,
      "special": true
    },
    {
      "id": 150,
      "content": "<0x90>",
      "single_word": false,
      "lstrip": false,
      "rstrip": false,
      "normalized": false,
      "special": true
    },
    {
      "id": 151,
      "content": "<0x91>",
      "single_word": false,
      "lstrip": false,
      "rstrip": false,
      "normalized": false,
      "special": true
    },
    {
      "id": 152,
      "content": "<0x92>",
      "single_word": false,
      "lstrip": false,
      "rstrip": false,
      "normalized": false,
      "special": true
    },
    {
      "id": 153,
      "content": "<0x93>",
      "single_word": false,
      "lstrip": false,
      "rstrip": false,
      "normalized": false,
      "special": true
    },
    {
      "id": 154,
      "content": "<0x94>",
      "single_word": false,
      "lstrip": false,
      "rstrip": false,
      "normalized": false,
      "special": true
    },
    {
      "id": 155,
      "content": "<0x95>",
      "single_word": false,
      "lstrip": false,
      "rstrip": false,
      "normalized": false,
      "special": true
    },
    {
      "id": 156,
      "content": "<0x96>",
      "single_word": false,
      "lstrip": false,
      "rstrip": false,
      "normalized": false,
      "special": true
    },
    {
      "id": 157,
      "content": "<0x97>",
      "single_word": false,
      "lstrip": false,
      "rstrip": false,
      "normalized": false,
      "special": true
    },
    {
      "id": 158,
      "content": "<0x98>",
      "single_word": false,
      "lstrip": false,
      "rstrip": false,
      "normalized": false,
      "special": true
    },
    {
      "id": 159,
      "content": "<0x99>",
      "single_word": false,
      "lstrip": false,
      "rstrip": false,
      "normalized": false,
      "special": true
    },
    {
      "id": 160,
      "content": "<0x9A>",
      "single_word": false,
      "lstrip": false,
      "rstrip": false,
      "normalized": false,
      "special": true
    },
    {
      "id": 161,
      "content": "<0x9B>",
      "single_word": false,
      "lstrip": false,
      "rstrip": false,
      "normalized": false,
      "special": true
    },
    {
      "id": 162,
      "content": "<0x9C>",
      "single_word": false,
      "lstrip": false,
      "rstrip": false,
      "normalized": false,
      "special": true
    },
    {
      "id": 163,
      "content": "<0x9D>",
      "single_word": false,
      "lstrip": false,
      "rstrip": false,
      "normalized": false,
      "special": true
    },
    {
      "id": 164,
      "content": "<0x9E>",
      "single_word": false,
      "lstrip": false,
      "rstrip": false,
      "normalized": false,
      "special": true
    },
    {
      "id": 165,
      "content": "<0x9F>",
      "single_word": false,
      "lstrip": false,
      "rstrip": false,
      "normalized": false,
      "special": true
    },
    {
      "id": 166,
      "content": "<0xA0>",
      "single_word": false,
      "lstrip": false,
      "rstrip": false,
      "normalized": false,
      "special": true
    },
    {
      "id": 167,
      "content": "<0xA1>",
      "single_word": false,
      "lstrip": false,
      "rstrip": false,
      "normalized": false,
      "special": true
    },
    {
      "id": 168,
      "content": "<0xA2>",
      "single_word": false,
      "lstrip": false,
      "rstrip": false,
      "normalized": false,
      "special": true
    },
    {
      "id": 169,
      "content": "<0xA3>",
      "single_word": false,
      "lstrip": false,
      "rstrip": false,
      "normalized": false,
      "special": true
    },
    {
      "id": 170,
      "content": "<0xA4>",
      "single_word": false,
      "lstrip": false,
      "rstrip": false,
      "normalized": false,
      "special": true
    },
    {
      "id": 171,
      "content": "<0xA5>",
      "single_word": false,
      "lstrip": false,
      "rstrip": false,
      "normalized": false,
      "special": true
    },
    {
      "id": 172,
      "content": "<0xA6>",
      "single_word": false,
      "lstrip": false,
      "rstrip": false,
      "normalized": false,
      "special": true
    },
    {
      "id": 173,
      "content": "<0xA7>",
      "single_word": false,
      "lstrip": false,
      "rstrip": false,
      "normalized": false,
      "special": true
    },
    {
      "id": 174,
      "content": "<0xA8>",
      "single_word": false,
      "lstrip": false,
      "rstrip": false,
      "normalized": false,
      "special": true
    },
    {
      "id": 175,
      "content": "<0xA9>",
      "single_word": false,
      "lstrip": false,
      "rstrip": false,
      "normalized": false,
      "special": true
    },
    {
      "id": 176,
      "content": "<0xAA>",
      "single_word": false,
      "lstrip": false,
      "rstrip": false,
      "normalized": false,
      "special": true
    },
    {
      "id": 177,
      "content": "<0xAB>",
      "single_word": false,
      "lstrip": false,
      "rstrip": false,
      "normalized": false,
      "special": true
    },
    {
      "id": 178,
      "content": "<0xAC>",
      "single_word": false,
      "lstrip": false,
      "rstrip": false,
      "normalized": false,
      "special": true
    },
    {
      "id": 179,
      "content": "<0xAD>",
      "single_word": false,
      "lstrip": false,
      "rstrip": false,
      "normalized": false,
      "special": true
    },
    {
      "id": 180,
      "content": "<0xAE>",
      "single_word": false,
      "lstrip": false,
      "rstrip": false,
      "normalized": false,
      "special": true
    },
    {
      "id": 181,
      "content": "<0xAF>",
      "single_word": false,
      "lstrip": false,
      "rstrip": false,
      "normalized": false,
      "special": true
    },
    {
      "id": 182,
      "content": "<0xB0>",
      "single_word": false,
      "lstrip": false,
      "rstrip": false,
      "normalized": false,
      "special": true
    },
    {
      "id": 183,
      "content": "<0xB1>",
      "single_word": false,
      "lstrip": false,
      "rstrip": false,
      "normalized": false,
      "special": true
    },
    {
      "id": 184,
      "content": "<0xB2>",
      "single_word": false,
      "lstrip": false,
      "rstrip": false,
      "normalized": false,
      "special": true
    },
    {
      "id": 185,
      "content": "<0xB3>",
      "single_word": false,
      "lstrip": false,
      "rstrip": false,
      "normalized": false,
      "special": true
    },
    {
      "id": 186,
      "content": "<0xB4>",
      "single_word": false,
      "lstrip": false,
      "rstrip": false,
      "normalized": false,
      "special": true
    },
    {
      "id": 187,
      "content": "<0xB5>",
      "single_word": false,
      "lstrip": false,
      "rstrip": false,
      "normalized": false,
      "special": true
    },
    {
      "id": 188,
      "content": "<0xB6>",
      "single_word": false,
      "lstrip": false,
      "rstrip": false,
      "normalized": false,
      "special": true
    },
    {
      "id": 189,
      "content": "<0xB7>",
      "single_word": false,
      "lstrip": false,
      "rstrip": false,
      "normalized": false,
      "special": true
    },
    {
      "id": 190,
      "content": "<0xB8>",
      "single_word": false,
      "lstrip": false,
      "rstrip": false,
      "normalized": false,
      "special": true
    },
    {
      "id": 191,
      "content": "<0xB9>",
      "single_word": false,
      "lstrip": false,
      "rstrip": false,
      "normalized": false,
      "special": true
    },
    {
      "id": 192,
      "content": "<0xBA>",
      "single_word": false,
      "lstrip": false,
      "rstrip": false,
      "normalized": false,
      "special": true
    },
    {
      "id": 193,
      "content": "<0xBB>",
      "single_word": false,
      "lstrip": false,
      "rstrip": false,
      "normalized": false,
      "special": true
    },
    {
      "id": 194,
      "content": "<0xBC>",
      "single_word": false,
      "lstrip": false,
      "rstrip": false,
      "normalized": false,
      "special": true
    },
    {
      "id": 195,
      "content": "<0xBD>",
      "single_word": false,
      "lstrip": false,
      "rstrip": false,
      "normalized": false,
      "special": true
    },
    {
      "id": 196,
      "content": "<0xBE>",
      "single_word": false,
      "lstrip": false,
      "rstrip": false,
      "normalized": false,
      "special": true
    },
    {
      "id": 197,
      "content": "<0xBF>",
      "single_word": false,
      "lstrip": false,
      "rstrip": false,
      "normalized": false,
      "special": true
    },
    {
      "id": 198,
      "content": "<0xC0>",
      "single_word": false,
      "lstrip": false,
      "rstrip": false,
      "normalized": false,
      "special": true
    },
    {
      "id": 199,
      "content": "<0xC1>",
      "single_word": false,
      "lstrip": false,
      "rstrip": false,
      "normalized": false,
      "special": true
    },
    {
      "id": 200,
      "content": "<0xC2>",
      "single_word": false,
      "lstrip": false,
      "rstrip": false,
      "normalized": false,
      "special": true
    },
    {
      "id": 201,
      "content": "<0xC3>",
      "single_word": false,
      "lstrip": false,
      "rstrip": false,
      "normalized": false,
      "special": true
    },
    {
      "id": 202,
      "content": "<0xC4>",
      "single_word": false,
      "lstrip": false,
      "rstrip": false,
      "normalized": false,
      "special": true
    },
    {
      "id": 203,
      "content": "<0xC5>",
      "single_word": false,
      "lstrip": false,
      "rstrip": false,
      "normalized": false,
      "special": true
    },
    {
      "id": 204,
      "content": "<0xC6>",
      "single_word": false,
      "lstrip": false,
      "rstrip": false,
      "normalized": false,
      "special": true
    },
    {
      "id": 205,
      "content": "<0xC7>",
      "single_word": false,
      "lstrip": false,
      "rstrip": false,
      "normalized": false,
      "special": true
    },
    {
      "id": 206,
      "content": "<0xC8>",
      "single_word": false,
      "lstrip": false,
      "rstrip": false,
      "normalized": false,
      "special": true
    },
    {
      "id": 207,
      "content": "<0xC9>",
      "single_word": false,
      "lstrip": false,
      "rstrip": false,
      "normalized": false,
      "special": true
    },
    {
      "id": 208,
      "content": "<0xCA>",
      "single_word": false,
      "lstrip": false,
      "rstrip": false,
      "normalized": false,
      "special": true
    },
    {
      "id": 209,
      "content": "<0xCB>",
      "single_word": false,
      "lstrip": false,
      "rstrip": false,
      "normalized": false,
      "special": true
    },
    {
      "id": 210,
      "content": "<0xCC>",
      "single_word": false,
      "lstrip": false,
      "rstrip": false,
      "normalized": false,
      "special": true
    },
    {
      "id": 211,
      "content": "<0xCD>",
      "single_word": false,
      "lstrip": false,
      "rstrip": false,
      "normalized": false,
      "special": true
    },
    {
      "id": 212,
      "content": "<0xCE>",
      "single_word": false,
      "lstrip": false,
      "rstrip": false,
      "normalized": false,
      "special": true
    },
    {
      "id": 213,
      "content": "<0xCF>",
      "single_word": false,
      "lstrip": false,
      "rstrip": false,
      "normalized": false,
      "special": true
    },
    {
      "id": 214,
      "content": "<0xD0>",
      "single_word": false,
      "lstrip": false,
      "rstrip": false,
      "normalized": false,
      "special": true
    },
    {
      "id": 215,
      "content": "<0xD1>",
      "single_word": false,
      "lstrip": false,
      "rstrip": false,
      "normalized": false,
      "special": true
    },
    {
      "id": 216,
      "content": "<0xD2>",
      "single_word": false,
      "lstrip": false,
      "rstrip": false,
      "normalized": false,
      "special": true
    },
    {
      "id": 217,
      "content": "<0xD3>",
      "single_word": false,
      "lstrip": false,
      "rstrip": false,
      "normalized": false,
      "special": true
    },
    {
      "id": 218,
      "content": "<0xD4>",
      "single_word": false,
      "lstrip": false,
      "rstrip": false,
      "normalized": false,
      "special": true
    },
    {
      "id": 219,
      "content": "<0xD5>",
      "single_word": false,
      "lstrip": false,
      "rstrip": false,
      "normalized": false,
      "special": true
    },
    {
      "id": 220,
      "content": "<0xD6>",
      "single_word": false,
      "lstrip": false,
      "rstrip": false,
      "normalized": false,
      "special": true
    },
    {
      "id": 221,
      "content": "<0xD7>",
      "single_word": false,
      "lstrip": false,
      "rstrip": false,
      "normalized": false,
      "special": true
    },
    {
      "id": 222,
      "content": "<0xD8>",
      "single_word": false,
      "lstrip": false,
      "rstrip": false,
      "normalized": false,
      "special": true
    },
    {
      "id": 223,
      "content": "<0xD9>",
      "single_word": false,
      "lstrip": false,
      "rstrip": false,
      "normalized": false,
      "special": true
    },
    {
      "id": 224,
      "content": "<0xDA>",
      "single_word": false,
      "lstrip": false,
      "rstrip": false,
      "normalized": false,
      "special": true
    },
    {
      "id": 225,
      "content": "<0xDB>",
      "single_word": false,
      "lstrip": false,
      "rstrip": false,
      "normalized": false,
      "special": true
    },
    {
      "id": 226,
      "content": "<0xDC>",
      "single_word": false,
      "lstrip": false,
      "rstrip": false,
      "normalized": false,
      "special": true
    },
    {
      "id": 227,
      "content": "<0xDD>",
      "single_word": false,
      "lstrip": false,
      "rstrip": false,
      "normalized": false,
      "special": true
    },
    {
      "id": 228,
      "content": "<0xDE>",
      "single_word": false,
      "lstrip": false,
      "rstrip": false,
      "normalized": false,
      "special": true
    },
    {
      "id": 229,
      "content": "<0xDF>",
      "single_word": false,
      "lstrip": false,
      "rstrip": false,
      "normalized": false,
      "special": true
    },
    {
      "id": 230,
      "content": "<0xE0>",
      "single_word": false,
      "lstrip": false,
      "rstrip": false,
      "normalized": false,
      "special": true
    },
    {
      "id": 231,
      "content": "<0xE1>",
      "single_word": false,
      "lstrip": false,
      "rstrip": false,
      "normalized": false,
      "special": true
    },
    {
      "id": 232,
      "content": "<0xE2>",
      "single_word": false,
      "lstrip": false,
      "rstrip": false,
      "normalized": false,
      "special": true
    },
    {
      "id": 233,
      "content": "<0xE3>",
      "single_word": false,
      "lstrip": false,
      "rstrip": false,
      "normalized": false,
      "special": true
    },
    {
      "id": 234,
      "content": "<0xE4>",
      "single_word": false,
      "lstrip": false,
      "rstrip": false,
      "normalized": false,
      "special": true
    },
    {
      "id": 235,
      "content": "<0xE5>",
      "single_word": false,
      "lstrip": false,
      "rstrip": false,
      "normalized": false,
      "special": true
    },
    {
      "id": 236,
      "content": "<0xE6>",
      "single_word": false,
      "lstrip": false,
      "rstrip": false,
      "normalized": false,
      "special": true
    },
    {
      "id": 237,
      "content": "<0xE7>",
      "single_word": false,
      "lstrip": false,
      "rstrip": false,
      "normalized": false,
      "special": true
    },
    {
      "id": 238,
      "content": "<0xE8>",
      "single_word": false,
      "lstrip": false,
      "rstrip": false,
      "normalized": false,
      "special": true
    },
    {
      "id": 239,
      "content": "<0xE9>",
      "single_word": false,
      "lstrip": false,
      "rstrip": false,
      "normalized": false,
      "special": true
    },
    {
      "id": 240,
      "content": "<0xEA>",
      "single_word": false,
      "lstrip": false,
      "rstrip": false,
      "normalized": false,
      "special": true
    },
    {
      "id": 241,
      "content": "<0xEB>",
      "single_word": false,
      "lstrip": false,
      "rstrip": false,
      "normalized": false,
      "special": true
    },
    {
      "id": 242,
      "content": "<0xEC>",
      "single_word": false,
      "lstrip": false,
      "rstrip": false,
      "normalized": false,
      "special": true
    },
    {
      "id": 243,
      "content": "<0xED>",
      "single_word": false,
      "lstrip": false,
      "rstrip": false,
      "normalized": false,
      "special": true
    },
    {
      "id": 244,
      "content": "<0xEE>",
      "single_word": false,
      "lstrip": false,
      "rstrip": false,
      "normalized": false,
      "special": true
    },
    {
      "id": 245,
      "content": "<0xEF>",
      "single_word": false,
      "lstrip": false,
      "rstrip": false,
      "normalized": false,
      "special": true
    },
    {
      "id": 246,
      "content": "<0xF0>",
      "single_word": false,
      "lstrip": false,
      "rstrip": false,
      "normalized": false,
      "special": true
    },
    {
      "id": 247,
      "content": "<0xF1>",
      "single_word": false,
      "lstrip": false,
      "rstrip": false,
      "normalized": false,
      "special": true
    },
    {
      "id": 248,
      "content": "<0xF2>",
      "single_word": false,
      "lstrip": false,
      "rstrip": false,
      "normalized": false,
      "special": true
    },
    {
      "id": 249,
      "content": "<0xF3>",
      "single_word": false,
      "lstrip": false,
      "rstrip": false,
      "normalized": false,
      "special": true
    },
    {
      "id": 250,
      "content": "<0xF4>",
      "single_word": false,
      "lstrip": false,
      "rstrip": false,
      "normalized": false,
      "special": true
    },
    {
      "id": 251,
      "content": "<0xF5>",
      "single_word": false,
      "lstrip": false,
      "rstrip": false,
      "normalized": false,
      "special": true
    },
    {
      "id": 252,
      "content": "<0xF6>",
      "single_word": false,
      "lstrip": false,
      "rstrip": false,
      "normalized": false,
      "special": true
    },
    {
      "id": 253,
      "content": "<0xF7>",
      "single_word": false,
      "lstrip": false,
      "rstrip": false,
      "normalized": false,
      "special": true
    },
    {
      "id": 254,
      "content": "<0xF8>",
      "single_word": false,
      "lstrip": false,
      "rstrip": false,
      "normalized": false,
      "special": true
    },
    {
      "id": 255,
      "content": "<0xF9>",
      "single_word": false,
      "lstrip": false,
      "rstrip": false,
      "normalized": false,
      "special": true
    },
    {
      "id": 256,
      "content": "<0xFA>",
      "single_word": false,
      "lstrip": false,
      "rstrip": false,
      "normalized": false,
      "special": true
    },
    {
      "id": 257,
      "content": "<0xFB>",
      "single_word": false,
      "lstrip": false,
      "rstrip": false,
      "normalized": false,
      "special": true
    },
    {
      "id": 258,
      "content": "<0xFC>",
      "single_word": false,
      "lstrip": false,
      "rstrip": false,
      "normalized": false,
      "special": true
    },
    {
      "id": 259,
      "content": "<0xFD>",
      "single_word": false,
      "lstrip": false,
      "rstrip": false,
      "normalized": false,
      "special": true
    },
    {
      "id": 260,
      "content": "<0xFE>",
      "single_word": false,
      "lstrip": false,
      "rstrip": false,
      "normalized": false,
      "special": true
    },
    {
      "id": 261,
      "content": "<0xFF>",
      "single_word": false,
      "lstrip": false,
      "rstrip": false,
      "normalized": false,
      "special": true
    }
  ],
  "normalizer": null,
  "pre_tokenizer": {
    "type": "Sequence",
    "pretokenizers": [
      {
        "type": "Split",
        "pattern": {
          "Regex": "(?i:'s|'t|'re|'ve|'m|'ll|'d)|[^\\r\\n\\p{L}\\p{N}]?\\p{L}+|\\p{N}{1,3}| ?[^\\s\\p{L}\\p{N}]+[\\r\\n]*|\\s*[\\r\\n]+|\\s+(?!\\S)|\\s+"
        },
        "behavior": "Removed",
        "invert": true
      },
      {
        "type": "ByteLevel",
        "add_prefix_space": false,
        "trim_offsets": true,
        "use_regex": false
      }
    ]
  },
  "post_processor": null,
  "decoder": {
    "type": "Sequence",
    "decoders": [
      {
        "type": "ByteFallback"
      },
      {
        "type": "ByteLevel",
        "add_prefix_space": true,
        "trim_offsets": true,
        "use_regex": true
      }
    ]
  },
  "model": {
    "type": "BPE",
    "dropout": null,
    "unk_token": null,
    "continuing_subword_prefix": null,
    "end_of_word_suffix": null,
    "fuse_unk": false,
    "byte_fallback": true,
    "vocab": {
      "<|begin_of_text|>": 0,
      "<|end_of_text|>": 1,
      "<pad>": 2,
      "<|fim_prefix|>": 3,
      "<|fim_middle|>": 4,
      "<|fim_suffix|>": 5,
      "<0x00>": 6,
      "<0x01>": 7,
      "<0x02>": 8,
      "<0x03>": 9,
      "<0x04>": 10,
      "<0x05>": 11,
      "<0x06>": 12,
      "<0x07>": 13,
      "<0x08>": 14,
      "<0x09>": 15,
      "<0x0A>": 16,
      "<0x0B>": 17,
      "<0x0C>": 18,
      "<0x0D>": 19,
      "<0x0E>": 20,
      "<0x0F>": 21,
      "<0x10>": 22,
      "<0x11>": 23,
      "<0x12>": 24,
      "<0x13>": 25,
      "<0x14>": 26,
      "<0x15>": 27,
      "<0x16>": 28,
      "<0x17>": 29,
      "<0x18>": 30,
      "<0x19>": 31,
      "<0x1A>": 32,
      "<0x1B>": 33,
      "<0x1C>": 34,
      "<0x1D>": 35,
      "<0x1E>": 36,
      "<0x1F>": 37,
      "<0x20>": 38,
      "<0x21>": 39,
      "<0x22>": 40,
      "<0x23>": 41,
      "<0x24>": 42,
      "<0x25>": 43,
      "<0x26>": 44,
      "<0x27>": 45,
      "<0x28>": 46,
      "<0x29>": 47,
      "<0x2A>": 48,
      "<0x2B>": 49,
      "<0x2C>": 50,
      "<0x2D>": 51,
      "<0x2E>": 52,
      "<0x2F>": 53,
      "<0x30>": 54,
      "<0x31>": 55,
      "<0x32>": 56,
      "<0x33>": 57,
      "<0x34>": 58,
      "<0x35>": 59,
      "<0x36>": 60,
      "<0x37>": 61,
      "<0x38>": 62,
      "<0x39>": 63,
      "<0x3A>": 64,
      "<0x3B>": 65,
      "<0x3C>": 66,
      "<0x3D>": 67,
      "<0x3E>": 68,
      "<0x3F>": 69,
      "<0x40>": 70,
      "<0x41>": 71,
      "<0x42>": 72,
      "<0x43>": 73,
      "<0x44>": 74,
      "<0x45>": 75,
      "<0x46>": 76,
      "<0x47>": 77,
      "<0x48>": 78,
      "<0x49>": 79,
      "<0x4A>": 80,
      "<0x4B>": 81,
      "<0x4C>": 82,
      "<0x4D>": 83,
      "<0x4E>": 84,
      "<0x4F>": 85,
      "<0x50>": 86,
      "<0x51>": 87,
      "<0x52>": 88,
      "<0x53>": 89,
      "<0x54>": 90,
      "<0x55>": 91,
      "<0x56>": 92,
      "<0x57>": 93,
      "<0x58>": 94,
      "<0x59>": 95,
      "<0x5A>": 96,
      "<0x5B>": 97,
      "<0x5C>": 98,
      "<0x5D>": 99,
      "<0x5E>": 100,
      "<0x5F>": 101,
      "<0x60>": 102,
      "<0x61>": 103,
      "<0x62>": 104,
      "<0x63>": 105,
      "<0x64>": 106,
      "<0x65>": 107,
      "<0x66>": 108,
      "<0x67>": 109,
      "<0x68>": 110,
      "<0x69>": 111,
      "<0x6A>": 112,
      "<0x6B>": 113,
      "<0x6C>": 114,
      "<0x6D>": 115,
      "<0x6E>": 116,
      "<0x6F>": 117,
      "<0x70>": 118,
      "<0x71>": 119,
      "<0x72>": 120,
      "<0x73>": 121,
      "<0x74>": 122,
      "<0x75>": 123,
      "<0x76>": 124,
      "<0x77>": 125,
      "<0x78>": 126,
      "<0x79>": 127,
      "<0x7A>": 128,
      "<0x7B>": 129,
      "<0x7C>": 130,
      "<0x7D>": 131,
      "<0x7E>": 132,
      "<0x7F>": 133,
      "<0x80>": 134,
      "<0x81>": 135,
      "<0x82>": 136,
      "<0x83>": 137,
      "<0x84>": 138,
      "<0x85>": 139,
      "<0x86>": 140,
      "<0x87>": 141,
      "<0x88>": 142,
      "<0x89>": 143,
      "<0x8A>": 144,
      "<0x8B>": 145,
      "<0x8C>": 146,
      "<0x8D>": 147,
      "<0x8E>": 148,
      "<0x8F>": 149,
      "<0x90>": 150,
      "<0x91>": 151,
      "<0x92>": 152,
      "<0x93>": 153,
      "<0x94>": 154,
      "<0x95>": 155,
      "<0x96>": 156,
      "<0x97>": 157,
      "<0x98>": 158,
      "<0x99>": 159,
      "<0x9A>": 160,
      "<0x9B>": 161,
      "<0x9C>": 162,
      "<0x9D>": 163,
      "<0x9E>": 164,
      "<0x9F>": 165,
      "<0xA0>": 166,
      "<0xA1>": 167,
      "<0xA2>": 168,
      "<0xA3>": 169,
      "<0xA4>": 170,
      "<0xA5>": 171,
      "<0xA6>": 172,
      "<0xA7>": 173,
      "<0xA8>": 174,
      "<0xA9>": 175,
      "<0xAA>": 176,
      "<0xAB>": 177,
      "<0xAC>": 178,
      "<0xAD>": 179,
      "<0xAE>": 180,
      "<0xAF>": 181,
      "<0xB0>": 182,
      "<0xB1>": 183,
      "<0xB2>": 184,
      "<0xB3>": 185,
      "<0xB4>": 186,
      "<0xB5>": 187,
      "<0xB6>": 188,
      "<0xB7>": 189,
      "<0xB8>": 190,
      "<0xB9>": 191,
      "<0xBA>": 192,
      "<0xBB>": 193,
      "<0xBC>": 194,
      "<0xBD>": 195,
      "<0xBE>": 196,
      "<0xBF>": 197,
      "<0xC0>": 198,
      "<0xC1>": 199,
      "<0xC2>": 200,
      "<0xC3>": 201,
      "<0xC4>": 202,
      "<0xC5>": 203,
      "<0xC6>": 204,
      "<0xC7>": 205,
      "<0xC8>": 206,
      "<0xC9>": 207,
      "<0xCA>": 208,
      "<0xCB>": 209,
      "<0xCC>": 210,
      "<0xCD>": 211,
      "<0xCE>": 212,
      "<0xCF>": 213,
      "<0xD0>": 214,
      "<0xD1>": 215,
      "<0xD2>": 216,
      "<0xD3>": 217,
      "<0xD4>": 218,
      "<0xD5>": 219,
      "<0xD6>": 220,
      "<0xD7>": 221,
      "<0xD8>": 222,
      "<0xD9>": 223,
      "<0xDA>": 224,
      "<0xDB>": 225,
      "<0xDC>": 226,
      "<0xDD>": 227,
      "<0xDE>": 228,
      "<0xDF>": 229,
      "<0xE0>": 230,
      "<0xE1>": 231,
      "<0xE2>": 232,
      "<0xE3>": 233,
      "<0xE4>": 234,
      "<0xE5>": 235,
      "<0xE6>": 236,
      "<0xE7>": 237,
      "<0xE8>": 238,
      "<0xE9>": 239,
      "<0xEA>": 240,
      "<0xEB>": 241,
      "<0xEC>": 242,
      "<0xED>": 243,
      "<0xEE>": 244,
      "<0xEF>": 245,
      "<0xF0>": 246,
      "<0xF1>": 247,
      "<0xF2>": 248,
      "<0xF3>": 249,
      "<0xF4>": 250,
      "<0xF5>": 251,
      "<0xF6>": 252,
      "<0xF7>": 253,
      "<0xF8>": 254,
      "<0xF9>": 255,
      "<0xFA>": 256,
      "<0xFB>": 257,
      "<0xFC>": 258,
      "<0xFD>": 259,
      "<0xFE>": 260,
      "<0xFF>": 261,
      "!": 262,
      "\"": 263,
      "#": 264,
      "$": 265,
      "%": 266,
      "&": 267,
      "'": 268,
      "(": 269,
      ")": 270,
      "*": 271,
      "+": 272,
      ",": 273,
      "-": 274,
      ".": 275,
      "/": 276,
      "0": 277,
      "1": 278,
      "2": 279,
      "3": 280,
      "4": 281,
      "5": 282,
      "6": 283,
      "7": 284,
      "8": 285,
      "9": 286,
      ":": 287,
      ";": 288,
      "<": 289,
      "=": 290,
      ">": 291,
      "?": 292,
      "@": 293,
      "A": 294,
      "B": 295,
      "C": 296,
      "D": 297,
      "E": 298,
      "F": 299,
      "G": 300,
      "H": 301,
      "I": 302,
      "J": 303,
      "K": 304,
      "L": 305,
      "M": 306,
      "N": 307,
      "O": 308,
      "P": 309,
      "Q": 310,
      "R": 311,
      "S": 312,
      "T": 313,
      "U": 314,
      "V": 315,
      "W": 316,
      "X": 317,
      "Y": 318,
      "Z": 319,
      "[": 320,
      "\\": 321,
      "]": 322,
      "^": 323,
      "_": 324,
      "`": 325,
      "a": 326,
      "b": 327,
      "c": 328,
      "d": 329,
      "e": 330,
      "f": 331,
      "g": 332,
      "h": 333,
      "i": 334,
      "j": 335,
      "k": 336,
      "l": 337,
      "m": 338,
      "n": 339,
      "o": 340,
      "p": 341,
      "q": 342,
      "r": 343,
      "s": 344,
      "t": 345,
      "u": 346,
      "v": 347,
      "w": 348,
      "x": 349,
      "y": 350,
      "z": 351,
      "{": 352,
      "|": 353,
      "}": 354,
      "~": 355,
      "¡": 356,
      "¢": 357,
      "£": 358,
      "¤": 359,
      "¥": 360,
      "¦": 361,
      "§": 362,
      "¨": 363,
      "©": 364,
      "ª": 365,
      "«": 366,
      "¬": 367,
      "®": 368,
      "¯": 369,
      "°": 370,
      "±": 371,
      "²": 372,
      "³": 373,
      "´": 374,
      "µ": 375,
      "¶": 376,
      "·": 377,
      "¸": 378,
      "¹": 379,
      "º": 380,
      "»": 381,
      "¼": 382,
      "½": 383,
      "¾": 384,
      "¿": 385,
      "Â": 386,
      "Ã": 387,
      "Ä": 388,
      "Å": 389,
      "Æ": 390,
      "Ç": 391,
      "È": 392,
      "É": 393,
      "Ê": 394,
      "Ë": 395,
      "Ì": 396,
      "Í": 397,
      "Î": 398,
      "Ï": 399,
      "Ð": 400,
      "Ñ": 401,
      "Ò": 402,
      "Ó": 403,
      "Ô": 404,
      "Õ": 405,
      "Ö": 406,
      "×": 407,
      "Ø": 408,
      "Ù": 409,
      "Ú": 410,
      "Û": 411,
      "Ü": 412,
      "Ý": 413,
      "Þ": 414,
      "ß": 415,
      "à": 416,
      "á": 417,
      "â": 418,
      "ã": 419,
      "ä": 420,
      "å": 421,
      "æ": 422,
      "ç": 423,
      "è": 424,
      "é": 425,
      "ê": 426,
      "ë": 427,
      "ì": 428,
      "í": 429,
      "î": 430,
      "ï": 431,
      "ð": 432,
      "ñ": 433,
      "ò": 434,
      "ó": 435,
      "ô": 436,
      "Ā": 437,
      "ā": 438,
      "Ă": 439,
      "ă": 440,
      "Ą": 441,
      "ą": 442,
      "Ć": 443,
      "ć": 444,
      "Ĉ": 445,
      "ĉ": 446,
      "Ċ": 447,
      "ċ": 448,
      "Č": 449,
      "č": 450,
      "Ď": 451,
      "ď": 452,
      "Đ": 453,
      "đ": 454,
      "Ē": 455,
      "ē": 456,
      "Ĕ": 457,
      "ĕ": 458,
      "Ė": 459,
      "ė": 460,
      "Ę": 461,
      "ę": 462,
      "Ě": 463,
      "ě": 464,
      "Ĝ": 465,
      "ĝ": 466,
      "Ğ": 467,
      "ğ": 468,
      "Ġ": 469,
      "ġ": 470,
      "Ģ": 471,
      "ģ": 472,
      "Ĥ": 473,
      "ĥ": 474,
      "Ħ": 475,
      "ħ": 476,
      "Ĩ": 477,
      "ĩ": 478,
      "Ī": 479,
      "ī": 480,
      "Ĭ": 481,
      "ĭ": 482,
      "Į": 483,
      "į": 484,
      "İ": 485,
      "ı": 486,
      "Ĳ": 487,
      "ĳ": 488,
      "Ĵ": 489,
      "ĵ": 490,
      "Ķ": 491,
      "ķ": 492,
      "ĸ": 493,
      "Ĺ": 494,
      "ĺ": 495,
      "Ļ": 496,
      "ļ": 497,
      "Ľ": 498,
      "ľ": 499,
      "Ŀ": 500,
      "ŀ": 501,
      "Ł": 502,
      "ł": 503,
      "Ń": 504,
      "ĠĠ": 505,
      "ĠĠĠĠ": 506,
      "in": 507,
      "er": 508,
      "ĠĠĠ": 509,
      "ĠĠĠĠĠĠĠĠ": 510,
      "on": 511,
      "Ġt": 512,
      "re": 513,
      "at": 514,
      "st": 515,
      "en": 516,
      "Ġa": 517,
      "or": 518,
      "Ġth": 519,
      "le": 520,
      ";Ċ": 521,
      "se": 522,
      "Ġc": 523,
      "al": 524,
      "it": 525,
      "ar": 526,
      "ion": 527,
      "ĠĠĠĠĠĠĠ": 528,
      "an": 529,
      "Ġ=": 530,
      "de": 531,
      "Ġthe": 532,
      "Ġf": 533,
      "Ġp": 534,
      "ou": 535,
      "ct": 536,
      "is": 537,
      "ing": 538,
      "me": 539,
      "Ġs": 540,
      "ic": 541,
      "ro": 542,
      "ĉĉ": 543,
      "Ġw": 544,
      "es": 545,
      "Ġb": 546,
      "ĊĊ": 547,
      "ent": 548,
      ");Ċ": 549,
      "ed": 550,
      "Ġo": 551,
      "et": 552,
      "--": 553,
      "Ġ{": 554,
      "Ġin": 555,
      "Ġn": 556,
      "Ġre": 557,
      "as": 558,
      "ĠĠĠĠĠĠĠĠĠĠĠ": 559,
      "Ġ(": 560,
      "Ġm": 561,
      "nd": 562,
      "lo": 563,
      "id": 564,
      "Ġh": 565,
      "ur": 566,
      "Ġd": 567,
      "mp": 568,
      "Ġto": 569,
      "el": 570,
      "if": 571,
      "il": 572,
      "ut": 573,
      "//": 574,
      "ch": 575,
      "Ġ{Ċ": 576,
      "Ġ}": 577,
      "ex": 578,
      "Ġof": 579,
      ")Ċ": 580,
      "Ġ*": 581,
      "ra": 582,
      "ce": 583,
      "Ġ\"": 584,
      "ig": 585,
      "th": 586,
      ",Ċ": 587,
      "ate": 588,
      "ol": 589,
      "ad": 590,
      "ue": 591,
      "Ġand": 592,
      "ĠĠĠĠĠĠĠĠĠĠĠĠĠĠĠĠ": 593,
      "ag": 594,
      "ul": 595,
      "**": 596,
      "Ġv": 597,
      "un": 598,
      "iv": 599,
      "ame": 600,
      "Ġ$": 601,
      "pe": 602,
      "ation": 603,
      "ĠS": 604,
      "ot": 605,
      "Ġ'": 606,
      "Ġst": 607,
      "Ġg": 608,
      "ab": 609,
      "om": 610,
      "ck": 611,
      "Ġ<": 612,
      "()": 613,
      "ĠT": 614,
      "tr": 615,
      "ĠI": 616,
      "Ġl": 617,
      "ter": 618,
      "čĊ": 619,
      "us": 620,
      "ction": 621,
      "->": 622,
      "um": 623,
      "----": 624,
      "Ġis": 625,
      "ode": 626,
      "urn": 627,
      ".Ċ": 628,
      "ew": 629,
      "ist": 630,
      "ĠĠĠĠĠ": 631,
      "Ġde": 632,
      "ort": 633,
      "Ġse": 634,
      "ub": 635,
      "ĠC": 636,
      "pt": 637,
      "em": 638,
      "Ġcon": 639,
      "ĠA": 640,
      "Ġfor": 641,
      "turn": 642,
      ">Ċ": 643,
      "ss": 644,
      "end": 645,
      "he": 646,
      "ĠĠĠĠĠĠĠĠĠĠĠĠĠĠĠ": 647,
      "ass": 648,
      "ap": 649,
      "Ġe": 650,
      "ay": 651,
      "ri": 652,
      "ow": 653,
      "ver": 654,
      "am": 655,
      "ext": 656,
      "Ġif": 657,
      "get": 658,
      "im": 659,
      "nt": 660,
      "ly": 661,
      "ect": 662,
      "Ġbe": 663,
      "int": 664,
      "=\"": 665,
      "qu": 666,
      "ith": 667,
      "age": 668,
      "od": 669,
      "ht": 670,
      "ve": 671,
      "ata": 672,
      "con": 673,
      "lic": 674,
      "ir": 675,
      "Ġy": 676,
      "Ġon": 677,
      "==": 678,
      "ype": 679,
      "iz": 680,
      "ile": 681,
      "and": 682,
      "Ġ\\": 683,
      "imp": 684,
      "ĠP": 685,
      "our": 686,
      "out": 687,
      "ment": 688,
      "::": 689,
      "ĠM": 690,
      "Ġ//": 691,
      "able": 692,
      "ers": 693,
      "Ġthis": 694,
      "Ġreturn": 695,
      "lass": 696,
      "ke": 697,
      "ult": 698,
      "up": 699,
      "}Ċ": 700,
      "Ġ}Ċ": 701,
      "(\"": 702,
      "Ġwh": 703,
      "est": 704,
      "ase": 705,
      "ĉĉĉĉ": 706,
      "Ġthat": 707,
      "Re": 708,
      "In": 709,
      "Ġit": 710,
      "rom": 711,
      "ert": 712,
      "ĠD": 713,
      "res": 714,
      "Ġpro": 715,
      "ath": 716,
      "to": 717,
      "ine": 718,
      "set": 719,
      "Ġ-": 720,
      "ption": 721,
      "****": 722,
      "Ġal": 723,
      ":Ċ": 724,
      "Ġan": 725,
      "art": 726,
      "('": 727,
      "alue": 728,
      "Ġwith": 729,
      "ĠF": 730,
      "lf": 731,
      "Ġ+": 732,
      "ack": 733,
      "ore": 734,
      "Ġ[": 735,
      "ĠN": 736,
      "ess": 737,
      ".c": 738,
      "os": 739,
      "Ġr": 740,
      "ĠB": 741,
      "Con": 742,
      "ity": 743,
      "00": 744,
      "ight": 745,
      "orm": 746,
      "Ġas": 747,
      "omp": 748,
      "ime": 749,
      "ang": 750,
      ";ĊĊ": 751,
      "Ġex": 752,
      "import": 753,
      "ublic": 754,
      "Ġ@": 755,
      "âĢ": 756,
      "\",": 757,
      "op": 758,
      "str": 759,
      "ĠL": 760,
      "li": 761,
      "ĠE": 762,
      "Ġor": 763,
      "--------": 764,
      "ain": 765,
      "();Ċ": 766,
      "ure": 767,
      "Ġme": 768,
      "##": 769,
      "ject": 770,
      "ere": 771,
      "}ĊĊ": 772,
      "Ġ}ĊĊ": 773,
      "ĠĠĠĠĠĠĠĠĠĠĠĠĠĠĠĠĠĠĠ": 774,
      "Ġ&": 775,
      "</": 776,
      "sp": 777,
      "',": 778,
      "ize": 779,
      "ff": 780,
      "tring": 781,
      "unction": 782,
      "te": 783,
      "Ġ:": 784,
      "use": 785,
      "ld": 786,
      "Ġnew": 787,
      "all": 788,
      ".p": 789,
      "pp": 790,
      "ind": 791,
      "Ġlo": 792,
      "name": 793,
      "ial": 794,
      "que": 795,
      "ĠR": 796,
      "ĠG": 797,
      ").": 798,
      "St": 799,
      "err": 800,
      "_t": 801,
      "_p": 802,
      "ĠH": 803,
      "av": 804,
      "Ġ|": 805,
      "ive": 806,
      "{Ċ": 807,
      "Ġtr": 808,
      "Ġclass": 809,
      "fa": 810,
      "ĠW": 811,
      "oc": 812,
      "Ġfrom": 813,
      "sc": 814,
      "ire": 815,
      "ice": 816,
      "Ġ_": 817,
      ");ĊĊ": 818,
      "ant": 819,
      "Ġj": 820,
      "ord": 821,
      "ill": 822,
      "Ġnot": 823,
      "ĉĉĉ": 824,
      "ull": 825,
      "rou": 826,
      "ib": 827,
      "Ġch": 828,
      "Ġyou": 829,
      "put": 830,
      "Ġle": 831,
      "lu": 832,
      "Ġ/": 833,
      "..": 834,
      "are": 835,
      "ĠO": 836,
      "this": 837,
      "cc": 838,
      "oo": 839,
      "ach": 840,
      "\"Ċ": 841,
      "ome": 842,
      "ave": 843,
      ".get": 844,
      "Ġare": 845,
      "Ġat": 846,
      "Ġpublic": 847,
      "ser": 848,
      "text": 849,
      "Ġ=>": 850,
      "Ġ*/": 851,
      "ph": 852,
      "Name": 853,
      "ite": 854,
      "ies": 855,
      "Ġi": 856,
      "Ġsh": 857,
      "_c": 858,
      "ost": 859,
      "ign": 860,
      "Ġstr": 861,
      "))": 862,
      "ĠThe": 863,
      "Ġby": 864,
      "act": 865,
      "ast": 866,
      "oid": 867,
      "ps": 868,
      "ER": 869,
      "bject": 870,
      "Ġget": 871,
      "form": 872,
      "Ġwe": 873,
      "row": 874,
      "ĠĠĠĠĠĠĠĠĠ": 875,
      "Ġ.": 876,
      "Ġ==": 877,
      "Ex": 878,
      "iew": 879,
      "one": 880,
      "gin": 881,
      "ard": 882,
      "return": 883,
      "====": 884,
      "dd": 885,
      "ray": 886,
      "ft": 887,
      "aram": 888,
      "quest": 889,
      "ount": 890,
      "ould": 891,
      "ip": 892,
      ";čĊ": 893,
      "div": 894,
      "Ġself": 895,
      "fig": 896,
      "ory": 897,
      "ĠU": 898,
      "Ġ*/Ċ": 899,
      "ans": 900,
      "uct": 901,
      "ild": 902,
      "vent": 903,
      "ition": 904,
      "ust": 905,
      "Ġfunction": 906,
      "IN": 907,
      "ary": 908,
      "omm": 909,
      "Ġres": 910,
      "Ġar": 911,
      "ated": 912,
      "Pro": 913,
      "ork": 914,
      "data": 915,
      "ance": 916,
      "ber": 917,
      "Ġint": 918,
      "ak": 919,
      "ace": 920,
      "ail": 921,
      "Ġcan": 922,
      "String": 923,
      "Id": 924,
      "ide": 925,
      "_{": 926,
      "sh": 927,
      "eld": 928,
      "20": 929,
      "ll": 930,
      "lay": 931,
      "Ġwas": 932,
      "low": 933,
      "be": 934,
      "odel": 935,
      "Ġ!": 936,
      "ax": 937,
      "Ġun": 938,
      "riv": 939,
      "Ġk": 940,
      "Ġhe": 941,
      "per": 942,
      "ON": 943,
      "Ġel": 944,
      "Type": 945,
      "Ġdo": 946,
      "),": 947,
      "Ġ#": 948,
      "ong": 949,
      "ĉif": 950,
      "Ġconst": 951,
      "Ġus": 952,
      "********": 953,
      "ref": 954,
      "ield": 955,
      "Ġ`": 956,
      ".ĊĊ": 957,
      "atic": 958,
      "port": 959,
      "ĠĠĠĠĠĠĠĠĠĠĠĠĠĠĠĠĠĠĠĠĠĠĠ": 960,
      "Ġset": 961,
      "Ġ</": 962,
      "dex": 963,
      "atch": 964,
      "Ġname": 965,
      "vice": 966,
      "__": 967,
      "alse": 968,
      "key": 969,
      "add": 970,
      "']": 971,
      "ress": 972,
      "ac": 973,
      "pro": 974,
      "ens": 975,
      "ec": 976,
      "val": 977,
      "ell": 978,
      "Ġhave": 979,
      "_f": 980,
      "ge": 981,
      "ST": 982,
      "ĠV": 983,
      ")ĊĊ": 984,
      "lement": 985,
      "Ġcomp": 986,
      ".m": 987,
      "code": 988,
      "lect": 989,
      "fo": 990,
      "Ġvar": 991,
      "app": 992,
      "_s": 993,
      "To": 994,
      "($": 995,
      "RE": 996,
      "ery": 997,
      "Ġen": 998,
      "',Ċ": 999,
      "self": 1000,
      "yst": 1001,
      "bo": 1002,
      "og": 1003,
      "\">": 1004,
      "Ġuse": 1005,
      "10": 1006,
      "ource": 1007,
      "bu": 1008,
      "ence": 1009,
      "Ġcont": 1010,
      "di": 1011,
      ".s": 1012,
      "List": 1013,
      "error": 1014,
      "ĠTh": 1015,
      "def": 1016,
      "Ġdata": 1017,
      "reate": 1018,
      "amp": 1019,
      "ink": 1020,
      "log": 1021,
      "clu": 1022,
      "()Ċ": 1023,
      "['": 1024,
      "'s": 1025,
      "les": 1026,
      "\",Ċ": 1027,
      "ĠJ": 1028,
      "Res": 1029,
      "so": 1030,
      "abel": 1031,
      "ator": 1032,
      "ther": 1033,
      "ich": 1034,
      "----------------": 1035,
      "_m": 1036,
      "ystem": 1037,
      "{\\": 1038,
      "AT": 1039,
      "ĠIn": 1040,
      "Ġvoid": 1041,
      "Ġelse": 1042,
      "Ġnull": 1043,
      "ĉreturn": 1044,
      "Ġvalue": 1045,
      "Data": 1046,
      "Ġout": 1047,
      "oint": 1048,
      "Ġu": 1049,
      "ener": 1050,
      "////": 1051,
      "inal": 1052,
      "rivate": 1053,
      "ange": 1054,
      "own": 1055,
      "Ġdef": 1056,
      "âĢĻ": 1057,
      "param": 1058,
      "Ġup": 1059,
      "fault": 1060,
      "pect": 1061,
      "De": 1062,
      "ception": 1063,
      "ix": 1064,
      "eng": 1065,
      "Ġwill": 1066,
      "Cont": 1067,
      "]Ċ": 1068,
      "cont": 1069,
      "ĠÐ": 1070,
      "scri": 1071,
      "ual": 1072,
      "cal": 1073,
      "lock": 1074,
      "ID": 1075,
      "ree": 1076,
      "')": 1077,
      "ie": 1078,
      "LE": 1079,
      "ations": 1080,
      "clude": 1081,
      "rr": 1082,
      "urre": 1083,
      "Ġall": 1084,
      "fer": 1085,
      "Ġne": 1086,
      "rint": 1087,
      "umber": 1088,
      "ake": 1089,
      "ound": 1090,
      "ble": 1091,
      "_C": 1092,
      "date": 1093,
      "Ġx": 1094,
      "Ġtrue": 1095,
      "old": 1096,
      "read": 1097,
      "\");Ċ": 1098,
      "ob": 1099,
      "Ġbut": 1100,
      "string": 1101,
      "onse": 1102,
      "pert": 1103,
      "ne": 1104,
      "Ch": 1105,
      "**Ċ": 1106,
      "ical": 1107,
      "Ġtype": 1108,
      ".f": 1109,
      "Ġ)": 1110,
      "Ġstring": 1111,
      "olor": 1112,
      "OR": 1113,
      "ton": 1114,
      "\">Ċ": 1115,
      "\")": 1116,
      "var": 1117,
      "://": 1118,
      "_id": 1119,
      "yn": 1120,
      "roup": 1121,
      "qual": 1122,
      "ument": 1123,
      "ãģ": 1124,
      "ger": 1125,
      "value": 1126,
      "Ġhas": 1127,
      "Ġyour": 1128,
      "ĠĠĠĠĠĠĠĠĠĠĠĠĠĠĠĠĠĠĠĠĠĠĠĠĠĠĠĠĠĠĠĠ": 1129,
      ".h": 1130,
      "line": 1131,
      "Ġapp": 1132,
      "The": 1133,
      "ĉp": 1134,
      "_S": 1135,
      "Ġ!=": 1136,
      "Ġtime": 1137,
      "\":": 1138,
      "math": 1139,
      "lient": 1140,
      "Ser": 1141,
      "Ġ>": 1142,
      "tt": 1143,
      "(Ċ": 1144,
      "pl": 1145,
      "EN": 1146,
      "ĠString": 1147,
      "ĠĊ": 1148,
      "atus": 1149,
      "(f": 1150,
      "ms": 1151,
      "pec": 1152,
      "AL": 1153,
      "ry": 1154,
      "Ġso": 1155,
      "ĠRe": 1156,
      "Ġfalse": 1157,
      "Ð¾": 1158,
      "led": 1159,
      "Ġass": 1160,
      "Value": 1161,
      "}}": 1162,
      "_b": 1163,
      "son": 1164,
      "urrent": 1165,
      "ded": 1166,
      "new": 1167,
      "uth": 1168,
      "ml": 1169,
      "type": 1170,
      "ader": 1171,
      "gs": 1172,
      "Ar": 1173,
      "Th": 1174,
      "ength": 1175,
      "Ġend": 1176,
      "ont": 1177,
      "ute": 1178,
      "Ġval": 1179,
      "tern": 1180,
      "Ġ///": 1181,
      "htt": 1182,
      "ings": 1183,
      "right": 1184,
      "Ġwhich": 1185,
      "``": 1186,
      "we": 1187,
      "().": 1188,
      "Ġid": 1189,
      "rror": 1190,
      "ule": 1191,
      "irst": 1192,
      "12": 1193,
      "emp": 1194,
      "ark": 1195,
      "ĠĠĠĠĠĠ": 1196,
      "begin": 1197,
      "ces": 1198,
      "ions": 1199,
      "ty": 1200,
      "_in": 1201,
      "Ðµ": 1202,
      "sed": 1203,
      "Ġsc": 1204,
      "ous": 1205,
      "ask": 1206,
      "Se": 1207,
      "####": 1208,
      "ey": 1209,
      "32": 1210,
      "AR": 1211,
      "Ġ$\\": 1212,
      "Ġsu": 1213,
      "Ġab": 1214,
      "ool": 1215,
      "Ġ&&": 1216,
      "En": 1217,
      ".C": 1218,
      "Ġone": 1219,
      "_d": 1220,
      "user": 1221,
      "ccess": 1222,
      "Ġdis": 1223,
      "ĠK": 1224,
      "of": 1225,
      "Ġfile": 1226,
      "Ġ%": 1227,
      "It": 1228,
      "========": 1229,
      "Ġprivate": 1230,
      "Set": 1231,
      "Ð°": 1232,
      "Ġ?": 1233,
      "Ġresult": 1234,
      "io": 1235,
      "ash": 1236,
      "ia": 1237,
      "quire": 1238,
      "ann": 1239,
      "item": 1240,
      "Ġcase": 1241,
      "let": 1242,
      "Ġno": 1243,
      "^{": 1244,
      "_P": 1245,
      "View": 1246,
      "Ġtest": 1247,
      "Ġcom": 1248,
      "'t": 1249,
      "Ġmy": 1250,
      "201": 1251,
      "Bu": 1252,
      "_l": 1253,
      "):Ċ": 1254,
      "ok": 1255,
      "ep": 1256,
      "ãĥ": 1257,
      "min": 1258,
      "Ġadd": 1259,
      "ptions": 1260,
      "arch": 1261,
      "_n": 1262,
      "Ġstatic": 1263,
      ".com": 1264,
      ".set": 1265,
      "gh": 1266,
      "Ġsp": 1267,
      "Ġbu": 1268,
      "ock": 1269,
      "Ġser": 1270,
      "ava": 1271,
      ".t": 1272,
      "IT": 1273,
      "Ġpar": 1274,
      ".j": 1275,
      "idth": 1276,
      "DE": 1277,
      "Exception": 1278,
      "const": 1279,
      "Ġsome": 1280,
      ".l": 1281,
      "Error": 1282,
      "));Ċ": 1283,
      "over": 1284,
      "Ġper": 1285,
      "_T": 1286,
      "UL": 1287,
      "Ġpl": 1288,
      "Get": 1289,
      ".A": 1290,
      "ook": 1291,
      "Ġpre": 1292,
      "(p": 1293,
      "ues": 1294,
      "ish": 1295,
      "ates": 1296,
      "(c": 1297,
      "stance": 1298,
      "ove": 1299,
      "onent": 1300,
      "load": 1301,
      "ĠâĢ": 1302,
      "].": 1303,
      ".d": 1304,
      "ma": 1305,
      "ise": 1306,
      "left": 1307,
      "ific": 1308,
      "nder": 1309,
      ".g": 1310,
      "heck": 1311,
      "Ġany": 1312,
      "ca": 1313,
      "ĠĠĠĠĠĠĠĠĠĠĠĠĠ": 1314,
      "Object": 1315,
      "rite": 1316,
      "ick": 1317,
      "itle": 1318,
      "File": 1319,
      "yle": 1320,
      "file": 1321,
      "trib": 1322,
      "Ġqu": 1323,
      "))Ċ": 1324,
      "fra": 1325,
      "Ġ||": 1326,
      "thod": 1327,
      "SE": 1328,
      "\\end": 1329,
      "roll": 1330,
      "Ġwhen": 1331,
      "include": 1332,
      "ãĤ": 1333,
      "anag": 1334,
      "url": 1335,
      "\\begin": 1336,
      "16": 1337,
      "du": 1338,
      "ov": 1339,
      "Ð¸": 1340,
      "ifi": 1341,
      "work": 1342,
      "utton": 1343,
      "Key": 1344,
      "ream": 1345,
      "ameter": 1346,
      "ponse": 1347,
      "Text": 1348,
      "ĠĠĠĠĠĠĠĠĠĠĠĠĠĠĠĠĠĠĠĠĠĠĠĠĠĠĠ": 1349,
      "struct": 1350,
      "Ġover": 1351,
      "CT": 1352,
      "arget": 1353,
      "ssage": 1354,
      "ud": 1355,
      "Ġwork": 1356,
      "unc": 1357,
      "ÑĤ": 1358,
      "ta": 1359,
      "ys": 1360,
      "ĠY": 1361,
      "\")Ċ": 1362,
      "perty": 1363,
      "Ġcol": 1364,
      "Ġhis": 1365,
      "indow": 1366,
      "ME": 1367,
      "Ã©": 1368,
      "****************": 1369,
      "rit": 1370,
      "Ġmore": 1371,
      "Ġpart": 1372,
      "_re": 1373,
      "];Ċ": 1374,
      "Tr": 1375,
      "back": 1376,
      "for": 1377,
      "cess": 1378,
      "Ġorg": 1379,
      "Ġlet": 1380,
      "Ġro": 1381,
      "Item": 1382,
      "Ġinter": 1383,
      "'Ċ": 1384,
      "time": 1385,
      "Time": 1386,
      "19": 1387,
      "lean": 1388,
      "(\\": 1389,
      ".S": 1390,
      "ĠSt": 1391,
      "Ġ,": 1392,
      "ilter": 1393,
      "\";Ċ": 1394,
      "ken": 1395,
      "AN": 1396,
      "Ġ->": 1397,
      "ä¸": 1398,
      "sum": 1399,
      "](": 1400,
      "Ġgo": 1401,
      "By": 1402,
      "iss": 1403,
      "++": 1404,
      "Test": 1405,
      "ear": 1406,
      "irect": 1407,
      "vel": 1408,
      "lete": 1409,
      "Ġerror": 1410,
      "Ġli": 1411,
      "');Ċ": 1412,
      "ages": 1413,
      "ommand": 1414,
      "_st": 1415,
      "Ġfinal": 1416,
      "der": 1417,
      ".re": 1418,
      "Ġsup": 1419,
      "}$": 1420,
      "col": 1421,
      "),Ċ": 1422,
      "State": 1423,
      "ns": 1424,
      "Ġother": 1425,
      "gra": 1426,
      "Ġthey": 1427,
      "}\\": 1428,
      "util": 1429,
      "view": 1430,
      "ffer": 1431,
      "osition": 1432,
      "void": 1433,
      "ody": 1434,
      "class": 1435,
      "Ġ},Ċ": 1436,
      "(self": 1437,
      "reak": 1438,
      "ics": 1439,
      "lection": 1440,
      "/*": 1441,
      "ater": 1442,
      "Ġ/**Ċ": 1443,
      "_name": 1444,
      "yp": 1445,
      "Ġthere": 1446,
      "Ġ*Ċ": 1447,
      "raw": 1448,
      "11": 1449,
      "SS": 1450,
      "Ġad": 1451,
      "(s": 1452,
      "._": 1453,
      "ample": 1454,
      "rc": 1455,
      "Ġsub": 1456,
      "Ġext": 1457,
      "label": 1458,
      ".st": 1459,
      "cre": 1460,
      "],": 1461,
      "ses": 1462,
      "Ġlist": 1463,
      "Ġchar": 1464,
      ".b": 1465,
      "ĉĉĉĉĉ": 1466,
      "_F": 1467,
      "mary": 1468,
      "ler": 1469,
      "(t": 1470,
      ".n": 1471,
      "rol": 1472,
      "mb": 1473,
      "Ð½": 1474,
      "Ġhad": 1475,
      "td": 1476,
      "Ġim": 1477,
      "late": 1478,
      "ĠThis": 1479,
      "cond": 1480,
      "Ġthen": 1481,
      "ride": 1482,
      "enc": 1483,
      "fore": 1484,
      "{code": 1485,
      "';Ċ": 1486,
      "loc": 1487,
      "[i": 1488,
      "ector": 1489,
      "oin": 1490,
      "play": 1491,
      "loat": 1492,
      "aw": 1493,
      ".in": 1494,
      "ider": 1495,
      "Comp": 1496,
      "Ġform": 1497,
      "wh": 1498,
      "its": 1499,
      "},": 1500,
      "cri": 1501,
      "omment": 1502,
      "Info": 1503,
      "oun": 1504,
      "RO": 1505,
      "try": 1506,
      "':": 1507,
      "Ġ:=": 1508,
      "action": 1509,
      "Ġkey": 1510,
      "any": 1511,
      "());Ċ": 1512,
      "_M": 1513,
      "Ġonly": 1514,
      "Ġtra": 1515,
      "word": 1516,
      "ose": 1517,
      "Ġtheir": 1518,
      "Ġ--": 1519,
      "igh": 1520,
      "pen": 1521,
      "Ġimp": 1522,
      "round": 1523,
      "ative": 1524,
      "ng": 1525,
      "face": 1526,
      "Int": 1527,
      "ract": 1528,
      "gist": 1529,
      "100": 1530,
      "til": 1531,
      "Event": 1532,
      "Path": 1533,
      "wo": 1534,
      "[]": 1535,
      "#include": 1536,
      "ĠIt": 1537,
      "ices": 1538,
      "eth": 1539,
      "Ġwould": 1540,
      "ible": 1541,
      "ution": 1542,
      "Request": 1543,
      "Ġshould": 1544,
      "ĉc": 1545,
      "ify": 1546,
      "ote": 1547,
      "Ġz": 1548,
      "ION": 1549,
      "test": 1550,
      "Ġob": 1551,
      "ache": 1552,
      "âĢĻs": 1553,
      "64": 1554,
      "Config": 1555,
      "At": 1556,
      "Ġher": 1557,
      "ÑĢ": 1558,
      "////////": 1559,
      "ait": 1560,
      "space": 1561,
      "Ġuser": 1562,
      "Ġrec": 1563,
      "ents": 1564,
      "ĠQ": 1565,
      "arent": 1566,
      "-c": 1567,
      "Ġassert": 1568,
      "ocument": 1569,
      "Ġsize": 1570,
      "Un": 1571,
      "_de": 1572,
      "čĊčĊ": 1573,
      "Ġerr": 1574,
      "red": 1575,
      "_N": 1576,
      "Ġarray": 1577,
      "(m": 1578,
      "Form": 1579,
      "ï¼": 1580,
      "essage": 1581,
      "Ġabout": 1582,
      "ely": 1583,
      "Ġent": 1584,
      "Ġimport": 1585,
      "ync": 1586,
      "(),": 1587,
      "result": 1588,
      "ank": 1589,
      "ags": 1590,
      "Ġag": 1591,
      "ĠCon": 1592,
      "ĠCh": 1593,
      "Ġobject": 1594,
      "fter": 1595,
      "ush": 1596,
      "25": 1597,
      "ĠSystem": 1598,
      ".M": 1599,
      "ĠPro": 1600,
      "config": 1601,
      "ĠEx": 1602,
      "ULL": 1603,
      "pi": 1604,
      "odule": 1605,
      "Ġinto": 1606,
      "Ġwere": 1607,
      "rame": 1608,
      "eta": 1609,
      "He": 1610,
      "che": 1611,
      "Node": 1612,
      "ouble": 1613,
      "Ġ(!": 1614,
      "duct": 1615,
      ".add": 1616,
      "ined": 1617,
      ".P": 1618,
      "ning": 1619,
      "cl": 1620,
      "Ġfirst": 1621,
      "-s": 1622,
      "CE": 1623,
      "Ġmodel": 1624,
      "anager": 1625,
      "Service": 1626,
      "ner": 1627,
      "ateg": 1628,
      "15": 1629,
      "Ġnumber": 1630,
      "='": 1631,
      "ays": 1632,
      "Ñģ": 1633,
      "Ġalso": 1634,
      "-b": 1635,
      "Ġ/*": 1636,
      "ors": 1637,
      "Ġexp": 1638,
      "Ġact": 1639,
      "Field": 1640,
      ".w": 1641,
      "Ġmethod": 1642,
      "Ġstart": 1643,
      "../": 1644,
      "200": 1645,
      "Ġspec": 1646,
      "ature": 1647,
      "https": 1648,
      "Ġdif": 1649,
      "...": 1650,
      "_A": 1651,
      "Ġbo": 1652,
      "Ġbeen": 1653,
      "Ġ<<": 1654,
      "Ð¾Ð": 1655,
      "Ġour": 1656,
      "thing": 1657,
      "Context": 1658,
      ");čĊ": 1659,
      "gle": 1660,
      "Ġexpect": 1661,
      "')Ċ": 1662,
      "Ġlike": 1663,
      "Ġ);Ċ": 1664,
      "Ġsa": 1665,
      ");": 1666,
      "Index": 1667,
      "ET": 1668,
      "umn": 1669,
      "Sh": 1670,
      "_h": 1671,
      "((": 1672,
      "Map": 1673,
      "User": 1674,
      "Ġusing": 1675,
      "ating": 1676,
      "ular": 1677,
      "wer": 1678,
      "LO": 1679,
      "ĠWe": 1680,
      "ĠĠĠĠĊ": 1681,
      "oolean": 1682,
      "PE": 1683,
      "Ġ__": 1684,
      "Ġoff": 1685,
      "UT": 1686,
      "input": 1687,
      "Ġdefault": 1688,
      "();ĊĊ": 1689,
      "ackage": 1690,
      "Ġra": 1691,
      "Ġkn": 1692,
      "lob": 1693,
      "assert": 1694,
      "_D": 1695,
      "ersion": 1696,
      "ven": 1697,
      "sign": 1698,
      "000": 1699,
      "Ġcall": 1700,
      "md": 1701,
      "Equal": 1702,
      "temp": 1703,
      "PI": 1704,
      "Ġrequire": 1705,
      "Ġresp": 1706,
      "Array": 1707,
      "uration": 1708,
      "Ġread": 1709,
      "Ġback": 1710,
      "Ġwhat": 1711,
      "order": 1712,
      "Comment": 1713,
      "UR": 1714,
      "array": 1715,
      "Ġthem": 1716,
      "Ġwhere": 1717,
      ">ĊĊ": 1718,
      "ĠIf": 1719,
      "Ġneed": 1720,
      ".e": 1721,
      "Ġstate": 1722,
      "Ġthan": 1723,
      "--------------------------------": 1724,
      "ĉpublic": 1725,
      "Ġthrow": 1726,
      "par": 1727,
      "lick": 1728,
      "Ġ\"\"": 1729,
      "Ġacc": 1730,
      "ilder": 1731,
      "Ġ{čĊ": 1732,
      "ally": 1733,
      "Ġtext": 1734,
      "rid": 1735,
      "Ġused": 1736,
      "Element": 1737,
      "ustom": 1738,
      "cho": 1739,
      "ility": 1740,
      "valid": 1741,
      "Size": 1742,
      "Ġhand": 1743,
      "}{": 1744,
      "roid": 1745,
      "Ġtrans": 1746,
      "ting": 1747,
      "ĠĠĊ": 1748,
      "ĠX": 1749,
      "(n": 1750,
      "ollow": 1751,
      "raph": 1752,
      "_B": 1753,
      "Col": 1754,
      "cept": 1755,
      "ttp": 1756,
      "Par": 1757,
      "arg": 1758,
      "Ġrun": 1759,
      "Ġbet": 1760,
      "Ġwho": 1761,
      "Ġstd": 1762,
      "box": 1763,
      "Ġlog": 1764,
      "Ġcl": 1765,
      "object": 1766,
      "Ġjust": 1767,
      "Class": 1768,
      "Or": 1769,
      "span": 1770,
      "We": 1771,
      "Ġtry": 1772,
      "enter": 1773,
      "pos": 1774,
      "erm": 1775,
      "Model": 1776,
      "Âł": 1777,
      ".D": 1778,
      "Ġfe": 1779,
      "enu": 1780,
      "lose": 1781,
      "\\n": 1782,
      "Message": 1783,
      "Ġlong": 1784,
      "Ġjava": 1785,
      "ious": 1786,
      "Ġnil": 1787,
      "ized": 1788,
      "list": 1789,
      "{e": 1790,
      "frac": 1791,
      "using": 1792,
      "elp": 1793,
      "18": 1794,
      "roller": 1795,
      "ale": 1796,
      "Ġfield": 1797,
      "ends": 1798,
      "For": 1799,
      "ainer": 1800,
      "ãĢ": 1801,
      "ected": 1802,
      "Val": 1803,
      "_w": 1804,
      "Ġtwo": 1805,
      "Ġrel": 1806,
      "Ġph": 1807,
      "},Ċ": 1808,
      "Ġrem": 1809,
      "Ġrequest": 1810,
      "(d": 1811,
      "itial": 1812,
      ")$": 1813,
      "Ġcurrent": 1814,
      "ĠĠĠĠĠĠĠĠĠĠĠĠĠĠĠĠĠĠĠĠĠĠĠĠĠĠĠĠĠĠĠ": 1815,
      "lication": 1816,
      "={": 1817,
      "vers": 1818,
      "the": 1819,
      "Ġevent": 1820,
      "Ġmay": 1821,
      "ql": 1822,
      "sub": 1823,
      "air": 1824,
      "Qu": 1825,
      "Ġprov": 1826,
      ".de": 1827,
      ".L": 1828,
      "ww": 1829,
      "not": 1830,
      "ternal": 1831,
      "ures": 1832,
      "Code": 1833,
      "Ġhow": 1834,
      "Ġline": 1835,
      "uto": 1836,
      "from": 1837,
      "Over": 1838,
      "ian": 1839,
      "Ġcode": 1840,
      "Ġits": 1841,
      "Ġì": 1842,
      "Hand": 1843,
      "AG": 1844,
      "Ġbase": 1845,
      "Im": 1846,
      "Ġsee": 1847,
      "anc": 1848,
      "çļ": 1849,
      "ĠDe": 1850,
      "Result": 1851,
      "Of": 1852,
      "Ġaw": 1853,
      "çļĦ": 1854,
      "ons": 1855,
      "http": 1856,
      "Ġ+=": 1857,
      "php": 1858,
      "br": 1859,
      "13": 1860,
      "With": 1861,
      "Ġcheck": 1862,
      "api": 1863,
      "Ġgener": 1864,
      "Ġbreak": 1865,
      "ĠWh": 1866,
      "Ġ)Ċ": 1867,
      "[\"": 1868,
      "14": 1869,
      ".pro": 1870,
      "Ġmake": 1871,
      "ĠNULL": 1872,
      "Ġpe": 1873,
      "ities": 1874,
      "Ġconfig": 1875,
      "_r": 1876,
      "Ġcor": 1877,
      "tribute": 1878,
      "Ġte": 1879,
      "nection": 1880,
      "opy": 1881,
      "static": 1882,
      "Up": 1883,
      "ĠAr": 1884,
      "script": 1885,
      "Ġmin": 1886,
      "As": 1887,
      "resent": 1888,
      "Ġpath": 1889,
      "ĠGet": 1890,
      "Ġam": 1891,
      "On": 1892,
      "Ġstruct": 1893,
      "Ġcreate": 1894,
      "ization": 1895,
      "iable": 1896,
      "Ġ{ĊĊ": 1897,
      "\\\\": 1898,
      "Ġcal": 1899,
      "Add": 1900,
      "(this": 1901,
      "vert": 1902,
      "âĢĿ": 1903,
      "ade": 1904,
      "Ġcomm": 1905,
      "lear": 1906,
      "define": 1907,
      "ful": 1908,
      "Ġreg": 1909,
      "ĠSe": 1910,
      "Ġ});Ċ": 1911,
      "):": 1912,
      "Response": 1913,
      "arams": 1914,
      "Ġshow": 1915,
      "Ġpoint": 1916,
      "Ġ]": 1917,
      "ox": 1918,
      "></": 1919,
      "Ġinst": 1920,
      "\"]": 1921,
      "UN": 1922,
      "bar": 1923,
      "_g": 1924,
      "Ġunder": 1925,
      "Not": 1926,
      "Ġwant": 1927,
      "pre": 1928,
      "<?": 1929,
      "_data": 1930,
      ".is": 1931,
      "Ġshe": 1932,
      "Ġdiffer": 1933,
      "_{\\": 1934,
      "tings": 1935,
      "Ġprint": 1936,
      "ient": 1937,
      "pr": 1938,
      "Ġ**": 1939,
      "TE": 1940,
      "Ġinput": 1941,
      "Ġ()": 1942,
      "no": 1943,
      "scription": 1944,
      "_type": 1945,
      "Ġitem": 1946,
      "-d": 1947,
      "az": 1948,
      "/**Ċ": 1949,
      "summary": 1950,
      "lease": 1951,
      "30": 1952,
      "function": 1953,
      "Ġnode": 1954,
      "Ġfollow": 1955,
      "Ġdoes": 1956,
      "(&": 1957,
      ".to": 1958,
      "uthor": 1959,
      "query": 1960,
      "rop": 1961,
      "Ġcould": 1962,
      "annel": 1963,
      "message": 1964,
      "```": 1965,
      "ified": 1966,
      "IC": 1967,
      "map": 1968,
      "org": 1969,
      "char": 1970,
      "Ġeach": 1971,
      "px": 1972,
      "formation": 1973,
      "Ġever": 1974,
      "================": 1975,
      "ope": 1976,
      "Manager": 1977,
      "App": 1978,
      "itor": 1979,
      "au": 1980,
      "ments": 1981,
      "bug": 1982,
      "layer": 1983,
      "select": 1984,
      "content": 1985,
      "AD": 1986,
      "lot": 1987,
      "ypes": 1988,
      "index": 1989,
      "rm": 1990,
      "_to": 1991,
      "link": 1992,
      "ond": 1993,
      "Ġem": 1994,
      "Al": 1995,
      "ared": 1996,
      "ĠHe": 1997,
      "html": 1998,
      "Ġ($": 1999,
      "_E": 2000,
      "Ġfind": 2001,
      "ved": 2002,
      "itch": 2003,
      "åı": 2004,
      "########": 2005,
      "off": 2006,
      "50": 2007,
      "check": 2008,
      "/c": 2009,
      "Ġgiv": 2010,
      "IS": 2011,
      "Be": 2012,
      "IG": 2013,
      "\"></": 2014,
      "Ġtemp": 2015,
      "Ġlook": 2016,
      "assword": 2017,
      "da": 2018,
      "ru": 2019,
      "ines": 2020,
      "mit": 2021,
      "cript": 2022,
      "ume": 2023,
      "-p": 2024,
      "ern": 2025,
      "Ġdist": 2026,
      "Le": 2027,
      "ĉĉĉĉĉĉ": 2028,
      "Ġrep": 2029,
      "(b": 2030,
      "Out": 2031,
      "Ġarg": 2032,
      "Ġknow": 2033,
      "Ġwhile": 2034,
      "(x": 2035,
      "Ġsol": 2036,
      "export": 2037,
      "Ġmax": 2038,
      "rough": 2039,
      "trans": 2040,
      ".app": 2041,
      "Ġindex": 2042,
      "())": 2043,
      "ĠUn": 2044,
      "MP": 2045,
      "ĠĠĠĠĠĠĠĠĠĠĠĠ": 2046,
      "ren": 2047,
      "An": 2048,
      ".T": 2049,
      ".F": 2050,
      "ains": 2051,
      "CH": 2052,
      "pend": 2053,
      "gister": 2054,
      "ik": 2055,
      ".util": 2056,
      "Ġyear": 2057,
      "args": 2058,
      "Ġbool": 2059,
      "true": 2060,
      "sg": 2061,
      "Ġsame": 2062,
      "else": 2063,
      "ough": 2064,
      "ween": 2065,
      "ffect": 2066,
      "Is": 2067,
      "Ġed": 2068,
      "Ġthese": 2069,
      "ĊĊĊ": 2070,
      "Ġcons": 2071,
      "tn": 2072,
      "Override": 2073,
      "Wh": 2074,
      "amb": 2075,
      "ĠĠĠĠĠĠĠĠĠĠĠĠĠĠĠĠĠ": 2076,
      "ï¼Į": 2077,
      "Color": 2078,
      "Ġresponse": 2079,
      "Ġafter": 2080,
      "mpty": 2081,
      "older": 2082,
      "ender": 2083,
      "Input": 2084,
      "lex": 2085,
      "Button": 2086,
      "ING": 2087,
      "Status": 2088,
      "Ġright": 2089,
      "-m": 2090,
      "lobal": 2091,
      "Lo": 2092,
      "ower": 2093,
      "Ġsm": 2094,
      "ENT": 2095,
      "_IN": 2096,
      "ameters": 2097,
      "etwork": 2098,
      "mathb": 2099,
      "(new": 2100,
      "ension": 2101,
      ":ĊĊ": 2102,
      "fe": 2103,
      "Ġsuch": 2104,
      "Ġoper": 2105,
      "Ġla": 2106,
      "Ġ===": 2107,
      "_RE": 2108,
      "Log": 2109,
      "table": 2110,
      "Ġhim": 2111,
      "Client": 2112,
      "ists": 2113,
      "reg": 2114,
      "tes": 2115,
      "Ð»": 2116,
      "Ġelement": 2117,
      "Ġfl": 2118,
      "Des": 2119,
      "Ġsystem": 2120,
      "Inter": 2121,
      "Group": 2122,
      "ĠĠĠĠĠĠĠĠĠĠ": 2123,
      "imit": 2124,
      "Count": 2125,
      "oogle": 2126,
      "Ġmessage": 2127,
      "ED": 2128,
      "ene": 2129,
      "ince": 2130,
      "Ġsign": 2131,
      "comp": 2132,
      "isplay": 2133,
      "pha": 2134,
      "ression": 2135,
      "request": 2136,
      "place": 2137,
      "FF": 2138,
      "Ġnum": 2139,
      "db": 2140,
      "CK": 2141,
      "atab": 2142,
      ".N": 2143,
      "func": 2144,
      "format": 2145,
      "other": 2146,
      "Ġnow": 2147,
      "_O": 2148,
      "rag": 2149,
      "ward": 2150,
      "Ġsaid": 2151,
      "_e": 2152,
      "ouse": 2153,
      "40": 2154,
      "search": 2155,
      "Table": 2156,
      "})": 2157,
      "ithub": 2158,
      "17": 2159,
      "orld": 2160,
      "Date": 2161,
      "by": 2162,
      "idd": 2163,
      "abled": 2164,
      "ĠList": 2165,
      "Ġtable": 2166,
      "Ġpo": 2167,
      "\"ĊĊ": 2168,
      "eturn": 2169,
      ".length": 2170,
      "Ġco": 2171,
      "atri": 2172,
      "quation": 2173,
      "){Ċ": 2174,
      "Ġway": 2175,
      "ins": 2176,
      "_H": 2177,
      "Ġcontext": 2178,
      "#define": 2179,
      "ood": 2180,
      "uch": 2181,
      "public": 2182,
      "Image": 2183,
      "Ġhref": 2184,
      "Ġdi": 2185,
      "perties": 2186,
      "image": 2187,
      "ctions": 2188,
      "Loc": 2189,
      "ĠSet": 2190,
      "size": 2191,
      "Ġ((": 2192,
      "ense": 2193,
      "vir": 2194,
      "Ġcre": 2195,
      "Util": 2196,
      ",\"": 2197,
      "urs": 2198,
      "Ġhigh": 2199,
      "Property": 2200,
      "US": 2201,
      "Ġhere": 2202,
      "AB": 2203,
      "Ġthrough": 2204,
      "ui": 2205,
      "atabase": 2206,
      "ethod": 2207,
      "Ġbefore": 2208,
      "iled": 2209,
      "Ġlast": 2210,
      "ails": 2211,
      "OL": 2212,
      "ĠNone": 2213,
      "lugin": 2214,
      "rl": 2215,
      "ats": 2216,
      "ĠâĢľ": 2217,
      "ayout": 2218,
      "gr": 2219,
      "Query": 2220,
      "sole": 2221,
      "ape": 2222,
      "Ġview": 2223,
      "ten": 2224,
      "ily": 2225,
      "').": 2226,
      "IL": 2227,
      "AS": 2228,
      "Ġdon": 2229,
      "ential": 2230,
      "(e": 2231,
      "Ġvalues": 2232,
      "ä»": 2233,
      "iter": 2234,
      "po": 2235,
      "Ġevery": 2236,
      "ification": 2237,
      "context": 2238,
      "Ġbetween": 2239,
      "vices": 2240,
      "_V": 2241,
      "ingle": 2242,
      "tected": 2243,
      ".W": 2244,
      "erson": 2245,
      "buf": 2246,
      "Ġdid": 2247,
      "ster": 2248,
      "atrix": 2249,
      "ivity": 2250,
      "chem": 2251,
      "cause": 2252,
      "Ġmust": 2253,
      "json": 2254,
      "><": 2255,
      "utes": 2256,
      "Ġoutput": 2257,
      "Ġmod": 2258,
      "ĠFor": 2259,
      "][": 2260,
      "lish": 2261,
      "OT": 2262,
      "Ġpol": 2263,
      "mem": 2264,
      ".id": 2265,
      "mt": 2266,
      "dition": 2267,
      "ek": 2268,
      "gram": 2269,
      "ĠTr": 2270,
      "title": 2271,
      "ference": 2272,
      "RA": 2273,
      ".r": 2274,
      "Builder": 2275,
      "Ġorder": 2276,
      "Ġdown": 2277,
      "Ġprocess": 2278,
      "ename": 2279,
      "åĪ": 2280,
      "Ġfound": 2281,
      "24": 2282,
      "ced": 2283,
      ".,": 2284,
      "package": 2285,
      "Ġet": 2286,
      "ĠSh": 2287,
      "OD": 2288,
      "ump": 2289,
      "idget": 2290,
      "ift": 2291,
      "ategory": 2292,
      "ĠAn": 2293,
      "Ġmost": 2294,
      "ML": 2295,
      "Ġstyle": 2296,
      "(st": 2297,
      "ople": 2298,
      "UE": 2299,
      "signed": 2300,
      "Sc": 2301,
      "vis": 2302,
      "als": 2303,
      "vo": 2304,
      ".x": 2305,
      "ssion": 2306,
      "Trans": 2307,
      "Ġbecause": 2308,
      "ground": 2309,
      "Ġhelp": 2310,
      "ĠYou": 2311,
      ".ex": 2312,
      "ãĢĤ": 2313,
      "From": 2314,
      "oute": 2315,
      "Ġtarget": 2316,
      "group": 2317,
      "Ġinstance": 2318,
      "option": 2319,
      "cord": 2320,
      ".log": 2321,
      "${": 2322,
      "wn": 2323,
      "Ġlocal": 2324,
      "ement": 2325,
      "Stream": 2326,
      "velo": 2327,
      "Select": 2328,
      "Ġmap": 2329,
      "ants": 2330,
      "section": 2331,
      "Ġac": 2332,
      "bl": 2333,
      "Ġpr": 2334,
      "Str": 2335,
      "path": 2336,
      "Ġprovide": 2337,
      "lib": 2338,
      "oot": 2339,
      "mer": 2340,
      "Box": 2341,
      "Ġnext": 2342,
      "Ġwell": 2343,
      "This": 2344,
      "Instance": 2345,
      ".R": 2346,
      "update": 2347,
      "Ġselect": 2348,
      "Ġgre": 2349,
      "ssert": 2350,
      "Controller": 2351,
      "witch": 2352,
      "img": 2353,
      "point": 2354,
      "ĉb": 2355,
      ">čĊ": 2356,
      "orage": 2357,
      "ĉs": 2358,
      "-f": 2359,
      "Ġgiven": 2360,
      "_pro": 2361,
      "Ġman": 2362,
      "###": 2363,
      "\").": 2364,
      "top": 2365,
      "True": 2366,
      "part": 2367,
      "Ġopen": 2368,
      "{{": 2369,
      "ĠAs": 2370,
      "ATE": 2371,
      "Ġimage": 2372,
      "Fact": 2373,
      "dio": 2374,
      "lang": 2375,
      "Ad": 2376,
      "ĉĉĉĉĉĉĉĉ": 2377,
      "All": 2378,
      "dev": 2379,
      "Token": 2380,
      "obj": 2381,
      "Ġins": 2382,
      "cite": 2383,
      "local": 2384,
      "icon": 2385,
      "Ġboolean": 2386,
      "YPE": 2387,
      "_ST": 2388,
      ")čĊ": 2389,
      "ĉĊ": 2390,
      "Sub": 2391,
      "inter": 2392,
      "Ġdifferent": 2393,
      "_L": 2394,
      "ĠInt": 2395,
      "Ġ[Ċ": 2396,
      "ĠApp": 2397,
      "ane": 2398,
      ".\"Ċ": 2399,
      "Ġ[]": 2400,
      "ĠAl": 2401,
      "Ġeven": 2402,
      "IP": 2403,
      "gg": 2404,
      "head": 2405,
      "Sp": 2406,
      ".Get": 2407,
      "Act": 2408,
      "andom": 2409,
      "eger": 2410,
      "ret": 2411,
      "AME": 2412,
      "?Ċ": 2413,
      "rap": 2414,
      "ĠZ": 2415,
      "Ġref": 2416,
      ">(": 2417,
      "ars": 2418,
      "ym": 2419,
      "riter": 2420,
      "server": 2421,
      "print": 2422,
      "Ġest": 2423,
      "ency": 2424,
      "Content": 2425,
      "********************************": 2426,
      "And": 2427,
      "Ġcolor": 2428,
      "Ed": 2429,
      "fl": 2430,
      "less": 2431,
      "response": 2432,
      "Base": 2433,
      "æľ": 2434,
      "Ġdirect": 2435,
      "ĠRes": 2436,
      "Handler": 2437,
      "ymb": 2438,
      ".\"": 2439,
      "open": 2440,
      "Ġvery": 2441,
      "Ġoptions": 2442,
      "ĉm": 2443,
      "med": 2444,
      "Line": 2445,
      "ormal": 2446,
      "./": 2447,
      "OM": 2448,
      "Ġchild": 2449,
      "arn": 2450,
      "options": 2451,
      "imple": 2452,
      "Ġecho": 2453,
      "Ġvalid": 2454,
      "22": 2455,
      "ambda": 2456,
      "ĠĠĠĠĠĠĠĠĠĠĠĠĠĠĠĠĠĠĠĠĠĠĠĠĠĠĠĠĠĠĠĠĠĠĠ": 2457,
      "alpha": 2458,
      "Ġnon": 2459,
      "_size": 2460,
      "(int": 2461,
      "IM": 2462,
      "ĠĠĠĠĠĠĠĠĠĠĠĠĠĠ": 2463,
      "mathcal": 2464,
      "Ġmem": 2465,
      "leg": 2466,
      "ause": 2467,
      "/m": 2468,
      "loy": 2469,
      "Ġbl": 2470,
      "/s": 2471,
      "60": 2472,
      "nect": 2473,
      "())Ċ": 2474,
      "Ã¡": 2475,
      "Ġsupport": 2476,
      "Component": 2477,
      "Ġfa": 2478,
      "ron": 2479,
      "Ġque": 2480,
      "ero": 2481,
      "indows": 2482,
      "default": 2483,
      "ymbol": 2484,
      "version": 2485,
      "Ġmatch": 2486,
      "Ñĥ": 2487,
      ".assert": 2488,
      "ts": 2489,
      "ntity": 2490,
      "rem": 2491,
      "_a": 2492,
      "Ġpost": 2493,
      "vol": 2494,
      "ĉfor": 2495,
      "ifier": 2496,
      "Call": 2497,
      "ĉcase": 2498,
      "Ġsur": 2499,
      "Ġpage": 2500,
      "Action": 2501,
      "rows": 2502,
      "////////////////": 2503,
      "Null": 2504,
      "Ġrange": 2505,
      "=\\": 2506,
      "Ġclient": 2507,
      "Ġinclude": 2508,
      "Ġret": 2509,
      "80": 2510,
      "ott": 2511,
      "ccount": 2512,
      "len": 2513,
      "ultip": 2514,
      "Ġsrc": 2515,
      "$,": 2516,
      "Ġinformation": 2517,
      "çĶ": 2518,
      "bs": 2519,
      "endif": 2520,
      "Ð°Ð": 2521,
      "ched": 2522,
      ",\\": 2523,
      "Ġdec": 2524,
      "Ġagain": 2525,
      "chema": 2526,
      "Ġsource": 2527,
      "_list": 2528,
      "ware": 2529,
      "Ġgroup": 2530,
      "ier": 2531,
      "_set": 2532,
      "Ġfact": 2533,
      "ever": 2534,
      "Ġextends": 2535,
      "ources": 2536,
      "width": 2537,
      "_i": 2538,
      "Ġpeople": 2539,
      "anel": 2540,
      "js": 2541,
      "IR": 2542,
      "Ġav": 2543,
      "Ġfloat": 2544,
      "Ġcount": 2545,
      "ĉf": 2546,
      "AP": 2547,
      "Ġë": 2548,
      "ĠSer": 2549,
      ".sh": 2550,
      "Ġallow": 2551,
      "irc": 2552,
      "att": 2553,
      "Que": 2554,
      "align": 2555,
      ".data": 2556,
      "Imp": 2557,
      "Ġdouble": 2558,
      "icro": 2559,
      "init": 2560,
      "ather": 2561,
      "atter": 2562,
      "}(": 2563,
      "*/": 2564,
      "ission": 2565,
      "resh": 2566,
      "Number": 2567,
      "Ġsecond": 2568,
      "ules": 2569,
      "ommon": 2570,
      "rib": 2571,
      "};Ċ": 2572,
      "Default": 2573,
      "åĲ": 2574,
      "uint": 2575,
      ">>": 2576,
      "Ġuint": 2577,
      "Ġquest": 2578,
      "cd": 2579,
      "tot": 2580,
      "Ġvis": 2581,
      "Ġdocument": 2582,
      "ailable": 2583,
      "icle": 2584,
      "ually": 2585,
      "Ġbuild": 2586,
      "alk": 2587,
      "ĠĠĠĠĠĠĠĠĊ": 2588,
      ".org": 2589,
      "aster": 2590,
      ".$": 2591,
      "omain": 2592,
      "ĉvar": 2593,
      "Ġproble": 2594,
      "System": 2595,
      "{equation": 2596,
      "EL": 2597,
      "where": 2598,
      "Ġmany": 2599,
      "ialog": 2600,
      "_W": 2601,
      "Ġstud": 2602,
      "ĠâĢĵ": 2603,
      "Options": 2604,
      "Ġatt": 2605,
      "_file": 2606,
      "her": 2607,
      "Ġsuper": 2608,
      "uring": 2609,
      "Ġes": 2610,
      "info": 2611,
      "Ġcontent": 2612,
      "SON": 2613,
      ".append": 2614,
      "Ġlen": 2615,
      "ĠComp": 2616,
      "post": 2617,
      "Ġwidth": 2618,
      "output": 2619,
      "github": 2620,
      "Ġmon": 2621,
      "come": 2622,
      "reen": 2623,
      "Ġ},": 2624,
      "([": 2625,
      "anged": 2626,
      "ets": 2627,
      "Buffer": 2628,
      "Ġversion": 2629,
      "erg": 2630,
      "und": 2631,
      "ason": 2632,
      "my": 2633,
      "vider": 2634,
      "Ġproject": 2635,
      "Ġupdate": 2636,
      "(i": 2637,
      "ght": 2638,
      ")\\": 2639,
      "num": 2640,
      "å®": 2641,
      "ci": 2642,
      "ational": 2643,
      "start": 2644,
      "ìĿ": 2645,
      "button": 2646,
      "ĠAnd": 2647,
      "_DE": 2648,
      "ah": 2649,
      ".B": 2650,
      "ctx": 2651,
      "ERR": 2652,
      ".create": 2653,
      "Ġblock": 2654,
      "_R": 2655,
      "Method": 2656,
      "Ġthink": 2657,
      "Start": 2658,
      "Ġtop": 2659,
      "Ġind": 2660,
      "Point": 2661,
      "Ġ['": 2662,
      "Ref": 2663,
      "Ġurl": 2664,
      ".name": 2665,
      "method": 2666,
      "ga": 2667,
      "_G": 2668,
      "Ġcontin": 2669,
      "tual": 2670,
      "Ġgood": 2671,
      "Ġexample": 2672,
      "Source": 2673,
      "Page": 2674,
      "oud": 2675,
      "///": 2676,
      "Ġreal": 2677,
      "01": 2678,
      "Ġfollowing": 2679,
      "Ġbeing": 2680,
      "ES": 2681,
      "ession": 2682,
      "ĉthis": 2683,
      "End": 2684,
      "IO": 2685,
      "ife": 2686,
      "ä½": 2687,
      "23": 2688,
      "Ġaction": 2689,
      "_path": 2690,
      "max": 2691,
      "Ġlabel": 2692,
      "ole": 2693,
      "oci": 2694,
      "ique": 2695,
      "Tra": 2696,
      "uc": 2697,
      "ict": 2698,
      "adata": 2699,
      "Ġboth": 2700,
      "Ġcommand": 2701,
      "({": 2702,
      "unk": 2703,
      "aj": 2704,
      "oto": 2705,
      "ĠTest": 2706,
      "ready": 2707,
      "arse": 2708,
      "}^": 2709,
      "}_": 2710,
      "Ġsk": 2711,
      "cent": 2712,
      "âĢĶ": 2713,
      "HT": 2714,
      "Ġimplement": 2715,
      "itt": 2716,
      "_ex": 2717,
      "Ġ};Ċ": 2718,
      "net": 2719,
      "(String": 2720,
      "itu": 2721,
      "_v": 2722,
      "posit": 2723,
      "icy": 2724,
      "Ġleft": 2725,
      "};ĊĊ": 2726,
      "Ġmain": 2727,
      "!--": 2728,
      "Ġloc": 2729,
      "Ġgu": 2730,
      "tx": 2731,
      "Ġmuch": 2732,
      "refer": 2733,
      "No": 2734,
      "ability": 2735,
      "$\\": 2736,
      "cul": 2737,
      "entity": 2738,
      "node": 2739,
      "Url": 2740,
      "sets": 2741,
      "ism": 2742,
      "Ġcatch": 2743,
      "\\Ċ": 2744,
      ".G": 2745,
      ").Ċ": 2746,
      "Ġposition": 2747,
      "Ġpri": 2748,
      "ĠÃ": 2749,
      "(r": 2750,
      "ences": 2751,
      "upport": 2752,
      "uccess": 2753,
      "Ġtri": 2754,
      "ux": 2755,
      "ling": 2756,
      "ĠIN": 2757,
      "(_": 2758,
      "Ġq": 2759,
      "uage": 2760,
      "If": 2761,
      "vious": 2762,
      "com": 2763,
      "rect": 2764,
      "inition": 2765,
      "Var": 2766,
      "åħ": 2767,
      "ÐµÐ": 2768,
      "ring": 2769,
      "ĠOn": 2770,
      "with": 2771,
      "Ġ\\Ċ": 2772,
      "field": 2773,
      "Ġchange": 2774,
      "aint": 2775,
      "board": 2776,
      "medi": 2777,
      "Factory": 2778,
      "_get": 2779,
      "Ġresults": 2780,
      "refix": 2781,
      "Ġawait": 2782,
      "serv": 2783,
      ".\\": 2784,
      "/d": 2785,
      "Exp": 2786,
      "defined": 2787,
      "viron": 2788,
      "velop": 2789,
      "ĠNew": 2790,
      "Ñı": 2791,
      "attr": 2792,
      "ceiv": 2793,
      "acter": 2794,
      "style": 2795,
      "||": 2796,
      "();": 2797,
      "tra": 2798,
      "ross": 2799,
      "Ġplace": 2800,
      "Ã³": 2801,
      "Read": 2802,
      "Ġmark": 2803,
      "Mode": 2804,
      "Entity": 2805,
      "Ġhead": 2806,
      "Ġposs": 2807,
      "Label": 2808,
      "template": 2809,
      "ĠObject": 2810,
      ".sp": 2811,
      "ric": 2812,
      "Listener": 2813,
      "apter": 2814,
      ".y": 2815,
      "sl": 2816,
      "attern": 2817,
      "Ġinitial": 2818,
      "ee": 2819,
      "---": 2820,
      "nswer": 2821,
      "tal": 2822,
      "ness": 2823,
      "pm": 2824,
      "Block": 2825,
      "ways": 2826,
      "ÃŃ": 2827,
      "cur": 2828,
      "elper": 2829,
      "()->": 2830,
      "ODE": 2831,
      ".js": 2832,
      "Ġold": 2833,
      "Ġ(Ċ": 2834,
      "_se": 2835,
      "=>": 2836,
      "Ġdisc": 2837,
      "opt": 2838,
      "Ġprotected": 2839,
      "TH": 2840,
      "pper": 2841,
      "Ġvariable": 2842,
      "æĸ": 2843,
      "TR": 2844,
      "({Ċ": 2845,
      "Ġâ": 2846,
      "Ġlevel": 2847,
      "std": 2848,
      "ilename": 2849,
      "izer": 2850,
      "Ġstatus": 2851,
      "aking": 2852,
      "Ġown": 2853,
      "Resource": 2854,
      "','": 2855,
      "Check": 2856,
      "flow": 2857,
      "ots": 2858,
      "Ġquery": 2859,
      "pc": 2860,
      "namespace": 2861,
      "state": 2862,
      "Ġcomponent": 2863,
      "Ġsim": 2864,
      "])": 2865,
      "Ġandroid": 2866,
      ".class": 2867,
      "%%": 2868,
      "è¯": 2869,
      "resp": 2870,
      "www": 2871,
      "ination": 2872,
      "Ġargs": 2873,
      "99": 2874,
      "/b": 2875,
      "ounter": 2876,
      "Ġthose": 2877,
      "py": 2878,
      "light": 2879,
      "ically": 2880,
      "Ġtitle": 2881,
      "ffic": 2882,
      "Attribute": 2883,
      "Ġdet": 2884,
      "Ġ=Ċ": 2885,
      "Ġ||Ċ": 2886,
      "Command": 2887,
      "ideo": 2888,
      "IF": 2889,
      "header": 2890,
      "Ġservice": 2891,
      "Ġwithout": 2892,
      "down": 2893,
      "Ġ$(": 2894,
      "dict": 2895,
      "Ġ>=": 2896,
      "Layout": 2897,
      "Equals": 2898,
      "!Ċ": 2899,
      "Filter": 2900,
      "height": 2901,
      "Ġthrows": 2902,
      "(),Ċ": 2903,
      "df": 2904,
      "URL": 2905,
      "ls": 2906,
      "arm": 2907,
      "Ġrequired": 2908,
      "aterial": 2909,
      "web": 2910,
      "build": 2911,
      "Row": 2912,
      "#endif": 2913,
      "è¿": 2914,
      "#if": 2915,
      "Version": 2916,
      "Update": 2917,
      "ding": 2918,
      "service": 2919,
      "_key": 2920,
      "Ġcar": 2921,
      "Ġparent": 2922,
      "unit": 2923,
      "do": 2924,
      ".size": 2925,
      "Ob": 2926,
      "äº": 2927,
      "day": 2928,
      "Ġstill": 2929,
      "ĠBut": 2930,
      "mathbb": 2931,
      "bed": 2932,
      "Ġtake": 2933,
      "UI": 2934,
      "Ġopt": 2935,
      "af": 2936,
      "(const": 2937,
      "Valid": 2938,
      "QL": 2939,
      "ĠCont": 2940,
      "Http": 2941,
      "Ġlink": 2942,
      "Ġans": 2943,
      "rt": 2944,
      "SC": 2945,
      "Ġ{\\": 2946,
      "Ġexpected": 2947,
      "Ġke": 2948,
      "Ġlength": 2949,
      "angle": 2950,
      "OST": 2951,
      "Ġmade": 2952,
      "tributes": 2953,
      "Answer": 2954,
      "xy": 2955,
      "AM": 2956,
      "âĢĻt": 2957,
      "æķ": 2958,
      "cket": 2959,
      "pected": 2960,
      "ixed": 2961,
      "Ġeffect": 2962,
      "Ġplay": 2963,
      "model": 2964,
      "asure": 2965,
      "(data": 2966,
      "ĠAdd": 2967,
      "Format": 2968,
      "ILE": 2969,
      "_add": 2970,
      "mu": 2971,
      "Ġpos": 2972,
      "Ġ::": 2973,
      "UM": 2974,
      "ointer": 2975,
      "(a": 2976,
      "ĉĠĠĠ": 2977,
      "Server": 2978,
      "ĠFile": 2979,
      "AX": 2980,
      "uid": 2981,
      "../../": 2982,
      "Ġserver": 2983,
      "quired": 2984,
      "Ġ\"\"\"Ċ": 2985,
      "bool": 2986,
      ";čĊčĊ": 2987,
      "_info": 2988,
      "Ġinte": 2989,
      "Ġ}čĊ": 2990,
      "]);Ċ": 2991,
      "Ġgra": 2992,
      "(h": 2993,
      "amma": 2994,
      "etch": 2995,
      "Control": 2996,
      "ensor": 2997,
      "pository": 2998,
      "Frame": 2999,
      "Ġhttp": 3000,
      "Ñĭ": 3001,
      "++)": 3002,
      "íķ": 3003,
      "UP": 3004,
      "Ġexec": 3005,
      "ibr": 3006,
      "<T": 3007,
      "Ph": 3008,
      "Ġheight": 3009,
      "ran": 3010,
      "del": 3011,
      "ayer": 3012,
      ".con": 3013,
      "yc": 3014,
      "asses": 3015,
      "control": 3016,
      "LA": 3017,
      "gress": 3018,
      "andard": 3019,
      "Ġconf": 3020,
      "Def": 3021,
      "change": 3022,
      "mod": 3023,
      "OS": 3024,
      "21": 3025,
      "man": 3026,
      "Ġexper": 3027,
      "Ġpartic": 3028,
      "Ġaccess": 3029,
      "IZ": 3030,
      "ĉint": 3031,
      "XT": 3032,
      "ĠHow": 3033,
      ")(": 3034,
      "Ġdel": 3035,
      "Ġcome": 3036,
      "Ġload": 3037,
      "iginal": 3038,
      "ĉĉĉĉĉĉĉ": 3039,
      "],Ċ": 3040,
      "akes": 3041,
      "Ġpass": 3042,
      "çĶ¨": 3043,
      "$.": 3044,
      "Ġport": 3045,
      "Ġappro": 3046,
      "andle": 3047,
      "Ġdes": 3048,
      "Oper": 3049,
      "active": 3050,
      "ynam": 3051,
      "anges": 3052,
      "ln": 3053,
      "Ġword": 3054,
      "Ġ});ĊĊ": 3055,
      "(C": 3056,
      "Ġexist": 3057,
      "Ġfore": 3058,
      "java": 3059,
      "()ĊĊ": 3060,
      "Ġrest": 3061,
      "arge": 3062,
      "/p": 3063,
      "buffer": 3064,
      "alth": 3065,
      "lation": 3066,
      "(re": 3067,
      "Output": 3068,
      "Ġcur": 3069,
      "child": 3070,
      "la": 3071,
      "`Ċ": 3072,
      "33": 3073,
      "ories": 3074,
      "base": 3075,
      "Temp": 3076,
      "soft": 3077,
      "Ġart": 3078,
      "ited": 3079,
      "imum": 3080,
      "ĠData": 3081,
      "ĠĠĠĠĠĠĠĠĠĠĠĠĠĠĠĠĠĠĠĠĠ": 3082,
      "Ġyears": 3083,
      "_time": 3084,
      "ves": 3085,
      "Ġmode": 3086,
      "Ġday": 3087,
      "Ġ/>Ċ": 3088,
      "DB": 3089,
      "Ġos": 3090,
      "ision": 3091,
      "Ġsuccess": 3092,
      "}^{": 3093,
      "apt": 3094,
      "-h": 3095,
      "KE": 3096,
      "(function": 3097,
      "Ġrow": 3098,
      "Ġap": 3099,
      "Ġproperty": 3100,
      "ĠTo": 3101,
      "argin": 3102,
      "admin": 3103,
      ":\"": 3104,
      "Dis": 3105,
      "Dec": 3106,
      "Ġdisplay": 3107,
      "27": 3108,
      "status": 3109,
      "ĉg": 3110,
      ".a": 3111,
      "45": 3112,
      "vironment": 3113,
      "Ġtoo": 3114,
      "_value": 3115,
      ".push": 3116,
      "Const": 3117,
      "quence": 3118,
      "202": 3119,
      "Ġsmall": 3120,
      "\"\"": 3121,
      "ĠReturn": 3122,
      "android": 3123,
      "ging": 3124,
      "oper": 3125,
      "event": 3126,
      "])Ċ": 3127,
      "FA": 3128,
      "igma": 3129,
      "New": 3130,
      "'m": 3131,
      "OP": 3132,
      "Ġput": 3133,
      "Arg": 3134,
      "ottom": 3135,
      "Ðº": 3136,
      ".value": 3137,
      "Ġ<=": 3138,
      "atures": 3139,
      "?ĊĊ": 3140,
      "iness": 3141,
      "imal": 3142,
      "Ġfilter": 3143,
      "Mem": 3144,
      "arning": 3145,
      "Ġoption": 3146,
      "Fl": 3147,
      "thon": 3148,
      "NS": 3149,
      "env": 3150,
      "anguage": 3151,
      "current": 3152,
      "Ġanal": 3153,
      "Ġcalled": 3154,
      "Off": 3155,
      "ĠArray": 3156,
      "Ġfin": 3157,
      "ERT": 3158,
      "Ġwrite": 3159,
      "Ġincre": 3160,
      "TP": 3161,
      "Ġcontrol": 3162,
      "Style": 3163,
      "stract": 3164,
      "logy": 3165,
      "Provider": 3166,
      "Width": 3167,
      "email": 3168,
      "28": 3169,
      "IV": 3170,
      "bf": 3171,
      "root": 3172,
      "Create": 3173,
      "æĪ": 3174,
      "Types": 3175,
      "AGE": 3176,
      "Ġproblem": 3177,
      "Ġdate": 3178,
      "Ġbest": 3179,
      "exp": 3180,
      "Det": 3181,
      "null": 3182,
      "uss": 3183,
      "times": 3184,
      "frame": 3185,
      "SP": 3186,
      "ĠEn": 3187,
      "Ġproduct": 3188,
      "~\\": 3189,
      "Ġ;": 3190,
      "Ġobj": 3191,
      "Ġworld": 3192,
      ".Add": 3193,
      "inary": 3194,
      "26": 3195,
      "iod": 3196,
      "Run": 3197,
      "eps": 3198,
      "uments": 3199,
      "Ġconsider": 3200,
      "Ġsearch": 3201,
      ".v": 3202,
      "(name": 3203,
      "Ġsum": 3204,
      "Ġcondition": 3205,
      "TER": 3206,
      "Ã¤": 3207,
      "ending": 3208,
      "body": 3209,
      "lambda": 3210,
      "Ġauto": 3211,
      "Ext": 3212,
      "Ġmov": 3213,
      "location": 3214,
      "Mod": 3215,
      "count": 3216,
      "ior": 3217,
      "lit": 3218,
      "Ġver": 3219,
      "luster": 3220,
      "ĉelse": 3221,
      "ublish": 3222,
      "Ġtask": 3223,
      "_k": 3224,
      "Ġ|Ċ": 3225,
      "Ġbody": 3226,
      "Ġcustom": 3227,
      "Ġstore": 3228,
      "åĬ": 3229,
      "Ġframe": 3230,
      "ourse": 3231,
      "dis": 3232,
      "Ġjson": 3233,
      "ug": 3234,
      "ĠSo": 3235,
      "Ġformat": 3236,
      "era": 3237,
      "only": 3238,
      "ead": 3239,
      "ĉprivate": 3240,
      "Task": 3241,
      "Ġ})Ċ": 3242,
      "river": 3243,
      "amily": 3244,
      "ULT": 3245,
      "ĠÐ¿": 3246,
      "create": 3247,
      "atform": 3248,
      ".png": 3249,
      "see": 3250,
      "Ġmight": 3251,
      "{eq": 3252,
      "Function": 3253,
      "Menu": 3254,
      "empty": 3255,
      ".html": 3256,
      "amples": 3257,
      "Ġfiles": 3258,
      "ĠID": 3259,
      ".io": 3260,
      "<String": 3261,
      "Change": 3262,
      "Ġsince": 3263,
      "å¤": 3264,
      "irection": 3265,
      "offset": 3266,
      "ained": 3267,
      "ining": 3268,
      "à¸": 3269,
      "stru": 3270,
      "idden": 3271,
      "Empty": 3272,
      "ansp": 3273,
      "Ġsay": 3274,
      "imer": 3275,
      "Pl": 3276,
      "ither": 3277,
      "Entry": 3278,
      "Ġanother": 3279,
      "Ġdone": 3280,
      "Ġder": 3281,
      "Header": 3282,
      "mm": 3283,
      "Ġperson": 3284,
      "Json": 3285,
      "Ġsomething": 3286,
      "}_{": 3287,
      "istory": 3288,
      "Ġiss": 3289,
      "HE": 3290,
      "ration": 3291,
      "';ĊĊ": 3292,
      "Link": 3293,
      "ttps": 3294,
      "ively": 3295,
      "Ġfunc": 3296,
      "(S": 3297,
      "ND": 3298,
      "fs": 3299,
      "Ġoverride": 3300,
      "Del": 3301,
      "dir": 3302,
      "Ġalready": 3303,
      "Utils": 3304,
      "Ġconsole": 3305,
      "Ġavailable": 3306,
      "ĠThere": 3307,
      "Ġtotal": 3308,
      "Ġ${": 3309,
      "Address": 3310,
      "go": 3311,
      "roups": 3312,
      "run": 3313,
      "ĠĠĠĠĠĠĠĠĠĠĠĠĠĠĠĠĠĠĠĠĠĠĠĠĠĠĠĠĠĠĠĠĠĠĠĠĠĠĠ": 3314,
      "{čĊ": 3315,
      ".print": 3316,
      "Ġter": 3317,
      "cription": 3318,
      "Ġquestion": 3319,
      "<div": 3320,
      "Per": 3321,
      "move": 3322,
      "Ġcell": 3323,
      "_url": 3324,
      "ront": 3325,
      "Ġpresent": 3326,
      "Ġenc": 3327,
      "show": 3328,
      "ĠNo": 3329,
      "aving": 3330,
      "tore": 3331,
      "Ġdefined": 3332,
      "uted": 3333,
      "ether": 3334,
      "Ġsure": 3335,
      "Vis": 3336,
      "strong": 3337,
      "pri": 3338,
      "Case": 3339,
      "ĠBu": 3340,
      "(v": 3341,
      "Ġhttps": 3342,
      "Ġaround": 3343,
      "Child": 3344,
      "lin": 3345,
      "inate": 3346,
      "ho": 3347,
      "ural": 3348,
      "aining": 3349,
      "You": 3350,
      "(M": 3351,
      ".on": 3352,
      "Ġaccount": 3353,
      "Ġaddress": 3354,
      "Ġhome": 3355,
      "Position": 3356,
      "Ġ*)": 3357,
      "level": 3358,
      "Us": 3359,
      "phi": 3360,
      "ĠclassName": 3361,
      "-in": 3362,
      "\"))": 3363,
      "ĉĉĊ": 3364,
      "Ġ...": 3365,
      "Ġsingle": 3366,
      "structor": 3367,
      "sk": 3368,
      "_x": 3369,
      "æĺ": 3370,
      "book": 3371,
      "ptr": 3372,
      "Ġop": 3373,
      "29": 3374,
      "tocol": 3375,
      "Ġfree": 3376,
      "ital": 3377,
      "apping": 3378,
      "'re": 3379,
      "}čĊ": 3380,
      "bove": 3381,
      "ances": 3382,
      "});Ċ": 3383,
      "Ġdescri": 3384,
      "co": 3385,
      "entry": 3386,
      "Ġ+Ċ": 3387,
      "AC": 3388,
      "Container": 3389,
      "Ġthree": 3390,
      "block": 3391,
      "Ġclear": 3392,
      "################": 3393,
      "(g": 3394,
      "-\\": 3395,
      "ABLE": 3396,
      "Ġprodu": 3397,
      "Ġresource": 3398,
      ".find": 3399,
      "umer": 3400,
      "ulation": 3401,
      "Ġpossible": 3402,
      "Ġdep": 3403,
      "ÑĮ": 3404,
      "nown": 3405,
      "Connection": 3406,
      "ÂłÂł": 3407,
      "Ġbus": 3408,
      "msg": 3409,
      "-to": 3410,
      "Ġbit": 3411,
      "lip": 3412,
      "Ġtre": 3413,
      "Ġnp": 3414,
      ")}": 3415,
      "container": 3416,
      "oding": 3417,
      "Ġwithin": 3418,
      "yles": 3419,
      "mail": 3420,
      "ĠCol": 3421,
      "page": 3422,
      "Ġdevelop": 3423,
      "Ġ*/ĊĊ": 3424,
      "_con": 3425,
      "Ġalways": 3426,
      "æķ°": 3427,
      "icrosoft": 3428,
      "Ġwrit": 3429,
      "Ġdiv": 3430,
      "Ġasync": 3431,
      "iff": 3432,
      "Ġdevice": 3433,
      ".ap": 3434,
      "Ġreport": 3435,
      "Ġgame": 3436,
      "Ġinit": 3437,
      "Ġhapp": 3438,
      "itive": 3439,
      "Column": 3440,
      "Ġspace": 3441,
      "(P": 3442,
      "ĉt": 3443,
      "(value": 3444,
      "rict": 3445,
      "ought": 3446,
      "Back": 3447,
      "''": 3448,
      "asic": 3449,
      "way": 3450,
      "quals": 3451,
      "ĠÂ": 3452,
      "values": 3453,
      "_str": 3454,
      "ĠIs": 3455,
      "Height": 3456,
      "\");ĊĊ": 3457,
      "Ġrecord": 3458,
      "ĠUser": 3459,
      "doc": 3460,
      "Ġ}}": 3461,
      "ĠLog": 3462,
      "los": 3463,
      "ORT": 3464,
      "_ID": 3465,
      "Ġhandle": 3466,
      "Ġfull": 3467,
      "uture": 3468,
      "ai": 3469,
      "lem": 3470,
      "Ġident": 3471,
      "Ġwindow": 3472,
      "Reg": 3473,
      "fact": 3474,
      "Ġperform": 3475,
      "annot": 3476,
      "Ġabove": 3477,
      "Ġparameters": 3478,
      "ram": 3479,
      "ators": 3480,
      "Ġå": 3481,
      "Ġbeh": 3482,
      "ives": 3483,
      "igger": 3484,
      "}.": 3485,
      "Ġprogram": 3486,
      "Ġask": 3487,
      "Length": 3488,
      "Ð²": 3489,
      "BU": 3490,
      "tml": 3491,
      "aps": 3492,
      "Ġeas": 3493,
      "omponent": 3494,
      "Met": 3495,
      "ience": 3496,
      "last": 3497,
      "color": 3498,
      "Ġside": 3499,
      "_TYPE": 3500,
      "met": 3501,
      "Pre": 3502,
      "bers": 3503,
      "ÑģÑĤ": 3504,
      "cs": 3505,
      "Ġanswer": 3506,
      "umns": 3507,
      "ëĭ": 3508,
      "Ġmean": 3509,
      "{align": 3510,
      "ĠLe": 3511,
      "Click": 3512,
      "Ġcert": 3513,
      "Ġ_{": 3514,
      "ibility": 3515,
      "irtual": 3516,
      "ÐµÐ½": 3517,
      "ĠCreate": 3518,
      "Option": 3519,
      "Ġparameter": 3520,
      "\\\"": 3521,
      "$Ċ": 3522,
      "aces": 3523,
      "Ġspe": 3524,
      "has": 3525,
      "Ġrepresent": 3526,
      "ĉbreak": 3527,
      "Ġmultip": 3528,
      "cale": 3529,
      "Ġgr": 3530,
      "Ġaut": 3531,
      "Ġmove": 3532,
      "voke": 3533,
      "graph": 3534,
      "ired": 3535,
      "Ġequ": 3536,
      "Ġbased": 3537,
      "olicy": 3538,
      "patch": 3539,
      "Ġpay": 3540,
      "Char": 3541,
      "Part": 3542,
      "ĠAt": 3543,
      "imation": 3544,
      ".se": 3545,
      "stand": 3546,
      "ittle": 3547,
      "INT": 3548,
      "irectory": 3549,
      "Ġlimit": 3550,
      "ãĥ¼": 3551,
      "(w": 3552,
      "host": 3553,
      "/g": 3554,
      "04": 3555,
      "\"><": 3556,
      "();čĊ": 3557,
      "Ġvol": 3558,
      "Web": 3559,
      "CL": 3560,
      "ado": 3561,
      "IZE": 3562,
      "Bar": 3563,
      "Tags": 3564,
      "udio": 3565,
      "Ġpop": 3566,
      "Order": 3567,
      "raint": 3568,
      "è¡": 3569,
      "arrow": 3570,
      "Ġgot": 3571,
      "_j": 3572,
      "None": 3573,
      "irm": 3574,
      "ident": 3575,
      "35": 3576,
      "ĠNot": 3577,
      "-w": 3578,
      "rapper": 3579,
      "^{\\": 3580,
      "valu": 3581,
      "pu": 3582,
      "abs": 3583,
      "Ġparams": 3584,
      "Ġbel": 3585,
      "02": 3586,
      "Ptr": 3587,
      "Ġ'/": 3588,
      "nc": 3589,
      "_\\": 3590,
      "ountry": 3591,
      "rypt": 3592,
      "ĠOr": 3593,
      "Ġinterface": 3594,
      "scope": 3595,
      "ĉd": 3596,
      "Window": 3597,
      "05": 3598,
      "fg": 3599,
      "gor": 3600,
      "stion": 3601,
      "adding": 3602,
      "IB": 3603,
      "(R": 3604,
      "ĠTrue": 3605,
      "è®": 3606,
      "ounds": 3607,
      "Ġ{@": 3608,
      "Ġide": 3609,
      "ilon": 3610,
      "ĠDate": 3611,
      "Ġbook": 3612,
      "Ġred": 3613,
      "ç»": 3614,
      "ird": 3615,
      "Ġbuffer": 3616,
      "____": 3617,
      "-t": 3618,
      "Ġpower": 3619,
      "otal": 3620,
      "Ġcopy": 3621,
      "Ġduring": 3622,
      "_NAME": 3623,
      "ung": 3624,
      "Ġocc": 3625,
      "....": 3626,
      "ached": 3627,
      "Module": 3628,
      "Ġgoing": 3629,
      "Dir": 3630,
      "atal": 3631,
      "Ġrender": 3632,
      "ication": 3633,
      "xt": 3634,
      "ERROR": 3635,
      "romise": 3636,
      "ols": 3637,
      "(pro": 3638,
      "Parameter": 3639,
      "beta": 3640,
      ".</": 3641,
      "aded": 3642,
      "ased": 3643,
      "_count": 3644,
      "Tag": 3645,
      "Auth": 3646,
      "ivers": 3647,
      "Settings": 3648,
      "```ĊĊ": 3649,
      "Ġcolumn": 3650,
      "Ġmet": 3651,
      "OW": 3652,
      "Ġturn": 3653,
      "\"/": 3654,
      "eq": 3655,
      "ĠAPI": 3656,
      "Ġreally": 3657,
      "ipp": 3658,
      "oh": 3659,
      "Ñĩ": 3660,
      "})Ċ": 3661,
      "Ġdistrib": 3662,
      "then": 3663,
      "-g": 3664,
      "Target": 3665,
      "Ġtoken": 3666,
      "inc": 3667,
      "Ġapplication": 3668,
      "Params": 3669,
      "Access": 3670,
      "Spec": 3671,
      ".md": 3672,
      "Ġlife": 3673,
      "ysis": 3674,
      "ias": 3675,
      ".ph": 3676,
      "Ġclose": 3677,
      "Ġfun": 3678,
      "Ġdescription": 3679,
      "Ġhost": 3680,
      "Ġinfo": 3681,
      ".model": 3682,
      "Ġnetwork": 3683,
      "Ġ);ĊĊ": 3684,
      "Ġoffset": 3685,
      "olve": 3686,
      "leted": 3687,
      "36": 3688,
      "IST": 3689,
      "_string": 3690,
      "Level": 3691,
      "Ġpres": 3692,
      "ately": 3693,
      "dated": 3694,
      "author": 3695,
      "ulti": 3696,
      "xx": 3697,
      "edit": 3698,
      "sm": 3699,
      "Ġprob": 3700,
      "Unit": 3701,
      "Interface": 3702,
      "ĠType": 3703,
      "'),Ċ": 3704,
      "Ġgreat": 3705,
      "False": 3706,
      "Ġdest": 3707,
      "Configuration": 3708,
      "oder": 3709,
      "Hash": 3710,
      "ilar": 3711,
      "sert": 3712,
      "stamp": 3713,
      "Ġnever": 3714,
      "params": 3715,
      "Exec": 3716,
      "mathbf": 3717,
      "':Ċ": 3718,
      "chool": 3719,
      "Process": 3720,
      "gment": 3721,
      "Ġ};ĊĊ": 3722,
      "Ġroot": 3723,
      "arr": 3724,
      "ATION": 3725,
      "acket": 3726,
      "Ġconnection": 3727,
      "'d": 3728,
      "layout": 3729,
      "mark": 3730,
      "31": 3731,
      "rie": 3732,
      "ursor": 3733,
      "\".": 3734,
      "Ġmodule": 3735,
      "ĠShe": 3736,
      "_by": 3737,
      "ze": 3738,
      "ãģ®": 3739,
      "Ġ<!--": 3740,
      "(*": 3741,
      "gorith": 3742,
      "itude": 3743,
      "================================": 3744,
      "Ġ\"/": 3745,
      "items": 3746,
      "land": 3747,
      "ĠPar": 3748,
      "ĠThey": 3749,
      "_CON": 3750,
      "ĠBe": 3751,
      "term": 3752,
      "ged": 3753,
      "Ġdb": 3754,
      "Ġdelete": 3755,
      "rain": 3756,
      "ĠDE": 3757,
      "Ð¼": 3758,
      "Ġbegin": 3759,
      "Ġswitch": 3760,
      "_sh": 3761,
      "Ġlead": 3762,
      "Ġvector": 3763,
      "Max": 3764,
      "Num": 3765,
      "90": 3766,
      "_.": 3767,
      "uff": 3768,
      "cer": 3769,
      "verse": 3770,
      "next": 3771,
      "icense": 3772,
      "center": 3773,
      "length": 3774,
      "pose": 3775,
      "gine": 3776,
      "tric": 3777,
      "ours": 3778,
      "Ġfew": 3779,
      "ndle": 3780,
      "Ġ-->Ċ": 3781,
      "ITE": 3782,
      "Ġaddition": 3783,
      "CTION": 3784,
      "els": 3785,
      ".apache": 3786,
      ".google": 3787,
      "}/": 3788,
      "avig": 3789,
      "));ĊĊ": 3790,
      "typ": 3791,
      "Ġcalcul": 3792,
      "aper": 3793,
      "Ġcommun": 3794,
      "Record": 3795,
      "Ġinterest": 3796,
      "Ġshort": 3797,
      "ocus": 3798,
      "AND": 3799,
      ".put": 3800,
      "Ġcreated": 3801,
      "Thread": 3802,
      "Ġjob": 3803,
      "req": 3804,
      "utions": 3805,
      "Ġbutton": 3806,
      "GL": 3807,
      "Ġspecified": 3808,
      "Ġbetter": 3809,
      "Ġ++": 3810,
      "Ġgraph": 3811,
      "lections": 3812,
      "ĠUp": 3813,
      "_un": 3814,
      "iddle": 3815,
      "Ġfn": 3816,
      "resource": 3817,
      "Ġcallback": 3818,
      "ĠRE": 3819,
      "_at": 3820,
      "Ġentry": 3821,
      "Ġ\"\"\"": 3822,
      "ĠPh": 3823,
      "Ġless": 3824,
      "ĠException": 3825,
      "Ġ\"\\": 3826,
      "Device": 3827,
      "Ġ(\"": 3828,
      "Ġstop": 3829,
      "Ġdem": 3830,
      "Ġmsg": 3831,
      "199": 3832,
      "Ġgl": 3833,
      "ention": 3834,
      "Ã¼": 3835,
      "_state": 3836,
      "Ġ!==": 3837,
      "Ġparse": 3838,
      "ĠAssert": 3839,
      "Ġremove": 3840,
      "anks": 3841,
      "Integer": 3842,
      "Ġpy": 3843,
      "Ġax": 3844,
      "Ġ),Ċ": 3845,
      "Pos": 3846,
      "_index": 3847,
      "ouch": 3848,
      "(err": 3849,
      "member": 3850,
      "ured": 3851,
      "Ġlight": 3852,
      "Search": 3853,
      "Cache": 3854,
      "Question": 3855,
      "PT": 3856,
      "inding": 3857,
      "Ġ~": 3858,
      "Ġmodels": 3859,
      "ĠSp": 3860,
      "respond": 3861,
      "34": 3862,
      "store": 3863,
      "edia": 3864,
      "-re": 3865,
      "iver": 3866,
      "500": 3867,
      "(true": 3868,
      "åŃ": 3869,
      "oy": 3870,
      "ilt": 3871,
      "^{-": 3872,
      "38": 3873,
      "Return": 3874,
      "Cl": 3875,
      "first": 3876,
      "Ġcorrect": 3877,
      "37": 3878,
      "\"));Ċ": 3879,
      "Fe": 3880,
      "side": 3881,
      "ters": 3882,
      "Ġear": 3883,
      "Ġtag": 3884,
      "Vector": 3885,
      "Ġlittle": 3886,
      "source": 3887,
      "ĠAd": 3888,
      "lice": 3889,
      "ĠÐ²": 3890,
      "{fig": 3891,
      "Ġjav": 3892,
      "_ch": 3893,
      "');ĊĊ": 3894,
      "omb": 3895,
      "Ġvari": 3896,
      "ably": 3897,
      ".path": 3898,
      "_error": 3899,
      "eded": 3900,
      "Ġæ": 3901,
      "bit": 3902,
      "Ġcap": 3903,
      "INE": 3904,
      "ĠĠĠĠĠĠĠĠĠĠĠĠĠĠĠĠĠĠĠĠ": 3905,
      "Api": 3906,
      "roy": 3907,
      "\",\"": 3908,
      "stream": 3909,
      "Ġsizeof": 3910,
      "cluding": 3911,
      "Ġkeep": 3912,
      "Helper": 3913,
      "Ġfont": 3914,
      "ari": 3915,
      "Open": 3916,
      "ĠFalse": 3917,
      "Stack": 3918,
      "Ġdepend": 3919,
      "Ġtech": 3920,
      "Load": 3921,
      "!!": 3922,
      "allback": 3923,
      "Range": 3924,
      "Ġlarge": 3925,
      "Ġ(\\": 3926,
      "=True": 3927,
      "Ġreturns": 3928,
      "PC": 3929,
      "Ġsort": 3930,
      "(T": 3931,
      "ĠWhen": 3932,
      "float": 3933,
      "used": 3934,
      "Ġcare": 3935,
      "Ġempty": 3936,
      "returns": 3937,
      "Ġglobal": 3938,
      "----------------------------------------------------------------": 3939,
      "stall": 3940,
      "vest": 3941,
      "Ġstream": 3942,
      "ERS": 3943,
      "Ġdie": 3944,
      "Ġappe": 3945,
      "false": 3946,
      "omic": 3947,
      "zure": 3948,
      "aut": 3949,
      "Ġobt": 3950,
      "ASE": 3951,
      "ALL": 3952,
      "urch": 3953,
      "_user": 3954,
      "ites": 3955,
      "uper": 3956,
      "[$": 3957,
      ".write": 3958,
      "imension": 3959,
      "?:": 3960,
      "END": 3961,
      "ases": 3962,
      "rowser": 3963,
      "orth": 3964,
      "Offset": 3965,
      "Ġemp": 3966,
      "wise": 3967,
      "oll": 3968,
      "'))": 3969,
      "ensions": 3970,
      "-de": 3971,
      "Ġdoesn": 3972,
      "Session": 3973,
      "ii": 3974,
      "ĠQu": 3975,
      "éĢ": 3976,
      "achine": 3977,
      "Ġve": 3978,
      "sigma": 3979,
      "Store": 3980,
      "Ġsession": 3981,
      "RL": 3982,
      "Work": 3983,
      "Ġthings": 3984,
      "One": 3985,
      "[:": 3986,
      "Ġden": 3987,
      "UB": 3988,
      "umb": 3989,
      "âĢĵ": 3990,
      "cor": 3991,
      "Ġunit": 3992,
      "agn": 3993,
      "`,": 3994,
      "\\right": 3995,
      "Ġinf": 3996,
      "ĠÑģ": 3997,
      "Values": 3998,
      "igin": 3999,
      "theta": 4000,
      "ĠDes": 4001,
      "ium": 4002,
      "Ġpoints": 4003,
      "module": 4004,
      "product": 4005,
      "Serial": 4006,
      "long": 4007,
      "click": 4008,
      "08": 4009,
      "display": 4010,
      "Ġweb": 4011,
      "Ġbtn": 4012,
      "imate": 4013,
      "Ġsend": 4014,
      ")->": 4015,
      "ById": 4016,
      "Ġcontinue": 4017,
      "ges": 4018,
      "/j": 4019,
      "iment": 4020,
      "(:": 4021,
      "Ġunsigned": 4022,
      "hat": 4023,
      ".new": 4024,
      "Callback": 4025,
      "find": 4026,
      "Ġenerg": 4027,
      "property": 4028,
      "MS": 4029,
      "now": 4030,
      ",čĊ": 4031,
      "Ġprevious": 4032,
      "meta": 4033,
      "ĠMy": 4034,
      "ĠCheck": 4035,
      "Ġhard": 4036,
      "ĠError": 4037,
      "utable": 4038,
      "ĠName": 4039,
      "expected": 4040,
      "Ġge": 4041,
      "Ġeither": 4042,
      "Ġsection": 4043,
      "heet": 4044,
      "ieve": 4045,
      ".as": 4046,
      "delta": 4047,
      "\"),": 4048,
      "Location": 4049,
      "Ġredu": 4050,
      "55": 4051,
      "Rem": 4052,
      "lied": 4053,
      "åľ": 4054,
      "('#": 4055,
      "Ġgive": 4056,
      "vec": 4057,
      "oment": 4058,
      "Ġfields": 4059,
      "Ġ\\\\Ċ": 4060,
      "Down": 4061,
      "IX": 4062,
      "Ġmeasure": 4063,
      "sec": 4064,
      "Items": 4065,
      "unsigned": 4066,
      "CP": 4067,
      "Ġchannel": 4068,
      "('/": 4069,
      "Title": 4070,
      "Ġcharacter": 4071,
      "+\\": 4072,
      "DD": 4073,
      "(L": 4074,
      "\\item": 4075,
      "mathrm": 4076,
      "\"),Ċ": 4077,
      "ied": 4078,
      "Async": 4079,
      "~~": 4080,
      "07": 4081,
      "auth": 4082,
      "Ġinstall": 4083,
      "utor": 4084,
      "Ġfail": 4085,
      "ä¸Ģ": 4086,
      ".read": 4087,
      "acy": 4088,
      "oice": 4089,
      "Ġlocation": 4090,
      "ggest": 4091,
      "orn": 4092,
      "Ġ],Ċ": 4093,
      "Edit": 4094,
      "ART": 4095,
      "vector": 4096,
      "KEY": 4097,
      "\";ĊĊ": 4098,
      "_code": 4099,
      "actions": 4100,
      "_ptr": 4101,
      "src": 4102,
      ".E": 4103,
      "ibrary": 4104,
      "ORD": 4105,
      "Ġable": 4106,
      "'ve": 4107,
      "Args": 4108,
      "}{\\": 4109,
      "_int": 4110,
      "Ġcr": 4111,
      "raft": 4112,
      "client": 4113,
      "si": 4114,
      "Ġ/**": 4115,
      "Ġoriginal": 4116,
      "Ġauth": 4117,
      "olds": 4118,
      "ĉĠ": 4119,
      "TO": 4120,
      "Ġlow": 4121,
      "ĠBy": 4122,
      "Ġdatabase": 4123,
      "amera": 4124,
      "ocket": 4125,
      "instance": 4126,
      "MA": 4127,
      "alloc": 4128,
      "Gener": 4129,
      "ĠĠĠĠĠĠĠĠĠĠĠĠĠĠĠĠĠĠ": 4130,
      "(false": 4131,
      "Cell": 4132,
      "ao": 4133,
      "card": 4134,
      ".php": 4135,
      "Ġstep": 4136,
      "sv": 4137,
      "44": 4138,
      "Ġ}čĊčĊ": 4139,
      "Ġtemplate": 4140,
      "ral": 4141,
      "ĠUS": 4142,
      "Ġfre": 4143,
      "(!": 4144,
      "ĠText": 4145,
      "images": 4146,
      "_config": 4147,
      "alf": 4148,
      "Ġabs": 4149,
      "Ġtypes": 4150,
      "ynamic": 4151,
      "number": 4152,
      "Ġsimp": 4153,
      "ply": 4154,
      "Ġleast": 4155,
      "ries": 4156,
      "Ġmethods": 4157,
      "Ġê": 4158,
      "Ġwhether": 4159,
      "_dir": 4160,
      "Obj": 4161,
      "vas": 4162,
      "Ġassoci": 4163,
      "Min": 4164,
      "Ġbelow": 4165,
      "Ġspecific": 4166,
      "åº": 4167,
      "je": 4168,
      "filter": 4169,
      "ĠDo": 4170,
      "ensure": 4171,
      "isk": 4172,
      "nap": 4173,
      "//Ċ": 4174,
      "Current": 4175,
      "ĠAll": 4176,
      "Icon": 4177,
      "Ġgeneral": 4178,
      "Ġweek": 4179,
      "=$": 4180,
      "CC": 4181,
      "totype": 4182,
      "ted": 4183,
      "ship": 4184,
      "ĠHT": 4185,
      "ĠMath": 4186,
      "LOG": 4187,
      "outer": 4188,
      "\\in": 4189,
      "cat": 4190,
      "JSON": 4191,
      "ORM": 4192,
      "ãĢģ": 4193,
      "Ġmonth": 4194,
      "struction": 4195,
      "aa": 4196,
      ".sc": 4197,
      "Ġproperties": 4198,
      "Tree": 4199,
      "(de": 4200,
      "))ĊĊ": 4201,
      "Ġrandom": 4202,
      "GET": 4203,
      "Ġmeans": 4204,
      "ops": 4205,
      "Ġtimes": 4206,
      "Ġwon": 4207,
      "ctionary": 4208,
      "Ġonce": 4209,
      "igure": 4210,
      "Ã¶": 4211,
      "å¼": 4212,
      "Document": 4213,
      "Template": 4214,
      "ceived": 4215,
      "Ġbro": 4216,
      "/v": 4217,
      "ended": 4218,
      "Collection": 4219,
      "Ġseem": 4220,
      "Ġtyp": 4221,
      "*/Ċ": 4222,
      "Ġbyte": 4223,
      "Next": 4224,
      "Ġsimple": 4225,
      "æĹ": 4226,
      ".out": 4227,
      "Top": 4228,
      "pg": 4229,
      "Param": 4230,
      ".k": 4231,
      "âĢľ": 4232,
      ")ĊĊĊ": 4233,
      "ĠReturns": 4234,
      "ĠĠĠĠĠĠĠĠĠĠĠĠĠĠĠĠĠĠĠĠĠĠĠĠĠ": 4235,
      "]ĊĊ": 4236,
      "Ġwait": 4237,
      "unch": 4238,
      "ety": 4239,
      "should": 4240,
      "Ġfunctions": 4241,
      "Port": 4242,
      "Ġ(*": 4243,
      "_node": 4244,
      "cel": 4245,
      "$this": 4246,
      "oom": 4247,
      "Ġheader": 4248,
      "That": 4249,
      "Ġdraw": 4250,
      "ina": 4251,
      "Ġitems": 4252,
      "Ġvert": 4253,
      "ĠSome": 4254,
      "Ġimportant": 4255,
      "ights": 4256,
      "echo": 4257,
      "Ġchildren": 4258,
      "Post": 4259,
      ",'": 4260,
      "iler": 4261,
      "byte": 4262,
      "Delete": 4263,
      "æĺ¯": 4264,
      "write": 4265,
      "ftware": 4266,
      "'=>": 4267,
      "utils": 4268,
      "_sc": 4269,
      "ĠTime": 4270,
      "printf": 4271,
      ".sub": 4272,
      "Dialog": 4273,
      "cm": 4274,
      "Ġbackground": 4275,
      "Ġselected": 4276,
      "03": 4277,
      "Handle": 4278,
      "Ġund": 4279,
      "ison": 4280,
      "Ġcannot": 4281,
      "ĠIm": 4282,
      ".error": 4283,
      "sel": 4284,
      "Channel": 4285,
      "anagement": 4286,
      "Ġdiff": 4287,
      "Script": 4288,
      ".user": 4289,
      "ATA": 4290,
      "Properties": 4291,
      "*)": 4292,
      "VAL": 4293,
      "Ġmedi": 4294,
      "second": 4295,
      "Ġsolution": 4296,
      "Ġfri": 4297,
      "curity": 4298,
      "Ġnormal": 4299,
      "Project": 4300,
      "75": 4301,
      "'ll": 4302,
      "ĠMap": 4303,
      "alle": 4304,
      "__(": 4305,
      "Ġunderstand": 4306,
      ".In": 4307,
      "Ġrole": 4308,
      ".text": 4309,
      "Ġkind": 4310,
      ".'": 4311,
      "Ġworking": 4312,
      "ĠMe": 4313,
      "ently": 4314,
      "session": 4315,
      "API": 4316,
      "Reader": 4317,
      "Ġcent": 4318,
      ".z": 4319,
      "Ġnet": 4320,
      "qrt": 4321,
      "alled": 4322,
      "256": 4323,
      "na": 4324,
      "^\\": 4325,
      "(key": 4326,
      "_y": 4327,
      "cp": 4328,
      "acity": 4329,
      "48": 4330,
      "(result": 4331,
      "dr": 4332,
      "-l": 4333,
      "ips": 4334,
      "ĉstruct": 4335,
      "ĠGener": 4336,
      "gistry": 4337,
      "uri": 4338,
      "Impl": 4339,
      "/*Ċ": 4340,
      "gamma": 4341,
      ".key": 4342,
      "Ġthought": 4343,
      "Ġinstead": 4344,
      "rice": 4345,
      "++;Ċ": 4346,
      "Ġuntil": 4347,
      "FO": 4348,
      "Ġindic": 4349,
      "ĠEX": 4350,
      "Ġcomb": 4351,
      "idual": 4352,
      "ressed": 4353,
      "Local": 4354,
      "_array": 4355,
      "tilde": 4356,
      "ĠSc": 4357,
      "Ġwhy": 4358,
      "known": 4359,
      "_en": 4360,
      "Ġbr": 4361,
      "Description": 4362,
      "Ġregister": 4363,
      "Ġev": 4364,
      "Ġelect": 4365,
      "aring": 4366,
      ").ĊĊ": 4367,
      ".Is": 4368,
      "Ġagainst": 4369,
      "ragment": 4370,
      "OK": 4371,
      "Ġenergy": 4372,
      "Ġpas": 4373,
      "issing": 4374,
      "plit": 4375,
      "Ġhash": 4376,
      "Widget": 4377,
      "Ġreason": 4378,
      "Ġelements": 4379,
      "termin": 4380,
      "Ġwater": 4381,
      "(id": 4382,
      "ĠST": 4383,
      "login": 4384,
      "partial": 4385,
      "-group": 4386,
      "06": 4387,
      "Ġsw": 4388,
      "Sign": 4389,
      "Rect": 4390,
      "types": 4391,
      "Ġapply": 4392,
      "(struct": 4393,
      "gen": 4394,
      "ĠSub": 4395,
      "project": 4396,
      "Ġarea": 4397,
      "nav": 4398,
      "Ġsite": 4399,
      "Ġ'./": 4400,
      "Ġdr": 4401,
      "Changed": 4402,
      "Ġparticular": 4403,
      "mission": 4404,
      "erc": 4405,
      "ggle": 4406,
      "description": 4407,
      "font": 4408,
      "alt": 4409,
      "gorithm": 4410,
      "ript": 4411,
      "queue": 4412,
      "Ġraise": 4413,
      "ĠJSON": 4414,
      "Ġbecome": 4415,
      ".H": 4416,
      "Storage": 4417,
      "ĠThen": 4418,
      "ands": 4419,
      "Ġsave": 4420,
      "XX": 4421,
      "Ġcorrespond": 4422,
      "Ġ'<": 4423,
      "oord": 4424,
      "quality": 4425,
      "vi": 4426,
      "Ġdidn": 4427,
      "Ġrespect": 4428,
      "IME": 4429,
      "ignment": 4430,
      "ĠPl": 4431,
      "meric": 4432,
      "foo": 4433,
      "ATH": 4434,
      "rintf": 4435,
      "Ġ..": 4436,
      "39": 4437,
      "pack": 4438,
      "ĠLo": 4439,
      "urther": 4440,
      "Ġsat": 4441,
      "ãģĻ": 4442,
      "Account": 4443,
      "Ð¾Ð²": 4444,
      "uck": 4445,
      "Body": 4446,
      "Parser": 4447,
      "Ġinternal": 4448,
      "PP": 4449,
      "Ã§": 4450,
      "Ð´": 4451,
      "ignore": 4452,
      "ĠForm": 4453,
      "%Ċ": 4454,
      "Ġexception": 4455,
      "ĠWhat": 4456,
      "big": 4457,
      "Ġadded": 4458,
      "lt": 4459,
      "Repository": 4460,
      "append": 4461,
      "Ġclo": 4462,
      "Ġprovided": 4463,
      "Ġincluding": 4464,
      "nb": 4465,
      "token": 4466,
      "/w": 4467,
      "Enabled": 4468,
      "Match": 4469,
      "Ġamount": 4470,
      "thread": 4471,
      "Ġteam": 4472,
      "-md": 4473,
      "Rec": 4474,
      "dk": 4475,
      "Ġdesign": 4476,
      "CO": 4477,
      "Ġhum": 4478,
      "Ġundefined": 4479,
      ".core": 4480,
      ".type": 4481,
      "cast": 4482,
      "Ġconfiguration": 4483,
      "Ġ<?": 4484,
      "\\label": 4485,
      "Activity": 4486,
      "Ġmatrix": 4487,
      ".Col": 4488,
      ".Set": 4489,
      "Ġ>>": 4490,
      "ecess": 4491,
      ".Error": 4492,
      "mo": 4493,
      "Ġterm": 4494,
      "åĽ": 4495,
      "FAULT": 4496,
      "Ġio": 4497,
      "tab": 4498,
      "Render": 4499,
      "}ĊĊĊ": 4500,
      "Ġorgan": 4501,
      "oose": 4502,
      "ernel": 4503,
      "btn": 4504,
      "istic": 4505,
      "Ġthread": 4506,
      "Ġiter": 4507,
      "leep": 4508,
      "ube": 4509,
      "Ġ?>": 4510,
      "Ġfeel": 4511,
      "Ġcost": 4512,
      "ires": 4513,
      "Ġcirc": 4514,
      "Ġscript": 4515,
      "(string": 4516,
      "main": 4517,
      "otion": 4518,
      "CON": 4519,
      "ROM": 4520,
      "Application": 4521,
      "Ġjavax": 4522,
      "anner": 4523,
      "bra": 4524,
      "Ġmemory": 4525,
      "\\\\Ċ": 4526,
      "Ġreference": 4527,
      "licit": 4528,
      "ceive": 4529,
      "Ġstandard": 4530,
      "ĠTe": 4531,
      ".min": 4532,
      "Ġvirtual": 4533,
      "ranch": 4534,
      "react": 4535,
      ".Text": 4536,
      "ocial": 4537,
      "etime": 4538,
      "Ġexpl": 4539,
      "âĶ": 4540,
      "nu": 4541,
      "ograph": 4542,
      "ĠAct": 4543,
      "-a": 4544,
      "Tool": 4545,
      "ĠThat": 4546,
      "oney": 4547,
      "(ctx": 4548,
      "oup": 4549,
      ">();Ċ": 4550,
      "pped": 4551,
      "Ġ]Ċ": 4552,
      "Ġfar": 4553,
      "(){Ċ": 4554,
      "/**": 4555,
      "_SIZE": 4556,
      "(-": 4557,
      "'],Ċ": 4558,
      "Ġsent": 4559,
      "ds": 4560,
      "Ġquant": 4561,
      "}čĊčĊ": 4562,
      "Ġsever": 4563,
      "255": 4564,
      "Ġenough": 4565,
      "Ġexcept": 4566,
      "Ġconn": 4567,
      "|\\": 4568,
      "Ġpot": 4569,
      "Ġcourse": 4570,
      "Bytes": 4571,
      "erge": 4572,
      "Ġbound": 4573,
      "ij": 4574,
      ".Name": 4575,
      "ished": 4576,
      "process": 4577,
      "My": 4578,
      "istance": 4579,
      "ĠNS": 4580,
      "Ġ('": 4581,
      "09": 4582,
      "rho": 4583,
      "Ġstructure": 4584,
      "pecial": 4585,
      "afe": 4586,
      "86": 4587,
      "ority": 4588,
      "Ġauthor": 4589,
      "Ġalong": 4590,
      ";->": 4591,
      "ĠCl": 4592,
      "(get": 4593,
      "Ġcover": 4594,
      "ĠPy": 4595,
      "olution": 4596,
      "]{": 4597,
      "Ġsimilar": 4598,
      "tau": 4599,
      "Ġaway": 4600,
      "ssages": 4601,
      "300": 4602,
      "Ġcause": 4603,
      "ĠÐ½": 4604,
      "ĠRun": 4605,
      "Ġ{{": 4606,
      "ommit": 4607,
      "ards": 4608,
      "Ġ\",": 4609,
      "Ġcontains": 4610,
      "holder": 4611,
      "_test": 4612,
      ".api": 4613,
      "ODO": 4614,
      "ECT": 4615,
      "<<": 4616,
      "Ġ[\"": 4617,
      "Vert": 4618,
      "Panel": 4619,
      "());ĊĊ": 4620,
      "Delta": 4621,
      ".start": 4622,
      "Ġnamespace": 4623,
      "'],": 4624,
      "Ġchanges": 4625,
      ".parse": 4626,
      "VER": 4627,
      "Ġfailed": 4628,
      "Ġbox": 4629,
      ".println": 4630,
      "BO": 4631,
      "Ġ.Ċ": 4632,
      "Ġreq": 4633,
      "selected": 4634,
      "ario": 4635,
      "Ġemail": 4636,
      "_field": 4637,
      "Ġerrors": 4638,
      "ids": 4639,
      ".test": 4640,
      "thers": 4641,
      "Grid": 4642,
      "_log": 4643,
      "Product": 4644,
      "rs": 4645,
      "ĠEvent": 4646,
      ".json": 4647,
      "element": 4648,
      "elf": 4649,
      "rel": 4650,
      "ACK": 4651,
      ".end": 4652,
      "URE": 4653,
      "serial": 4654,
      "overn": 4655,
      ".__": 4656,
      "Ġroom": 4657,
      "parent": 4658,
      "Ġevents": 4659,
      "ãĤĴ": 4660,
      "'ĊĊ": 4661,
      "uple": 4662,
      "æī": 4663,
      "////////////////////////////////": 4664,
      "mbers": 4665,
      "ogn": 4666,
      "Ġpassword": 4667,
      "Debug": 4668,
      "Ġstudy": 4669,
      "ansport": 4670,
      "Each": 4671,
      "ONE": 4672,
      "=\"{{": 4673,
      "Ġcenter": 4674,
      "aly": 4675,
      "ĉconst": 4676,
      "ĠClass": 4677,
      "issions": 4678,
      "Sec": 4679,
      "ival": 4680,
      "Ġspecial": 4681,
      "Ġplayer": 4682,
      ".lang": 4683,
      "å°": 4684,
      "Ġbytes": 4685,
      "ament": 4686,
      "Op": 4687,
      "ĠĠĠĠĠĠĠĠĠĠĠĠĠĠĠĠĠĠĠĠĠĠĠĠĠĠĠĠĠĠĠĠĠĠĠĠĠĠĠĠĠĠĠ": 4688,
      "Ste": 4689,
      "():Ċ": 4690,
      "Ġregion": 4691,
      "Left": 4692,
      "CS": 4693,
      "Ġlater": 4694,
      "Ġtrack": 4695,
      "Byte": 4696,
      "_back": 4697,
      "delete": 4698,
      "shot": 4699,
      "Ġbusiness": 4700,
      "most": 4701,
      "FT": 4702,
      "Ġfour": 4703,
      "Ġtell": 4704,
      "Ġconvert": 4705,
      "reference": 4706,
      ")]Ċ": 4707,
      "vm": 4708,
      "_start": 4709,
      ":(": 4710,
      "Ġworks": 4711,
      "fully": 4712,
      "Ġthing": 4713,
      "88": 4714,
      "ipe": 4715,
      "Ġtree": 4716,
      "ersist": 4717,
      "Ġsettings": 4718,
      "Operation": 4719,
      "AA": 4720,
      "ving": 4721,
      "onth": 4722,
      "Ġrunning": 4723,
      "Ġbar": 4724,
      "just": 4725,
      "Cre": 4726,
      "stack": 4727,
      "/h": 4728,
      "leq": 4729,
      "ä¸ª": 4730,
      "Ġdays": 4731,
      "Player": 4732,
      "ĠKey": 4733,
      "BUG": 4734,
      "-control": 4735,
      "gether": 4736,
      "ios": 4737,
      "ĠAb": 4738,
      "sql": 4739,
      ".state": 4740,
      "Ġ{}": 4741,
      "Ġoperation": 4742,
      "lap": 4743,
      "First": 4744,
      "aved": 4745,
      ".remove": 4746,
      "Ġcommon": 4747,
      "Iter": 4748,
      "_ME": 4749,
      "ĠčĊ": 4750,
      "Ġopp": 4751,
      "Ġcontainer": 4752,
      "So": 4753,
      "LECT": 4754,
      "Expression": 4755,
      "cell": 4756,
      "Ġgrow": 4757,
      ".index": 4758,
      "Ġforeach": 4759,
      "POST": 4760,
      ".config": 4761,
      "Ġactive": 4762,
      "(file": 4763,
      "verage": 4764,
      "Ġapproach": 4765,
      "ĠÐ¸": 4766,
      "OG": 4767,
      "LL": 4768,
      "Ġctx": 4769,
      "Ġdue": 4770,
      "fficient": 4771,
      "ä¸Ń": 4772,
      "ores": 4773,
      "Names": 4774,
      "password": 4775,
      "Ġrate": 4776,
      "Ġfil": 4777,
      ";;": 4778,
      "ĠValue": 4779,
      "lev": 4780,
      "SET": 4781,
      "(D": 4782,
      "ipel": 4783,
      "(in": 4784,
      "ording": 4785,
      "Ġmultiple": 4786,
      "'.": 4787,
      "rong": 4788,
      "Bl": 4789,
      "_text": 4790,
      "Ġactual": 4791,
      "66": 4792,
      "Ġadv": 4793,
      "Ġclick": 4794,
      "Ġtmp": 4795,
      "Ġlines": 4796,
      "Ġscale": 4797,
      "VE": 4798,
      "Ġperiod": 4799,
      "UID": 4800,
      "ĠCan": 4801,
      "(\"#": 4802,
      "gan": 4803,
      "gn": 4804,
      "andler": 4805,
      "ĠView": 4806,
      "_table": 4807,
      "Ġborder": 4808,
      "_object": 4809,
      "ancel": 4810,
      ".net": 4811,
      "upp": 4812,
      "Ġprof": 4813,
      "target": 4814,
      "PS": 4815,
      "ĠHowever": 4816,
      "Ġey": 4817,
      "gl": 4818,
      "ĠĠĠĠĠĠĠĠĠĠĠĠĠĠĠĠĠĠĠĠĠĠĠĠ": 4819,
      "rip": 4820,
      "Ġrelation": 4821,
      ".map": 4822,
      ".*": 4823,
      "Ġterms": 4824,
      "_of": 4825,
      "_ERROR": 4826,
      "wner": 4827,
      "(l": 4828,
      "Ġmass": 4829,
      "Host": 4830,
      "Ġfamily": 4831,
      "boot": 4832,
      "Found": 4833,
      "ĠWith": 4834,
      "_PRO": 4835,
      "omega": 4836,
      "Ġ^{": 4837,
      "Float": 4838,
      "ĠCON": 4839,
      "Last": 4840,
      "Ġ\"$": 4841,
      "(A": 4842,
      "VI": 4843,
      "Ġsepar": 4844,
      "Ġhaving": 4845,
      "Write": 4846,
      "lide": 4847,
      "clus": 4848,
      "Ġplan": 4849,
      ".String": 4850,
      "ĠOption": 4851,
      "rodu": 4852,
      "ĠAmeric": 4853,
      "users": 4854,
      "Ġbig": 4855,
      "Ġmoment": 4856,
      "Ġthough": 4857,
      "tobuf": 4858,
      ".cont": 4859,
      "lies": 4860,
      "(k": 4861,
      "ynt": 4862,
      "Ġgen": 4863,
      "Ġenvironment": 4864,
      ".Re": 4865,
      "à¤": 4866,
      ".ch": 4867,
      "Ġcomput": 4868,
      "Ġsuggest": 4869,
      "Ġdirectory": 4870,
      "aken": 4871,
      "Ġpattern": 4872,
      "('.": 4873,
      "position": 4874,
      "Ġphys": 4875,
      "fty": 4876,
      "}}Ċ": 4877,
      "')ĊĊ": 4878,
      "media": 4879,
      "atio": 4880,
      "Custom": 4881,
      "zz": 4882,
      "Ġneeded": 4883,
      "ï¼ļ": 4884,
      ".Form": 4885,
      "ascript": 4886,
      "Ð°Ð½": 4887,
      "ĉassert": 4888,
      "arsh": 4889,
      "-sm": 4890,
      "_I": 4891,
      "ÐµÑĢ": 4892,
      "Ġinvest": 4893,
      "ĠEd": 4894,
      "Ġ;Ċ": 4895,
      "ĠIO": 4896,
      "Ġknown": 4897,
      "rec": 4898,
      "Graph": 4899,
      "++)Ċ": 4900,
      "(N": 4901,
      "ĠConfig": 4902,
      "()).": 4903,
      "oly": 4904,
      "Ġneeds": 4905,
      "ĠURL": 4906,
      "aws": 4907,
      "Ġsample": 4908,
      "Enc": 4909,
      "Props": 4910,
      "400": 4911,
      "Ġnear": 4912,
      "une": 4913,
      ")).": 4914,
      "Ġequal": 4915,
      "]]": 4916,
      "(j": 4917,
      "Ġtw": 4918,
      "Ġlot": 4919,
      "obile": 4920,
      "Ġpair": 4921,
      "ensity": 4922,
      "region": 4923,
      "cr": 4924,
      "Active": 4925,
      "------------": 4926,
      "Ġflow": 4927,
      "65": 4928,
      ".New": 4929,
      "ecute": 4930,
      "icker": 4931,
      "Init": 4932,
      "ìĹ": 4933,
      "Ġcertain": 4934,
      "Ġlik": 4935,
      "DF": 4936,
      "Ġnecess": 4937,
      "Ġaccept": 4938,
      "æł": 4939,
      "legate": 4940,
      "Ġfeature": 4941,
      "address": 4942,
      "files": 4943,
      "Ġoperator": 4944,
      "Ġyet": 4945,
      "Ã£": 4946,
      "47": 4947,
      "Msg": 4948,
      "Build": 4949,
      ".open": 4950,
      "Ġlower": 4951,
      ".toString": 4952,
      ".prototype": 4953,
      "oriz": 4954,
      "Ġobjects": 4955,
      "ello": 4956,
      "Ġvariables": 4957,
      "cdot": 4958,
      "ike": 4959,
      "ĠState": 4960,
      "_LE": 4961,
      "tk": 4962,
      "Ġintegr": 4963,
      "Ġcache": 4964,
      "Ġwom": 4965,
      "encies": 4966,
      "{\"": 4967,
      "Ð¿": 4968,
      "ITY": 4969,
      "Head": 4970,
      "ANG": 4971,
      "outh": 4972,
      "Ġrelease": 4973,
      ".has": 4974,
      "Ġleg": 4975,
      "rist": 4976,
      "Me": 4977,
      "Ġexact": 4978,
      "SSERT": 4979,
      "Rule": 4980,
      "():": 4981,
      "Queue": 4982,
      "Job": 4983,
      "Ġok": 4984,
      "quad": 4985,
      "framework": 4986,
      "Ġmargin": 4987,
      "iant": 4988,
      "$-": 4989,
      "ĠDis": 4990,
      "*}Ċ": 4991,
      "_on": 4992,
      "Ã³n": 4993,
      "123": 4994,
      "ctor": 4995,
      "ĠTrans": 4996,
      "usic": 4997,
      "ims": 4998,
      "Route": 4999,
      "cret": 5000,
      "Ġmock": 5001,
      "ros": 5002,
      "ç½": 5003,
      "Ġdetails": 5004,
      "ixel": 5005,
      "MD": 5006,
      "Reference": 5007,
      "Ġface": 5008,
      "=None": 5009,
      ".un": 5010,
      "formed": 5011,
      "ilities": 5012,
      "ĠTra": 5013,
      "Ġ[]Ċ": 5014,
      "rupt": 5015,
      "scribe": 5016,
      "ba": 5017,
      "hs": 5018,
      ".Windows": 5019,
      "Argument": 5020,
      ".status": 5021,
      "Ġimpro": 5022,
      ".Data": 5023,
      "Definition": 5024,
      "remove": 5025,
      "Ġhealth": 5026,
      "---Ċ": 5027,
      ".client": 5028,
      "Ø§": 5029,
      "Ġdat": 5030,
      "Ġarguments": 5031,
      "yntax": 5032,
      ".comp": 5033,
      "(B": 5034,
      "Root": 5035,
      "_status": 5036,
      "lier": 5037,
      "mes": 5038,
      "Ġlooking": 5039,
      "depend": 5040,
      "Ġí": 5041,
      "')->": 5042,
      "å¯": 5043,
      "ĠReact": 5044,
      "ony": 5045,
      "room": 5046,
      "ĠÎ": 5047,
      "redential": 5048,
      "Ġreturned": 5049,
      "What": 5050,
      "uk": 5051,
      "ĠOR": 5052,
      "ĠInd": 5053,
      "urity": 5054,
      "Ġvia": 5055,
      "ĠâĢĶ": 5056,
      "Display": 5057,
      "_date": 5058,
      "Ġconstant": 5059,
      "Ã¨": 5060,
      "addr": 5061,
      "Ġlogger": 5062,
      "/t": 5063,
      "(path": 5064,
      "_fl": 5065,
      "Ġusers": 5066,
      "ycle": 5067,
      "core": 5068,
      "-st": 5069,
      "ĠGL": 5070,
      "require": 5071,
      "rawing": 5072,
      "Schema": 5073,
      "ĠĠĠĠĠĠĠĠĠĠĠĠĠĠĠĠĠĠĠĠĠĠ": 5074,
      "ĠCre": 5075,
      "Ġant": 5076,
      "ailed": 5077,
      "åĩ": 5078,
      "ones": 5079,
      "ĠFe": 5080,
      "_,": 5081,
      ".To": 5082,
      "Ġoffer": 5083,
      "impl": 5084,
      "-n": 5085,
      "Ġconnect": 5086,
      "_map": 5087,
      "inner": 5088,
      "Core": 5089,
      "tries": 5090,
      "SD": 5091,
      "Adapter": 5092,
      "42": 5093,
      "When": 5094,
      "Are": 5095,
      "Ġ).": 5096,
      "ada": 5097,
      "EST": 5098,
      "\"))Ċ": 5099,
      "ometry": 5100,
      "ĠInteger": 5101,
      "Ġedit": 5102,
      "Ġtrying": 5103,
      "Ġclean": 5104,
      "ÐµÑĤ": 5105,
      "Ġstrong": 5106,
      "application": 5107,
      ".current": 5108,
      "Ġactually": 5109,
      ".join": 5110,
      "There": 5111,
      "Ġ'@": 5112,
      "_sub": 5113,
      "ëĭ¤": 5114,
      "FIG": 5115,
      "QU": 5116,
      "Ġindiv": 5117,
      "_for": 5118,
      "ĠMay": 5119,
      "Ġsubject": 5120,
      "call": 5121,
      "Ġcoord": 5122,
      "']['": 5123,
      "Ġlanguage": 5124,
      "Ġnothing": 5125,
      "Ġmag": 5126,
      "Ġmen": 5127,
      "æľī": 5128,
      "Right": 5129,
      "EX": 5130,
      "Ġshown": 5131,
      "eting": 5132,
      ".update": 5133,
      "ĉw": 5134,
      "kg": 5135,
      "Ġzero": 5136,
      "chan": 5137,
      "'),": 5138,
      "_init": 5139,
      "Writer": 5140,
      "Ind": 5141,
      "Ġcompany": 5142,
      "ny": 5143,
      "oved": 5144,
      "Ġloop": 5145,
      "ĠĠĠĠĠĠĠĠĠĠĠĠĊ": 5146,
      "Ġmut": 5147,
      "ales": 5148,
      "det": 5149,
      "ipeline": 5150,
      "Ġpackage": 5151,
      "strap": 5152,
      "izes": 5153,
      "ĠThese": 5154,
      "Ġargument": 5155,
      "Ġissue": 5156,
      "Ab": 5157,
      "Variable": 5158,
      "Do": 5159,
      "Ġneg": 5160,
      "(\"/": 5161,
      "Password": 5162,
      "Ġmaterial": 5163,
      "Database": 5164,
      "Selected": 5165,
      "ãĥ³": 5166,
      "éĩ": 5167,
      "ategy": 5168,
      "95": 5169,
      "Ġcame": 5170,
      "HER": 5171,
      "CESS": 5172,
      ".Write": 5173,
      "Ġcomplet": 5174,
      "67": 5175,
      "total": 5176,
      "åį": 5177,
      "xml": 5178,
      "Ñħ": 5179,
      "_read": 5180,
      "LAG": 5181,
      "Timeout": 5182,
      "ĠInter": 5183,
      "ĠÐº": 5184,
      "ĠĊĊ": 5185,
      "atist": 5186,
      "CD": 5187,
      "åľ¨": 5188,
      "|Ċ": 5189,
      "Xml": 5190,
      "iversity": 5191,
      "\")ĊĊ": 5192,
      "OUT": 5193,
      "Ġjoin": 5194,
      "ĠÐ¾": 5195,
      "?.": 5196,
      "ula": 5197,
      "=\"#": 5198,
      "Mock": 5199,
      "por": 5200,
      "allow": 5201,
      "aff": 5202,
      "ncy": 5203,
      "Ã£o": 5204,
      "}(\\": 5205,
      "Ġtogether": 5206,
      "non": 5207,
      "ĠVal": 5208,
      "Ġtransform": 5209,
      "_model": 5210,
      "iles": 5211,
      "Ġattribute": 5212,
      ".string": 5213,
      "ĠEng": 5214,
      "loor": 5215,
      ".junit": 5216,
      "endar": 5217,
      "conf": 5218,
      "vision": 5219,
      "ĠWeb": 5220,
      "Ġservices": 5221,
      "SQL": 5222,
      "{}": 5223,
      "Ġinside": 5224,
      "Ġcollection": 5225,
      "Ġlove": 5226,
      "creen": 5227,
      "Ġexists": 5228,
      "_cast": 5229,
      "ĠLicense": 5230,
      "Ġsl": 5231,
      "Ġpract": 5232,
      ".âĢĿ": 5233,
      "Ġdoing": 5234,
      "Ġschool": 5235,
      "Ġpat": 5236,
      "Ġapi": 5237,
      "Ġhtml": 5238,
      "ä¿": 5239,
      "Fields": 5240,
      "Parameters": 5241,
      ")/": 5242,
      "å®ļ": 5243,
      "interface": 5244,
      "Ġscreen": 5245,
      "sqrt": 5246,
      "ĠGe": 5247,
      "tag": 5248,
      "criptor": 5249,
      "}.Ċ": 5250,
      "cap": 5251,
      "avior": 5252,
      ".info": 5253,
      "Ġentity": 5254,
      "Ġtalk": 5255,
      "çĽ": 5256,
      "æį": 5257,
      "ember": 5258,
      "gre": 5259,
      "Ġdig": 5260,
      "Ġ?>Ċ": 5261,
      "ayload": 5262,
      "$(": 5263,
      "ka": 5264,
      "incip": 5265,
      "=(": 5266,
      "Ident": 5267,
      "(F": 5268,
      "How": 5269,
      "Ġalign": 5270,
      "cing": 5271,
      "Metadata": 5272,
      "ookie": 5273,
      "128": 5274,
      "_num": 5275,
      "Ġstack": 5276,
      "_from": 5277,
      "aced": 5278,
      "Ġseveral": 5279,
      "served": 5280,
      "double": 5281,
      "Ġer": 5282,
      "infty": 5283,
      "Invalid": 5284,
      "icate": 5285,
      "']Ċ": 5286,
      "åĨ": 5287,
      "(G": 5288,
      "IGN": 5289,
      "while": 5290,
      "orem": 5291,
      "Ġexpression": 5292,
      "Ġutil": 5293,
      "Long": 5294,
      "Ġau": 5295,
      "annotation": 5296,
      "parse": 5297,
      "Ġautom": 5298,
      "Ġcontinu": 5299,
      "area": 5300,
      "Ġpast": 5301,
      "Bundle": 5302,
      "ocs": 5303,
      "xi": 5304,
      "Ġoften": 5305,
      "ALSE": 5306,
      "ĠSee": 5307,
      "Ġ''": 5308,
      "Ġnames": 5309,
      "PECT": 5310,
      "adow": 5311,
      "Ġpack": 5312,
      "_var": 5313,
      "Ġ\"Ċ": 5314,
      "Di": 5315,
      "Ġ\"<": 5316,
      "uro": 5317,
      "(context": 5318,
      "entication": 5319,
      "(@": 5320,
      "_comp": 5321,
      "can": 5322,
      "Ġlayer": 5323,
      "Ġ&&Ċ": 5324,
      "auto": 5325,
      "Ġunique": 5326,
      "Ġmaking": 5327,
      "ĠUI": 5328,
      "like": 5329,
      "ĠTask": 5330,
      "(void": 5331,
      "Ġcomplex": 5332,
      "ĠLoc": 5333,
      "make": 5334,
      "ortun": 5335,
      "Ġdefine": 5336,
      "illi": 5337,
      "ĠOut": 5338,
      ")))Ċ": 5339,
      "Ġseen": 5340,
      "_len": 5341,
      "ĠEnd": 5342,
      "Ġwords": 5343,
      "dest": 5344,
      "Ġhappen": 5345,
      "ised": 5346,
      "Te": 5347,
      "llum": 5348,
      "ables": 5349,
      "chedule": 5350,
      "ä¹": 5351,
      "ĠRead": 5352,
      "Ġblack": 5353,
      "%%%%": 5354,
      "OC": 5355,
      "_class": 5356,
      "->_": 5357,
      "avigation": 5358,
      "Ġdir": 5359,
      "ä»¶": 5360,
      "_length": 5361,
      ".V": 5362,
      "UC": 5363,
      "Ġfuture": 5364,
      ".čĊ": 5365,
      "ĠÃ©": 5366,
      "semb": 5367,
      "Ġles": 5368,
      "Ġcomment": 5369,
      "ĠRem": 5370,
      ".next": 5371,
      "Ġacross": 5372,
      "Ġlib": 5373,
      "Ġanalysis": 5374,
      "Ġnote": 5375,
      "rimary": 5376,
      ".load": 5377,
      "tmp": 5378,
      "Ġcomplete": 5379,
      "_end": 5380,
      "Ġarr": 5381,
      "conn": 5382,
      "dius": 5383,
      "Rel": 5384,
      "ä¸į": 5385,
      ")]": 5386,
      "Ġenter": 5387,
      "Ġdecl": 5388,
      "49": 5389,
      "fail": 5390,
      ".Forms": 5391,
      "chron": 5392,
      "\":Ċ": 5393,
      "ĠTODO": 5394,
      "category": 5395,
      "_CO": 5396,
      "idence": 5397,
      "Ġconditions": 5398,
      "split": 5399,
      "Ġinvoke": 5400,
      "-item": 5401,
      "EXT": 5402,
      "Ð°ÑĤ": 5403,
      "LS": 5404,
      "Ġrefer": 5405,
      "anced": 5406,
      "Ġfeatures": 5407,
      "scale": 5408,
      "Ġsignific": 5409,
      "è¦": 5410,
      "peed": 5411,
      "alance": 5412,
      "Ġmatter": 5413,
      "ĠCal": 5414,
      "Ð¾Ð»": 5415,
      "åı¯": 5416,
      "kens": 5417,
      "Ġdetermin": 5418,
      "_col": 5419,
      "/lang": 5420,
      "Selector": 5421,
      "Ġpur": 5422,
      "ĠassertEquals": 5423,
      "ĠNode": 5424,
      "Ġcmd": 5425,
      "(null": 5426,
      "_EN": 5427,
      "lluminate": 5428,
      "document": 5429,
      "Enum": 5430,
      "Ġlate": 5431,
      "Ġplugin": 5432,
      "Ġprop": 5433,
      "ĠModel": 5434,
      "quote": 5435,
      "Ġextra": 5436,
      "Parent": 5437,
      "mut": 5438,
      "ĠÃł": 5439,
      "});ĊĊ": 5440,
      "Ġassociated": 5441,
      "Ġelif": 5442,
      "_UN": 5443,
      "Ġserial": 5444,
      "Ġ\"%": 5445,
      "Ġparam": 5446,
      "MM": 5447,
      "77": 5448,
      "olute": 5449,
      "role": 5450,
      "ĠUs": 5451,
      "Ġconstructor": 5452,
      "Ġanything": 5453,
      "(\"%": 5454,
      "Ġresearch": 5455,
      "posed": 5456,
      "Files": 5457,
      "Ġdefinition": 5458,
      "Ġair": 5459,
      "yl": 5460,
      "ANT": 5461,
      "Ġactiv": 5462,
      ".en": 5463,
      "ĠDefault": 5464,
      "]:": 5465,
      "Ġbad": 5466,
      "![": 5467,
      "Ġshows": 5468,
      "Ġpub": 5469,
      "Ġmakes": 5470,
      "];ĊĊ": 5471,
      "oss": 5472,
      "EC": 5473,
      "_is": 5474,
      "`ĊĊ": 5475,
      "ategories": 5476,
      "quare": 5477,
      "exports": 5478,
      "ango": 5479,
      "anger": 5480,
      "GB": 5481,
      "Ġexit": 5482,
      "?\"Ċ": 5483,
      "Ġindividual": 5484,
      "wards": 5485,
      "pare": 5486,
      "ising": 5487,
      "Ġicon": 5488,
      "=\"<?": 5489,
      "ĠVector": 5490,
      "ĠĠĠĠĠĠĠĠĠĠĠĠĠĠĠĠĠĠĠĠĠĠĠĠĠĠĠĠĠ": 5491,
      "weight": 5492,
      "Ġinstanceof": 5493,
      "Ġche": 5494,
      "ohn": 5495,
      "draw": 5496,
      "ived": 5497,
      "ĠCar": 5498,
      "foot": 5499,
      "(()": 5500,
      "asing": 5501,
      "Ġfix": 5502,
      ".view": 5503,
      "Red": 5504,
      "rief": 5505,
      "Ġbuf": 5506,
      "Ġpotential": 5507,
      "styles": 5508,
      "oe": 5509,
      "ided": 5510,
      "(type": 5511,
      "****************************************************************": 5512,
      "acing": 5513,
      "MENT": 5514,
      "RUE": 5515,
      "ighb": 5516,
      "match": 5517,
      "Pool": 5518,
      "Ġ$_": 5519,
      "CR": 5520,
      "âĢ¦": 5521,
      "Policy": 5522,
      "ãģĹ": 5523,
      "#ifdef": 5524,
      ".cl": 5525,
      "_EX": 5526,
      "ĠUpdate": 5527,
      "STR": 5528,
      "erature": 5529,
      "Ass": 5530,
      "bsite": 5531,
      "izing": 5532,
      "column": 5533,
      "[j": 5534,
      "(str": 5535,
      "Ġdev": 5536,
      "ĠOne": 5537,
      "olver": 5538,
      "_result": 5539,
      "internal": 5540,
      "mi": 5541,
      "ĠBase": 5542,
      "Only": 5543,
      "uest": 5544,
      "Ġexperience": 5545,
      "des": 5546,
      "ĠÐ´": 5547,
      "CA": 5548,
      "eds": 5549,
      "DS": 5550,
      "ĠPre": 5551,
      "_reg": 5552,
      "Use": 5553,
      "Ġaff": 5554,
      "Ġgetting": 5555,
      "Ġrule": 5556,
      "aries": 5557,
      "Ġcontact": 5558,
      "lim": 5559,
      "ills": 5560,
      "Transaction": 5561,
      "aml": 5562,
      "Ġhy": 5563,
      ".J": 5564,
      "'];Ċ": 5565,
      "virtual": 5566,
      "example": 5567,
      "Ġinteger": 5568,
      "Ġassume": 5569,
      "LI": 5570,
      "{R": 5571,
      "psilon": 5572,
      "(std": 5573,
      "âĶĢ": 5574,
      "Ġ{\"": 5575,
      "Ä±": 5576,
      "case": 5577,
      ".run": 5578,
      "Can": 5579,
      "Ġimplements": 5580,
      "Ġcases": 5581,
      "ino": 5582,
      "Ġrelated": 5583,
      "Ġwhole": 5584,
      "è¡Į": 5585,
      "Ġdistribution": 5586,
      "avor": 5587,
      "II": 5588,
      "Ġ[[": 5589,
      ".close": 5590,
      "ourn": 5591,
      "}}\\": 5592,
      "Ġexport": 5593,
      "ĠAzure": 5594,
      "Ġweight": 5595,
      "assets": 5596,
      "åĮ": 5597,
      "words": 5598,
      "Mark": 5599,
      "Support": 5600,
      "Ġgenerate": 5601,
      "ìĿ´": 5602,
      ".css": 5603,
      "Non": 5604,
      "Ġvisit": 5605,
      "Ġfurther": 5606,
      "reshold": 5607,
      "itter": 5608,
      "andid": 5609,
      "ĠPer": 5610,
      "Ġcard": 5611,
      "Ġlock": 5612,
      "Meta": 5613,
      "bt": 5614,
      "nbsp": 5615,
      "/Ċ": 5616,
      "Ġseries": 5617,
      "gt": 5618,
      "ëĬ": 5619,
      "napshot": 5620,
      "Ġpaper": 5621,
      "urrency": 5622,
      "mbox": 5623,
      "Ġinsert": 5624,
      "Ġwatch": 5625,
      "Ġbas": 5626,
      "UD": 5627,
      "wide": 5628,
      "Ġdistance": 5629,
      "_lo": 5630,
      "Inst": 5631,
      "utf": 5632,
      "fn": 5633,
      "Ġlearn": 5634,
      "æŀ": 5635,
      "Ġpublish": 5636,
      "Ġrather": 5637,
      "aves": 5638,
      "ĠColor": 5639,
      "Profile": 5640,
      "yy": 5641,
      "Func": 5642,
      "Ġcluster": 5643,
      "Ġothers": 5644,
      "Ġtool": 5645,
      "ä»¥": 5646,
      ".trans": 5647,
      "Font": 5648,
      "Ġ(_": 5649,
      "Ġinv": 5650,
      "Game": 5651,
      "Layer": 5652,
      "ĠFunction": 5653,
      "join": 5654,
      "ä¸º": 5655,
      "SH": 5656,
      "_u": 5657,
      "aker": 5658,
      "Ġdirection": 5659,
      "Plugin": 5660,
      "Logger": 5661,
      "(response": 5662,
      "(res": 5663,
      "Card": 5664,
      "Ġpush": 5665,
      "ks": 5666,
      "(user": 5667,
      "chor": 5668,
      "\");čĊ": 5669,
      "<td": 5670,
      ":čĊ": 5671,
      "Category": 5672,
      "Ġnat": 5673,
      "ayment": 5674,
      "ĠDB": 5675,
      "=False": 5676,
      "_with": 5677,
      "\")]Ċ": 5678,
      "children": 5679,
      ".res": 5680,
      ".query": 5681,
      "Ġstorage": 5682,
      "ĠIS": 5683,
      "foreach": 5684,
      "ä¼": 5685,
      "Ġrot": 5686,
      ".sw": 5687,
      "wargs": 5688,
      "Show": 5689,
      "quires": 5690,
      "hip": 5691,
      "Initial": 5692,
      "ĠUse": 5693,
      "Ġplease": 5694,
      "unt": 5695,
      "}[": 5696,
      "Admin": 5697,
      "æİ": 5698,
      ".Log": 5699,
      "aging": 5700,
      "Ġ}ĊĊĊ": 5701,
      "Ġmind": 5702,
      "Ġetc": 5703,
      "eqref": 5704,
      "Ġstarted": 5705,
      "æĿ": 5706,
      "hr": 5707,
      "Matrix": 5708,
      "Ġfrequ": 5709,
      "Ġsetup": 5710,
      "Details": 5711,
      "Ġperformance": 5712,
      "validate": 5713,
      "```Ċ": 5714,
      "Ġfilename": 5715,
      "Ġir": 5716,
      ".txt": 5717,
      "Ġ{'": 5718,
      "70": 5719,
      "Ġ{}Ċ": 5720,
      "Lock": 5721,
      "Descriptor": 5722,
      "vg": 5723,
      "Ġgrid": 5724,
      "ĠNe": 5725,
      "_CH": 5726,
      "Ġvideo": 5727,
      "Ġreadonly": 5728,
      ")=": 5729,
      ".time": 5730,
      "RITE": 5731,
      "Assert": 5732,
      "ĠĠĊĠĠĊ": 5733,
      "Ġhandler": 5734,
      "Ġdomain": 5735,
      "85": 5736,
      "Ġmenu": 5737,
      "Let": 5738,
      ".spring": 5739,
      "Ġmember": 5740,
      "kt": 5741,
      "Ġ'\\": 5742,
      "gener": 5743,
      ".from": 5744,
      "ĠIP": 5745,
      "PUT": 5746,
      "ledge": 5747,
      ".col": 5748,
      "ria": 5749,
      "gu": 5750,
      "(__": 5751,
      "ients": 5752,
      "logical": 5753,
      "Ġimages": 5754,
      "ĠâĢĺ": 5755,
      "iding": 5756,
      "settings": 5757,
      "pth": 5758,
      "46": 5759,
      "ĠBl": 5760,
      "mount": 5761,
      "ĠResult": 5762,
      "Directory": 5763,
      "Ġidea": 5764,
      "amil": 5765,
      "Ġsyn": 5766,
      "{eqn": 5767,
      "NotNull": 5768,
      "Tab": 5769,
      "MB": 5770,
      "/f": 5771,
      "Ġnumbers": 5772,
      "Ġhigher": 5773,
      ".send": 5774,
      "(request": 5775,
      "Ġadmin": 5776,
      "$.Ċ": 5777,
      ".assertEqual": 5778,
      ".pre": 5779,
      "ĠOpen": 5780,
      ")));Ċ": 5781,
      "Ġsetting": 5782,
      "{item": 5783,
      "Ġhouse": 5784,
      "_out": 5785,
      "Ġwrong": 5786,
      "Ġevalu": 5787,
      "PL": 5788,
      "Ġcore": 5789,
      "Ġlos": 5790,
      "arp": 5791,
      "Ġsequence": 5792,
      "icture": 5793,
      "Ġwent": 5794,
      "Ð¾ÑĢ": 5795,
      "ury": 5796,
      "sim": 5797,
      "After": 5798,
      "ĠInput": 5799,
      "rack": 5800,
      "iform": 5801,
      "component": 5802,
      "Ġtook": 5803,
      "Ġalt": 5804,
      "å½": 5805,
      "Ġflag": 5806,
      "\\t": 5807,
      "NT": 5808,
      "_AR": 5809,
      "-e": 5810,
      "_arg": 5811,
      "ua": 5812,
      "Ġeasy": 5813,
      "Ġemploy": 5814,
      "ĠSQL": 5815,
      "102": 5816,
      "ulate": 5817,
      "Ġstre": 5818,
      "Ġadditional": 5819,
      "Ġscope": 5820,
      "\\,": 5821,
      "Ġhold": 5822,
      "-object": 5823,
      "ajor": 5824,
      "reat": 5825,
      "Ġpassed": 5826,
      "Ġcountry": 5827,
      "ama": 5828,
      "ãģ«": 5829,
      "ĠPart": 5830,
      "acters": 5831,
      "ĠTable": 5832,
      "Editor": 5833,
      "lab": 5834,
      "WS": 5835,
      "Ġfront": 5836,
      "ä½¿": 5837,
      "éĹ": 5838,
      "Ġdu": 5839,
      "ãĤĭ": 5840,
      "Ġtab": 5841,
      "ley": 5842,
      "lug": 5843,
      "ĠImp": 5844,
      "_KEY": 5845,
      "igned": 5846,
      "æ³": 5847,
      "Ġce": 5848,
      "ERSION": 5849,
      "Ġarch": 5850,
      "cheme": 5851,
      "iqu": 5852,
      "Ġwalk": 5853,
      "Ġspect": 5854,
      "But": 5855,
      "Email": 5856,
      "ĠDep": 5857,
      "Ð·": 5858,
      "{itemize": 5859,
      "');": 5860,
      "orph": 5861,
      "Ġhalf": 5862,
      "close": 5863,
      "Ġgovern": 5864,
      "ĠImage": 5865,
      "Ġbuilder": 5866,
      "connect": 5867,
      "Ġmed": 5868,
      "operator": 5869,
      "igr": 5870,
      "_event": 5871,
      "_me": 5872,
      "Ġnodes": 5873,
      "iven": 5874,
      "Ġlaw": 5875,
      "ien": 5876,
      "Ġ<-": 5877,
      "HTML": 5878,
      "ha": 5879,
      "tty": 5880,
      "æĸĩ": 5881,
      "iving": 5882,
      "alert": 5883,
      "Ġobserv": 5884,
      "ĠRequest": 5885,
      "Kind": 5886,
      ".List": 5887,
      "required": 5888,
      "orch": 5889,
      "ãģ¾": 5890,
      "Ġexisting": 5891,
      "mega": 5892,
      "astic": 5893,
      "<string": 5894,
      "ĠHttp": 5895,
      ".Drawing": 5896,
      "_item": 5897,
      "ĠAND": 5898,
      "icult": 5899,
      "_per": 5900,
      "acc": 5901,
      "_mode": 5902,
      "ĠArrayList": 5903,
      "(node": 5904,
      "elt": 5905,
      "Ġdebug": 5906,
      "ields": 5907,
      "Ġprec": 5908,
      "_z": 5909,
      "Track": 5910,
      "Ġinvol": 5911,
      "Ġmembers": 5912,
      "Ne": 5913,
      "Ġpara": 5914,
      ");čĊčĊ": 5915,
      "_image": 5916,
      "Ġsymbol": 5917,
      ".content": 5918,
      "Ġparser": 5919,
      "avascript": 5920,
      "(`": 5921,
      "Ġforce": 5922,
      "alls": 5923,
      "Ġchanged": 5924,
      "Ġhuman": 5925,
      "ooth": 5926,
      "89": 5927,
      "modal": 5928,
      "ymme": 5929,
      "Engine": 5930,
      "itions": 5931,
      "){": 5932,
      "æĢ": 5933,
      "Ġflu": 5934,
      "ĉself": 5935,
      "Ġfit": 5936,
      ",âĢĿ": 5937,
      "*Ċ": 5938,
      "ĉr": 5939,
      "lications": 5940,
      "198": 5941,
      "ides": 5942,
      "ĠMicrosoft": 5943,
      "}$,": 5944,
      "ĉĉĉĉĉĉĉĉĉ": 5945,
      "Ġ},ĊĊ": 5946,
      "rangle": 5947,
      "RI": 5948,
      "iet": 5949,
      "ĉpro": 5950,
      "though": 5951,
      "è§": 5952,
      "AY": 5953,
      ".equals": 5954,
      "æĹ¶": 5955,
      "ĠReg": 5956,
      "Ġpointer": 5957,
      "Ġpress": 5958,
      "HP": 5959,
      "custom": 5960,
      "metadata": 5961,
      "Step": 5962,
      "Ġprice": 5963,
      "Ġitself": 5964,
      "Ġscal": 5965,
      "maz": 5966,
      "_new": 5967,
      "ĠFl": 5968,
      "Perm": 5969,
      ".common": 5970,
      "Ġenv": 5971,
      "rot": 5972,
      "_group": 5973,
      "dt": 5974,
      "(input": 5975,
      "Ġcontain": 5976,
      "tip": 5977,
      ".Assert": 5978,
      "sumer": 5979,
      "ropdown": 5980,
      "ried": 5981,
      "pher": 5982,
      "ĉĉĉĊ": 5983,
      "xs": 5984,
      "Ġtests": 5985,
      ".max": 5986,
      "Ġfill": 5987,
      "Ġsets": 5988,
      "ounded": 5989,
      "ĠMessage": 5990,
      "Ġ\\\\": 5991,
      "ĠNote": 5992,
      "ĠHash": 5993,
      "Ġdescribe": 5994,
      "Ġfixed": 5995,
      "Ġattr": 5996,
      "ana": 5997,
      "Ġ->Ċ": 5998,
      "ëĬĶ": 5999,
      "Ġ)ĊĊ": 6000,
      "åĢ": 6001,
      "Ġuses": 6002,
      "Ġgroups": 6003,
      "vc": 6004,
      "Ġotherwise": 6005,
      "_message": 6006,
      "upload": 6007,
      "orizont": 6008,
      "stit": 6009,
      "NG": 6010,
      "Network": 6011,
      "ĠId": 6012,
      "Ġsignificant": 6013,
      "Ġcomponents": 6014,
      "illion": 6015,
      "Ġroute": 6016,
      "ATUS": 6017,
      "ĠĠĠĠĠĠĠĠĠĠĠĠĠĠĠĠĠĠĠĠĠĠĠĠĠĠ": 6018,
      "Ġanaly": 6019,
      "æĶ": 6020,
      "Ġsignal": 6021,
      "'));Ċ": 6022,
      "psi": 6023,
      "menu": 6024,
      "ante": 6025,
      "Role": 6026,
      "\"`Ċ": 6027,
      "Flags": 6028,
      "coded": 6029,
      "Keys": 6030,
      "Ġkeys": 6031,
      "mpt": 6032,
      "ĠService": 6033,
      "ĠÑ": 6034,
      "fect": 6035,
      "Ġignore": 6036,
      "ĠSte": 6037,
      "Ġsystems": 6038,
      "Ġann": 6039,
      "Ġhistory": 6040,
      "Ġsupported": 6041,
      "(item": 6042,
      "IGHT": 6043,
      ".getElement": 6044,
      "year": 6045,
      "Ġ$('#": 6046,
      "iny": 6047,
      "Ġsql": 6048,
      "Ġhowever": 6049,
      "Success": 6050,
      "Ġseems": 6051,
      "Ġallowed": 6052,
      "Ġsays": 6053,
      "Cal": 6054,
      "Main": 6055,
      "egr": 6056,
      "_dict": 6057,
      "wd": 6058,
      "41": 6059,
      "é¡": 6060,
      "Ġ:Ċ": 6061,
      "Ġshape": 6062,
      "Ġgenerated": 6063,
      "Ġtraining": 6064,
      "@Override": 6065,
      "IND": 6066,
      "ĠMar": 6067,
      "Ġtaken": 6068,
      "ificate": 6069,
      "ìĦ": 6070,
      ",$": 6071,
      "otes": 6072,
      "ALUE": 6073,
      ".springframework": 6074,
      "_sp": 6075,
      "(object": 6076,
      "Ġupon": 6077,
      "anaged": 6078,
      "Ġnight": 6079,
      "fd": 6080,
      "ãĢĤĊĊ": 6081,
      "Second": 6082,
      "legal": 6083,
      "Ġinline": 6084,
      "ĠAss": 6085,
      "Ġentire": 6086,
      "oth": 6087,
      "REF": 6088,
      "OF": 6089,
      "jango": 6090,
      "Ġedge": 6091,
      "è¦ģ": 6092,
      "QUE": 6093,
      "_params": 6094,
      "/re": 6095,
      "hash": 6096,
      "Ġpadding": 6097,
      "ĠFROM": 6098,
      "Ġquestions": 6099,
      "iteral": 6100,
      "ĠStr": 6101,
      "rad": 6102,
      "Ag": 6103,
      "cover": 6104,
      "(event": 6105,
      "ommun": 6106,
      "Ġmaximum": 6107,
      "SL": 6108,
      "Struct": 6109,
      "...Ċ": 6110,
      "raints": 6111,
      "\\Http": 6112,
      "Loader": 6113,
      "notation": 6114,
      "Bit": 6115,
      "Ġmath": 6116,
      "Ġindu": 6117,
      "Ġresources": 6118,
      "Ġdirectly": 6119,
      "Ġasked": 6120,
      "Events": 6121,
      "Ġupdated": 6122,
      "Ġsurface": 6123,
      "Ġstudents": 6124,
      "Ġeverything": 6125,
      "Ġshare": 6126,
      "[\\": 6127,
      "_input": 6128,
      "Net": 6129,
      "Ġcross": 6130,
      "ĠNOT": 6131,
      "ÐµÐ½Ð¸": 6132,
      "throws": 6133,
      "jection": 6134,
      ".App": 6135,
      "Ġquick": 6136,
      "Ġstates": 6137,
      "»¿": 6138,
      "Ġwritten": 6139,
      "Ġ=>Ċ": 6140,
      "Ġfmt": 6141,
      "Ġaccording": 6142,
      "tection": 6143,
      "Ġ\\(": 6144,
      "ï»¿": 6145,
      "icles": 6146,
      "CI": 6147,
      "Extension": 6148,
      "device": 6149,
      "Ġfire": 6150,
      "æį®": 6151,
      ".event": 6152,
      "Ġsimply": 6153,
      "Ġshift": 6154,
      "ĉĉĠĠĠ": 6155,
      "services": 6156,
      "allel": 6157,
      ".show": 6158,
      "Rad": 6159,
      "Draw": 6160,
      "iki": 6161,
      "Ġalloc": 6162,
      "Ġreceived": 6163,
      "_token": 6164,
      "private": 6165,
      "inder": 6166,
      "æĪĲ": 6167,
      "ARE": 6168,
      "Ġ),": 6169,
      "prop": 6170,
      "ridge": 6171,
      "Ġdevelopment": 6172,
      "volution": 6173,
      "ĠUniversity": 6174,
      "Constants": 6175,
      "USE": 6176,
      "ĠâĪ": 6177,
      "css": 6178,
      "Failed": 6179,
      "Ġnecessary": 6180,
      "builder": 6181,
      "iÃ³n": 6182,
      "Ġps": 6183,
      "Ġxml": 6184,
      "Ġcorresponding": 6185,
      ".split": 6186,
      ":'": 6187,
      "ĉlog": 6188,
      "ä½¿çĶ¨": 6189,
      "\\left": 6190,
      "mon": 6191,
      "Ġtechn": 6192,
      "ĠMin": 6193,
      "(['": 6194,
      "Ġprobably": 6195,
      "ustr": 6196,
      "EM": 6197,
      "fit": 6198,
      "Ġmoney": 6199,
      ".jpg": 6200,
      "Ġtried": 6201,
      "åıĸ": 6202,
      "Ġvolume": 6203,
      "íķĺ": 6204,
      "59": 6205,
      "ä¾": 6206,
      "Ġ${\\": 6207,
      "Ġtakes": 6208,
      "SELECT": 6209,
      "epsilon": 6210,
      "Ids": 6211,
      "è¡¨": 6212,
      "<!--": 6213,
      "edge": 6214,
      "Conf": 6215,
      "aven": 6216,
      "Ġsoftware": 6217,
      "faces": 6218,
      "Ġmat": 6219,
      "bb": 6220,
      "EW": 6221,
      "Ġpick": 6222,
      "`.": 6223,
      "Ġalmost": 6224,
      "ç½®": 6225,
      "Ġclasses": 6226,
      "ius": 6227,
      "Ġreplace": 6228,
      "PRO": 6229,
      "_REG": 6230,
      "ĥ½": 6231,
      "Ġ_,": 6232,
      "ĠÐ¿ÑĢ": 6233,
      "fin": 6234,
      "SA": 6235,
      "_buffer": 6236,
      "ĠEXPECT": 6237,
      "Member": 6238,
      "Ġsys": 6239,
      "ench": 6240,
      "bin": 6241,
      "background": 6242,
      "<int": 6243,
      "views": 6244,
      "Ver": 6245,
      "Ġengine": 6246,
      "TA": 6247,
      "Ge": 6248,
      "ãĤ¹": 6249,
      "Ġ\".": 6250,
      "Ġ*/čĊ": 6251,
      "ĠĠĠĠĠĠĠĠĠĠĠĠĠĠĠĠĠĠĠĠĠĠĠĠĠĠĠĠĠĠĠĠĠĠĠĠĠĠĠĠĠĠĠĠĠĠĠĠĠĠĠĠĠĠĠĠĠĠĠĠĠĠĠĠ": 6252,
      ".format": 6253,
      "57": 6254,
      "eter": 6255,
      "vare": 6256,
      "den": 6257,
      "allet": 6258,
      "Ġappend": 6259,
      "Ġphot": 6260,
      "Ð¸ÑĤ": 6261,
      "Transform": 6262,
      "ality": 6263,
      "inline": 6264,
      "Ġach": 6265,
      ".for": 6266,
      "Note": 6267,
      ":\\": 6268,
      "Ġmedia": 6269,
      "istrib": 6270,
      "Ġpositive": 6271,
      ".Gener": 6272,
      "rf": 6273,
      "Package": 6274,
      "Ġisn": 6275,
      "ĠNumber": 6276,
      "\"]Ċ": 6277,
      "save": 6278,
      "Ġintrodu": 6279,
      "Ġsupp": 6280,
      "[Ċ": 6281,
      "Ġforward": 6282,
      "Copy": 6283,
      "ĠAny": 6284,
      "success": 6285,
      "æĮ": 6286,
      "Ġcategory": 6287,
      "ĠGod": 6288,
      "atalog": 6289,
      "Ġbene": 6290,
      "orizontal": 6291,
      "ĠExp": 6292,
      "Report": 6293,
      "idx": 6294,
      "isset": 6295,
      "_number": 6296,
      "_device": 6297,
      ".int": 6298,
      "=\\\"": 6299,
      "Ġnullptr": 6300,
      "va": 6301,
      "ĠLet": 6302,
      "Ġspeed": 6303,
      "Ġdim": 6304,
      "56": 6305,
      "ĠDec": 6306,
      "PR": 6307,
      "001": 6308,
      "&&": 6309,
      "gy": 6310,
      "å¾": 6311,
      "Ġwin": 6312,
      "urb": 6313,
      "_request": 6314,
      "sess": 6315,
      "Sk": 6316,
      "locity": 6317,
      "channel": 6318,
      "ĠCode": 6319,
      "Close": 6320,
      "{eqnarray": 6321,
      "ica": 6322,
      "_X": 6323,
      "Ġlinear": 6324,
      "_block": 6325,
      "Ð¾Ð´": 6326,
      "ASK": 6327,
      "ĠOF": 6328,
      "Ġwhite": 6329,
      "ĠStart": 6330,
      "Ġprintf": 6331,
      ".debug": 6332,
      "Ġflags": 6333,
      "Att": 6334,
      "Sync": 6335,
      "Import": 6336,
      "Ġ//Ċ": 6337,
      "ãĥĪ": 6338,
      "very": 6339,
      "Ġsn": 6340,
      "Ġfac": 6341,
      "ĠServer": 6342,
      "Screen": 6343,
      "Ġpercent": 6344,
      "Mapping": 6345,
      "docs": 6346,
      "Ġextension": 6347,
      "dat": 6348,
      "à¦": 6349,
      "43": 6350,
      "Ñİ": 6351,
      "PORT": 6352,
      "OUR": 6353,
      "Ġland": 6354,
      "(final": 6355,
      "mode": 6356,
      "{figure": 6357,
      "\";": 6358,
      "'])": 6359,
      "IVE": 6360,
      "ming": 6361,
      "ĠChar": 6362,
      "PU": 6363,
      "Author": 6364,
      "}`": 6365,
      "Ġrows": 6366,
      "150": 6367,
      "lines": 6368,
      "Ġamong": 6369,
      "Ġcounter": 6370,
      ".props": 6371,
      "ĠTH": 6372,
      "ocker": 6373,
      "_err": 6374,
      "El": 6375,
      "Ġvarious": 6376,
      "Ġarticle": 6377,
      "Ġcut": 6378,
      "Ġlibrary": 6379,
      "Ġpolicy": 6380,
      "Selection": 6381,
      "ìĹĲ": 6382,
      "æŃ": 6383,
      "Ġ[];Ċ": 6384,
      "Omega": 6385,
      "Attributes": 6386,
      "ĠBoolean": 6387,
      "éĻ": 6388,
      "ploy": 6389,
      "Ġdiscuss": 6390,
      "debug": 6391,
      "username": 6392,
      "Sum": 6393,
      "Ġ>Ċ": 6394,
      "Ġmarket": 6395,
      "ifest": 6396,
      "Ġfollows": 6397,
      "ĠNO": 6398,
      "EE": 6399,
      "_LO": 6400,
      "imated": 6401,
      "_version": 6402,
      "Ġum": 6403,
      "Ġcity": 6404,
      "bm": 6405,
      ")),Ċ": 6406,
      "varepsilon": 6407,
      "Ġtoday": 6408,
      "Ġcollect": 6409,
      "];": 6410,
      "Ac": 6411,
      "HERE": 6412,
      "Ġdifference": 6413,
      "Ġalgorithm": 6414,
      "Results": 6415,
      "handle": 6416,
      "(u": 6417,
      "Ġcommunity": 6418,
      "Double": 6419,
      "_client": 6420,
      ".equal": 6421,
      "Ġplatform": 6422,
      "isf": 6423,
      "Ġrelative": 6424,
      "UNT": 6425,
      "outes": 6426,
      "Fail": 6427,
      "Ġsense": 6428,
      "()));Ċ": 6429,
      "comment": 6430,
      "Ġraw": 6431,
      "(\"\\": 6432,
      "\">čĊ": 6433,
      "command": 6434,
      "Ġjs": 6435,
      "olume": 6436,
      "uit": 6437,
      "Ġstory": 6438,
      "_MAX": 6439,
      "Ġbottom": 6440,
      "Ġfactor": 6441,
      "Ġwor": 6442,
      "Ġprovides": 6443,
      "ĠWindows": 6444,
      "Trace": 6445,
      "ĠCor": 6446,
      "Ġimplementation": 6447,
      "Ġ^": 6448,
      "Total": 6449,
      "Ġ\\\"": 6450,
      "Ġheaders": 6451,
      "Ġproblems": 6452,
      "Section": 6453,
      "attribute": 6454,
      ".Create": 6455,
      "Ġcla": 6456,
      "\":\"": 6457,
      ".annotation": 6458,
      "87": 6459,
      ".java": 6460,
      ".width": 6461,
      "rest": 6462,
      "Ġplot": 6463,
      "Ġste": 6464,
      "NAME": 6465,
      "bot": 6466,
      ">'": 6467,
      "register": 6468,
      "Space": 6469,
      "ĠĠĠĠĠĠĠĠĠĠĠĠĠĠĠĠĠĠĠĠĠĠĠĠĠĠĠĠ": 6470,
      ".Size": 6471,
      "Ġsplit": 6472,
      ".body": 6473,
      "Ġdeal": 6474,
      "-pro": 6475,
      "gree": 6476,
      "Ret": 6477,
      "-r": 6478,
      "USER": 6479,
      "FILE": 6480,
      "Ġdesc": 6481,
      "ians": 6482,
      "Ġimg": 6483,
      "_addr": 6484,
      ".list": 6485,
      "Visible": 6486,
      "ĠAS": 6487,
      ">&": 6488,
      "Ġcamp": 6489,
      "Ġfood": 6490,
      "Ġqueue": 6491,
      "uler": 6492,
      "nology": 6493,
      "Ġlive": 6494,
      "}_{\\": 6495,
      "Ġtheory": 6496,
      "WORD": 6497,
      "Ġproper": 6498,
      ".py": 6499,
      "dates": 6500,
      "_max": 6501,
      "iterator": 6502,
      "ura": 6503,
      "ĠOb": 6504,
      "phone": 6505,
      "Ġdoc": 6506,
      "ĠRed": 6507,
      "rim": 6508,
      "Ġ``": 6509,
      "ixt": 6510,
      "which": 6511,
      "_page": 6512,
      "()čĊ": 6513,
      "Ġtreat": 6514,
      "Ġvers": 6515,
      "Ġquite": 6516,
      "Now": 6517,
      "anging": 6518,
      ".github": 6519,
      "ĠPromise": 6520,
      "np": 6521,
      "lower": 6522,
      "Ġquality": 6523,
      "dient": 6524,
      "Ġprom": 6525,
      "ĠÑĤ": 6526,
      "Ġprefix": 6527,
      ")*": 6528,
      "Ġfriend": 6529,
      "ĠĠĠĠĠĠĠĠĠĠĠĠĠĠĠĠĠĠĠĠĠĠĠĠĠĠĠĠĠĠĠĠĠĠĠĠĠĠĠĠĠĠĠĠĠĠĠ": 6530,
      "vention": 6531,
      "Ġaverage": 6532,
      "ker": 6533,
      "HECK": 6534,
      "lat": 6535,
      "Ġequation": 6536,
      "_SH": 6537,
      "activ": 6538,
      "?\"": 6539,
      "lates": 6540,
      "ĠLOG": 6541,
      ".be": 6542,
      "ws": 6543,
      "axis": 6544,
      "cha": 6545,
      "_check": 6546,
      "_res": 6547,
      "âĢī": 6548,
      "Ġcurrently": 6549,
      "Ġfund": 6550,
      "Big": 6551,
      "Wrapper": 6552,
      "ĉC": 6553,
      "ĠPath": 6554,
      "ĠGoogle": 6555,
      "_line": 6556,
      "dc": 6557,
      "Ġvi": 6558,
      "lying": 6559,
      ">,": 6560,
      "Ġintern": 6561,
      "Ġ'.": 6562,
      "ney": 6563,
      ")[": 6564,
      "Ġda": 6565,
      "Ġprops": 6566,
      "Ġplaceholder": 6567,
      "Ġtold": 6568,
      "headers": 6569,
      "_val": 6570,
      "atory": 6571,
      "Ġ(:": 6572,
      "throw": 6573,
      "pol": 6574,
      "âĢĻre": 6575,
      "FS": 6576,
      "Ġalert": 6577,
      "ĠChrist": 6578,
      "$$": 6579,
      "Ġcontroller": 6580,
      "Ġissues": 6581,
      "Ġattemp": 6582,
      "Ġfinally": 6583,
      "when": 6584,
      "Area": 6585,
      "dp": 6586,
      "Ġil": 6587,
      "oring": 6588,
      "fx": 6589,
      "_ref": 6590,
      "ë¥": 6591,
      ".I": 6592,
      "Ġprofile": 6593,
      "Ġattributes": 6594,
      "ĠAR": 6595,
      "ested": 6596,
      "Ġavoid": 6597,
      "!(": 6598,
      "(X": 6599,
      "Ġenum": 6600,
      ">\\": 6601,
      "VICE": 6602,
      "}=": 6603,
      "ç§": 6604,
      "ĠMethod": 6605,
      "aid": 6606,
      "BJ": 6607,
      "Ġcontrib": 6608,
      "riteria": 6609,
      "Ġonline": 6610,
      "errors": 6611,
      "enn": 6612,
      "iece": 6613,
      "Ġ|=": 6614,
      "Ġconsist": 6615,
      "RES": 6616,
      "Ġ'#": 6617,
      "(I": 6618,
      "icode": 6619,
      "Ġlearning": 6620,
      "ashboard": 6621,
      "points": 6622,
      "fill": 6623,
      "Prefix": 6624,
      "Statement": 6625,
      "redentials": 6626,
      "cade": 6627,
      "--Ċ": 6628,
      "rand": 6629,
      "ĠNow": 6630,
      "uary": 6631,
      "Gamma": 6632,
      "Ġallows": 6633,
      "Ġmessages": 6634,
      "Boolean": 6635,
      "Ġvec": 6636,
      "_or": 6637,
      "verter": 6638,
      ".Collections": 6639,
      "ste": 6640,
      "Conn": 6641,
      "\\sub": 6642,
      "console": 6643,
      "Dest": 6644,
      "atically": 6645,
      "MT": 6646,
      "Ġearly": 6647,
      "-form": 6648,
      "Ġoptim": 6649,
      "ä¸ĭ": 6650,
      "ceiver": 6651,
      "_all": 6652,
      "Ġloss": 6653,
      "(Q": 6654,
      "fi": 6655,
      "submit": 6656,
      "libr": 6657,
      "inates": 6658,
      "Login": 6659,
      "ÑĨ": 6660,
      "Ġsocial": 6661,
      "(ex": 6662,
      "Ġphase": 6663,
      ")),": 6664,
      "Ġnumer": 6665,
      "MO": 6666,
      "Effect": 6667,
      ".object": 6668,
      "testing": 6669,
      "igen": 6670,
      "Identifier": 6671,
      "ĠWork": 6672,
      "Required": 6673,
      "Ġnone": 6674,
      "ĉerr": 6675,
      "_par": 6676,
      "Ġcolumns": 6677,
      "Ġflex": 6678,
      "rome": 6679,
      "Ġdict": 6680,
      "Ġactivity": 6681,
      "_point": 6682,
      "Ð±": 6683,
      "ĠĠĠĊ": 6684,
      "theme": 6685,
      "ĠJava": 6686,
      "asks": 6687,
      "Ġensure": 6688,
      "Ġaxis": 6689,
      "ico": 6690,
      "ĠPost": 6691,
      "ĠAfter": 6692,
      "_cont": 6693,
      "TEST": 6694,
      "']);Ċ": 6695,
      "Ġpanel": 6696,
      "ering": 6697,
      ".Test": 6698,
      "Ġproducts": 6699,
      "ĠDi": 6700,
      "sf": 6701,
      "ĠResponse": 6702,
      "bold": 6703,
      "Err": 6704,
      "Ġ'../": 6705,
      "Ġenable": 6706,
      "Before": 6707,
      "Ġexc": 6708,
      "Ġinvalid": 6709,
      "Ġlayout": 6710,
      "Ġproces": 6711,
      "Ġreset": 6712,
      "Ġmar": 6713,
      "Has": 6714,
      "lan": 6715,
      "¦Ĥ": 6716,
      "_label": 6717,
      "________": 6718,
      "Ġincluded": 6719,
      "Doc": 6720,
      "_obj": 6721,
      "sort": 6722,
      "ĠPublic": 6723,
      "Ġage": 6724,
      "ĠSec": 6725,
      "ä½ľ": 6726,
      ".check": 6727,
      "Ġreceive": 6728,
      "Ġoffic": 6729,
      "ued": 6730,
      "amount": 6731,
      "Register": 6732,
      "-label": 6733,
      "Ġhours": 6734,
      "_SE": 6735,
      "ocation": 6736,
      "car": 6737,
      "Ġca": 6738,
      "Ġregular": 6739,
      "under": 6740,
      "Ġcapt": 6741,
      "kit": 6742,
      "_q": 6743,
      "udent": 6744,
      ".tr": 6745,
      "Ġcommit": 6746,
      ".ext": 6747,
      "Ġ```": 6748,
      "Ġbatch": 6749,
      "Ġsitu": 6750,
      "-Ċ": 6751,
      "Ġwriting": 6752,
      "copy": 6753,
      "pub": 6754,
      ".label": 6755,
      "Ġdom": 6756,
      "################################": 6757,
      "ĠTHE": 6758,
      "git": 6759,
      "Ġsomeone": 6760,
      "Proxy": 6761,
      "alysis": 6762,
      "Ġè": 6763,
      "coming": 6764,
      "Ġmis": 6765,
      "ifications": 6766,
      "Ġ\"#": 6767,
      "Ġfolder": 6768,
      "(obj": 6769,
      "\",čĊ": 6770,
      "Pointer": 6771,
      "Ġprogress": 6772,
      "_;Ċ": 6773,
      "selves": 6774,
      "ĉS": 6775,
      "Ġrules": 6776,
      "(test": 6777,
      "ito": 6778,
      ")+": 6779,
      "97": 6780,
      "Ġang": 6781,
      "Ġeyes": 6782,
      "spec": 6783,
      "_context": 6784,
      "_not": 6785,
      "Ġparts": 6786,
      "Condition": 6787,
      "Ð½Ñĭ": 6788,
      "Ġfetch": 6789,
      "ih": 6790,
      "Ġcomes": 6791,
      "Ġwanted": 6792,
      "Ġscore": 6793,
      "Ġwar": 6794,
      "_view": 6795,
      "Ð¾Ð¼": 6796,
      "ĠIOException": 6797,
      "illed": 6798,
      "ìł": 6799,
      "utex": 6800,
      "iling": 6801,
      "_lock": 6802,
      "Flag": 6803,
      "Iterator": 6804,
      "ÑĢÐ°Ð": 6805,
      "Ġlang": 6806,
      "Db": 6807,
      "agent": 6808,
      "]['": 6809,
      "Play": 6810,
      "NO": 6811,
      "engine": 6812,
      "_STR": 6813,
      "gb": 6814,
      "ircle": 6815,
      "lar": 6816,
      "ilit": 6817,
      "(y": 6818,
      "Ġlonger": 6819,
      "Ġsens": 6820,
      "\");": 6821,
      "DC": 6822,
      ".me": 6823,
      "(arg": 6824,
      "atistics": 6825,
      "ablish": 6826,
      "Interval": 6827,
      "Ġcharacters": 6828,
      "ç¤": 6829,
      "ìļ": 6830,
      "Av": 6831,
      "ĠItem": 6832,
      "screen": 6833,
      "arks": 6834,
      "{C": 6835,
      "home": 6836,
      "ĠFig": 6837,
      "_DIR": 6838,
      "Scale": 6839,
      "aled": 6840,
      "Ġ\"-": 6841,
      "wrap": 6842,
      "RC": 6843,
      "âĶĢâĶĢ": 6844,
      ".height": 6845,
      "raction": 6846,
      "=\"/": 6847,
      "Ġheart": 6848,
      "Ġmot": 6849,
      "Progress": 6850,
      "ãĢĤĊ": 6851,
      "ĉString": 6852,
      "-size": 6853,
      "Ġsil": 6854,
      "async": 6855,
      "Rest": 6856,
      "Art": 6857,
      "Ġfast": 6858,
      "ë¡": 6859,
      "Ġconsidered": 6860,
      "Memory": 6861,
      "Desc": 6862,
      "ology": 6863,
      "Ġmachine": 6864,
      "Price": 6865,
      "AIL": 6866,
      "Ġredirect": 6867,
      "augh": 6868,
      "ĠGu": 6869,
      "Ġappear": 6870,
      "Ġteach": 6871,
      "cmd": 6872,
      "ams": 6873,
      "Ġfocus": 6874,
      "igration": 6875,
      "Ġill": 6876,
      "Ġstatement": 6877,
      "chi": 6878,
      "Ax": 6879,
      "itialize": 6880,
      "inue": 6881,
      "Ġcoup": 6882,
      "Ġmaint": 6883,
      "iders": 6884,
      "Ġreader": 6885,
      "cedure": 6886,
      "Scroll": 6887,
      "Ġdifficult": 6888,
      "{S": 6889,
      "(args": 6890,
      "ĠCO": 6891,
      "Scope": 6892,
      "Protocol": 6893,
      "Ã©s": 6894,
      "Uri": 6895,
      "Ġapprox": 6896,
      "oph": 6897,
      "Ġground": 6898,
      "-content": 6899,
      "Full": 6900,
      "ooks": 6901,
      "Ġrecomm": 6902,
      "window": 6903,
      "Ġlooked": 6904,
      "oost": 6905,
      "_trans": 6906,
      "osite": 6907,
      "assign": 6908,
      "enum": 6909,
      "Ġthird": 6910,
      "DO": 6911,
      ".filter": 6912,
      "Ġdownload": 6913,
      "Ġess": 6914,
      "Ġoutside": 6915,
      "Ġcompar": 6916,
      "Ġinterval": 6917,
      "access": 6918,
      "zer": 6919,
      "'=>'": 6920,
      ".replace": 6921,
      "Ġexpress": 6922,
      "Ġ'\"": 6923,
      "Ġhope": 6924,
      "çī": 6925,
      "ãģ§": 6926,
      "atar": 6927,
      "Ġcontaining": 6928,
      "trics": 6929,
      "68": 6930,
      "sembly": 6931,
      "stant": 6932,
      "_output": 6933,
      "bon": 6934,
      ".message": 6935,
      "send": 6936,
      "rac": 6937,
      "{$": 6938,
      "Ġip": 6939,
      "tion": 6940,
      "Ġtaking": 6941,
      "æķ°æį®": 6942,
      "Socket": 6943,
      "Bean": 6944,
      "åĲį": 6945,
      "Ġextract": 6946,
      "Ġsecurity": 6947,
      "bolds": 6948,
      "ĠLong": 6949,
      "ĠSE": 6950,
      "Ġshall": 6951,
      "router": 6952,
      "Ġdeep": 6953,
      "\"/>Ċ": 6954,
      "olid": 6955,
      "_EQ": 6956,
      "Any": 6957,
      "boldsymbol": 6958,
      "_offset": 6959,
      "race": 6960,
      "mos": 6961,
      "-right": 6962,
      "_inter": 6963,
      "rightarrow": 6964,
      "Prop": 6965,
      "urface": 6966,
      "ĠValid": 6967,
      "ĠFr": 6968,
      "Ġlikely": 6969,
      "Ġein": 6970,
      "VM": 6971,
      "ĠMon": 6972,
      "=-": 6973,
      "connection": 6974,
      "desc": 6975,
      "Registry": 6976,
      "agnost": 6977,
      "Ġ/>": 6978,
      ".service": 6979,
      "Ġpool": 6980,
      "Ġbelieve": 6981,
      "Īëĭ¤": 6982,
      "peat": 6983,
      "197": 6984,
      "ÂłÂłÂłÂł": 6985,
      "ĠFrom": 6986,
      "ÐµÐ»": 6987,
      "small": 6988,
      "ĠYour": 6989,
      "-center": 6990,
      "Ġ.=": 6991,
      "/lib": 6992,
      "blockquote": 6993,
      "å·": 6994,
      "æĸ¹": 6995,
      "Ġexecute": 6996,
      "prec": 6997,
      "Ġconstruct": 6998,
      "Ġobtain": 6999,
      "cmp": 7000,
      "Ġful": 7001,
      "Users": 7002,
      "Ġoptional": 7003,
      "_port": 7004,
      "ĉset": 7005,
      "_filter": 7006,
      "Ġ\"'": 7007,
      "}^{\\": 7008,
      "ĠSD": 7009,
      "Ġhot": 7010,
      ".\");Ċ": 7011,
      "Ġuseful": 7012,
      "graphics": 7013,
      "etic": 7014,
      "åħ¥": 7015,
      "Save": 7016,
      "ellow": 7017,
      "cb": 7018,
      "Ġobtained": 7019,
      "ffff": 7020,
      "angular": 7021,
      "120": 7022,
      "dl": 7023,
      "ulture": 7024,
      "(array": 7025,
      "(config": 7026,
      "ĠArg": 7027,
      ".last": 7028,
      ",-": 7029,
      "ares": 7030,
      "Coord": 7031,
      "\\x": 7032,
      "_free": 7033,
      "render": 7034,
      "800": 7035,
      "insert": 7036,
      "=%": 7037,
      ".Value": 7038,
      "Ġsolid": 7039,
      "_(": 7040,
      "anded": 7041,
      "eder": 7042,
      "Folder": 7043,
      "ĠMark": 7044,
      "Ġpul": 7045,
      "AST": 7046,
      "LINE": 7047,
      "Ġtemperature": 7048,
      "uplic": 7049,
      "Ġgives": 7050,
      "ato": 7051,
      "Ġstrings": 7052,
      "Ġmissing": 7053,
      "bootstrap": 7054,
      "Ġincrease": 7055,
      "Ġrect": 7056,
      "ĠCopy": 7057,
      "dom": 7058,
      "Ġschema": 7059,
      "ĠÐ¼": 7060,
      "CM": 7061,
      "ìĿĦ": 7062,
      "Ġdark": 7063,
      "Ð½Ð¾": 7064,
      "ĠJohn": 7065,
      "(index": 7066,
      "bose": 7067,
      "cert": 7068,
      "osp": 7069,
      "ĠSk": 7070,
      "ÐµÐ¼": 7071,
      "ummy": 7072,
      "ateway": 7073,
      "Ġyoung": 7074,
      "Global": 7075,
      "TYPE": 7076,
      "/n": 7077,
      "å¸": 7078,
      "Ġidx": 7079,
      "HTTP": 7080,
      "{ĊĊ": 7081,
      "ensive": 7082,
      "ners": 7083,
      "Ġcrit": 7084,
      "ev": 7085,
      "Ġdescribed": 7086,
      "help": 7087,
      "(url": 7088,
      "airs": 7089,
      "Ġwebsite": 7090,
      "Word": 7091,
      "?>": 7092,
      "Symbol": 7093,
      "NULL": 7094,
      "caption": 7095,
      "åĪ°": 7096,
      "IEL": 7097,
      "Ġsus": 7098,
      ",y": 7099,
      "PO": 7100,
      "_link": 7101,
      "Internal": 7102,
      "Ġselection": 7103,
      "_mod": 7104,
      "Man": 7105,
      "Len": 7106,
      "ITH": 7107,
      "Ġson": 7108,
      "loader": 7109,
      "(z": 7110,
      "account": 7111,
      "ĠHTTP": 7112,
      "editor": 7113,
      "herit": 7114,
      "Nodes": 7115,
      "Ġminutes": 7116,
      "ises": 7117,
      "Ġstrict": 7118,
      "_color": 7119,
      "\"github": 7120,
      "åī": 7121,
      "Ġmetadata": 7122,
      "rv": 7123,
      "-based": 7124,
      "ying": 7125,
      "edback": 7126,
      "Ġtimeout": 7127,
      "Ġprimary": 7128,
      "lood": 7129,
      "})$": 7130,
      "ĠMod": 7131,
      "gistration": 7132,
      "rew": 7133,
      ".save": 7134,
      "Ġtypeof": 7135,
      "Ġmask": 7136,
      "ĠVer": 7137,
      "Ġ'%": 7138,
      "Ġbuilt": 7139,
      "]->": 7140,
      "ĉvoid": 7141,
      "DateTime": 7142,
      "<script": 7143,
      "ĠFirst": 7144,
      "Ġvalidate": 7145,
      "Texture": 7146,
      ".call": 7147,
      "arshal": 7148,
      "_SET": 7149,
      "Ġbuilding": 7150,
      "Ġpi": 7151,
      "mar": 7152,
      "more": 7153,
      "Domain": 7154,
      "Ġrisk": 7155,
      "Ġ-=": 7156,
      "opts": 7157,
      "Ġreading": 7158,
      "esh": 7159,
      "ĠHere": 7160,
      "look": 7161,
      "'))Ċ": 7162,
      "Ġmo": 7163,
      "Mon": 7164,
      "ĉP": 7165,
      "azure": 7166,
      "varphi": 7167,
      "VENT": 7168,
      "Ġexactly": 7169,
      "rier": 7170,
      "Opt": 7171,
      "_args": 7172,
      "ĠCo": 7173,
      "ç±": 7174,
      ",ĊĊ": 7175,
      ".swing": 7176,
      "_th": 7177,
      "system": 7178,
      "-z": 7179,
      "Detail": 7180,
      "redit": 7181,
      "\\\\\\\\": 7182,
      "_pos": 7183,
      "ç¤º": 7184,
      "}\"": 7185,
      "Ġeq": 7186,
      "letion": 7187,
      "toBe": 7188,
      "Attr": 7189,
      "_ext": 7190,
      "white": 7191,
      ")-": 7192,
      "grade": 7193,
      "Ġabstract": 7194,
      "}</": 7195,
      "ulated": 7196,
      "çĲ": 7197,
      "road": 7198,
      "greg": 7199,
      "Ġpersonal": 7200,
      "{d": 7201,
      "Ġdelay": 7202,
      ";ĊĊĊ": 7203,
      "åĪĨ": 7204,
      "Ġbasic": 7205,
      "GER": 7206,
      "Ġbranch": 7207,
      "Modal": 7208,
      "bind": 7209,
      "<p": 7210,
      "Ġnatural": 7211,
      "96": 7212,
      ".xml": 7213,
      "ç¨": 7214,
      "<a": 7215,
      ".X": 7216,
      "Ġtrigger": 7217,
      "cache": 7218,
      "Ġindepend": 7219,
      ".at": 7220,
      "ANCE": 7221,
      ".getElementById": 7222,
      "ĉdef": 7223,
      "Ãª": 7224,
      "Ġexperiment": 7225,
      ")^": 7226,
      "(message": 7227,
      "Ġsteps": 7228,
      "-up": 7229,
      "ĠDef": 7230,
      "Ġtrain": 7231,
      "è¾": 7232,
      "PA": 7233,
      "Ġsaw": 7234,
      "_min": 7235,
      "NE": 7236,
      "_idx": 7237,
      "Ġusername": 7238,
      "Ġcour": 7239,
      "ager": 7240,
      "Services": 7241,
      "Ġperfect": 7242,
      "_and": 7243,
      "apped": 7244,
      "overline": 7245,
      "Ġsy": 7246,
      "pecially": 7247,
      "avi": 7248,
      "Ġsi": 7249,
      "mitted": 7250,
      "ãĤ¯": 7251,
      ".dis": 7252,
      "ando": 7253,
      "Ġprincip": 7254,
      "Ġshared": 7255,
      "Ð°Ð»": 7256,
      "joy": 7257,
      "CHE": 7258,
      "_FILE": 7259,
      "haps": 7260,
      "ĠMore": 7261,
      "none": 7262,
      "_base": 7263,
      "Ġround": 7264,
      "resses": 7265,
      "onal": 7266,
      "ĠAction": 7267,
      "ĠSch": 7268,
      "Ġgovernment": 7269,
      "Ġverify": 7270,
      "zy": 7271,
      "rown": 7272,
      "ĠJust": 7273,
      ".bind": 7274,
      "roke": 7275,
      "{x": 7276,
      "how": 7277,
      "global": 7278,
      "ĠĠĠĠĠĠĠĠĠĠĠĠĠĠĠĠĠĠĠĠĠĠĠĠĠĠĠĠĠĠ": 7279,
      "Ġeff": 7280,
      "eler": 7281,
      "Ġbehind": 7282,
      "uses": 7283,
      "_MODE": 7284,
      "Ġ})": 7285,
      "Ġlar": 7286,
      "Ġmor": 7287,
      "cos": 7288,
      "ceed": 7289,
      "exception": 7290,
      "Rate": 7291,
      "Ġtax": 7292,
      "Ġclosed": 7293,
      ">::": 7294,
      "Ġhimself": 7295,
      "Acc": 7296,
      ".db": 7297,
      "Ġecon": 7298,
      "Notification": 7299,
      "Ġstand": 7300,
      "Ġfive": 7301,
      "Ġstarting": 7302,
      ".i": 7303,
      "ĠGame": 7304,
      "/{": 7305,
      "ifact": 7306,
      "sw": 7307,
      "ãģ¯": 7308,
      "UCCESS": 7309,
      "toString": 7310,
      "Ġwhose": 7311,
      "DR": 7312,
      "Ġwriter": 7313,
      "Pri": 7314,
      "loaded": 7315,
      "]+": 7316,
      "ĠMain": 7317,
      "textbf": 7318,
      "Ġchall": 7319,
      "_cl": 7320,
      "library": 7321,
      "ĉh": 7322,
      "ĠPoint": 7323,
      "_no": 7324,
      "urope": 7325,
      "_PATH": 7326,
      ".Context": 7327,
      "ìŀ": 7328,
      ".default": 7329,
      "arts": 7330,
      "(error": 7331,
      "icket": 7332,
      "](#": 7333,
      "force": 7334,
      "_write": 7335,
      "Ġthus": 7336,
      "ç®": 7337,
      "ournal": 7338,
      "á»": 7339,
      "uly": 7340,
      "Ġtags": 7341,
      "ãģ¾ãģĻ": 7342,
      "Ġreview": 7343,
      "Ġmusic": 7344,
      "Cor": 7345,
      "flags": 7346,
      "Ġdataset": 7347,
      ".Un": 7348,
      "(\".": 7349,
      "inger": 7350,
      "Ġdimension": 7351,
      "Ġwomen": 7352,
      "nn": 7353,
      "shared": 7354,
      "RR": 7355,
      "abilities": 7356,
      "ĠMan": 7357,
      "Ġ\\,": 7358,
      "æĸ°": 7359,
      ".target": 7360,
      "pic": 7361,
      "usion": 7362,
      "Ġbehavior": 7363,
      "ĠCH": 7364,
      "Ġdoor": 7365,
      "Vertex": 7366,
      "Ġmeta": 7367,
      "\"},Ċ": 7368,
      "_format": 7369,
      "Ġchoose": 7370,
      "Send": 7371,
      "Ġexternal": 7372,
      "missions": 7373,
      "za": 7374,
      "_options": 7375,
      "pid": 7376,
      "usiness": 7377,
      "ĠJson": 7378,
      "win": 7379,
      "Ġpartial": 7380,
      "ë¥¼": 7381,
      "çĲĨ": 7382,
      "ĠProject": 7383,
      "Ġten": 7384,
      "zen": 7385,
      "Ġdriver": 7386,
      "variable": 7387,
      "600": 7388,
      "ç±»": 7389,
      "_entry": 7390,
      "Ġsound": 7391,
      "Contact": 7392,
      "ulk": 7393,
      "tect": 7394,
      "Ġdiag": 7395,
      "short": 7396,
      "_width": 7397,
      "{blockquote": 7398,
      "hidden": 7399,
      "*}": 7400,
      "Ġrequests": 7401,
      "Ġrequires": 7402,
      "Ġimmedi": 7403,
      "icks": 7404,
      "ĠLink": 7405,
      ".clear": 7406,
      "Ġreach": 7407,
      "aste": 7408,
      ".contains": 7409,
      "ê°": 7410,
      "Ġknowledge": 7411,
      "Idx": 7412,
      "ĴĮ": 7413,
      "vlet": 7414,
      "enced": 7415,
      "llegal": 7416,
      ".base": 7417,
      "oken": 7418,
      "Region": 7419,
      "Fragment": 7420,
      "references": 7421,
      "_OK": 7422,
      "ĠComponent": 7423,
      "\">ĊĊ": 7424,
      ".web": 7425,
      "LOCK": 7426,
      "Ġmention": 7427,
      "DI": 7428,
      "_query": 7429,
      "essages": 7430,
      "Ġord": 7431,
      "^{(": 7432,
      "_create": 7433,
      "ndef": 7434,
      "replace": 7435,
      "orter": 7436,
      "SG": 7437,
      "PIO": 7438,
      "Ġremoved": 7439,
      "ĠCustom": 7440,
      "OWN": 7441,
      "ä¸Ĭ": 7442,
      "uel": 7443,
      "_AL": 7444,
      "rd": 7445,
      "RT": 7446,
      "ĠBuild": 7447,
      "Ġactions": 7448,
      "owner": 7449,
      "Ġaria": 7450,
      "-P": 7451,
      "Ġaccur": 7452,
      "optional": 7453,
      "ĠPRO": 7454,
      "Ġupper": 7455,
      "{A": 7456,
      "equals": 7457,
[...]
