{
  "version": "1.0",
  "truncation": null,
  "padding": null,
  "added_tokens": [
    {
      "id": 0,
      "content": "<|begin_of_text|>",
      "single_word": false,
      "lstrip": false,
      "rstrip": false,
      "normalized": false,
      "special": true
    },
    {
      "id": 1,
      "content": "<|end_of_text|>",
      "single_word": false,
      "lstrip": false,
      "rstrip": false,
      "normalized": false,
      "special": true
    },
    {
      "id": 2,
      "content": "<pad>",
      "single_word": false,
      "lstrip": false,
      "rstrip": false,
      "normalized": false,
      "special": true
    },
    {
      "id": 3,
      "content": "<|fim_prefix|>",
      "single_word": false,
      "lstrip": false,
      "rstrip": false,
      "normalized": false,
      "special": true
    },
    {
      "id": 4,
      "content": "<|fim_middle|>",
      "single_word": false,
      "lstrip": false,
      "rstrip": false,
      "normalized": false,
      "special": true
    },
    {
      "id": 5,
      "content": "<|fim_suffix|>",
      "single_word": false,
      "lstrip": false,
      "rstrip": false,
      "normalized": false,
      "special": true
    },
    {
      "id": 6,
      "content": "<0x00>",
      "single_word": false,
      "lstrip": false,
      "rstrip": false,
      "normalized": false,
      "special": true
    },
    {
      "id": 7,
      "content": "<0x01>",
      "single_word": false,
      "lstrip": false,
      "rstrip": false,
      "normalized": false,
      "special": true
    },
    {
      "id": 8,
      "content": "<0x02>",
      "single_word": false,
      "lstrip": false,
      "rstrip": false,
      "normalized": false,
      "special": true
    },
    {
      "id": 9,
      "content": "<0x03>",
      "single_word": false,
      "lstrip": false,
      "rstrip": false,
      "normalized": false,
      "special": true
    },
    {
      "id": 10,
      "content": "<0x04>",
      "single_word": false,
      "lstrip": false,
      "rstrip": false,
      "normalized": false,
      "special": true
    },
    {
      "id": 11,
      "content": "<0x05>",
      "single_word": false,
      "lstrip": false,
      "rstrip": false,
      "normalized": false,
      "special": true
    },
    {
      "id": 12,
      "content": "<0x06>",
      "single_word": false,
      "lstrip": false,
      "rstrip": false,
      "normalized": false,
      "special": true
    },
    {
      "id": 13,
      "content": "<0x07>",
      "single_word": false,
      "lstrip": false,
      "rstrip": false,
      "normalized": false,
      "special": true
    },
    {
      "id": 14,
      "content": "<0x08>",
      "single_word": false,
      "lstrip": false,
      "rstrip": false,
      "normalized": false,
      "special": true
    },
    {
      "id": 15,
      "content": "<0x09>",
      "single_word": false,
      "lstrip": false,
      "rstrip": false,
      "normalized": false,
      "special": true
    },
    {
      "id": 16,
      "content": "<0x0A>",
      "single_word": false,
      "lstrip": false,
      "rstrip": false,
      "normalized": false,
      "special": true
    },
    {
      "id": 17,
      "content": "<0x0B>",
      "single_word": false,
      "lstrip": false,
      "rstrip": false,
      "normalized": false,
      "special": true
    },
    {
      "id": 18,
      "content": "<0x0C>",
      "single_word": false,
      "lstrip": false,
      "rstrip": false,
      "normalized": false,
      "special": true
    },
    {
      "id": 19,
      "content": "<0x0D>",
      "single_word": false,
      "lstrip": false,
      "rstrip": false,
      "normalized": false,
      "special": true
    },
    {
      "id": 20,
      "content": "<0x0E>",
      "single_word": false,
      "lstrip": false,
      "rstrip": false,
      "normalized": false,
      "special": true
    },
    {
      "id": 21,
      "content": "<0x0F>",
      "single_word": false,
      "lstrip": false,
      "rstrip": false,
      "normalized": false,
      "special": true
    },
    {
      "id": 22,
      "content": "<0x10>",
      "single_word": false,
      "lstrip": false,
      "rstrip": false,
      "normalized": false,
      "special": true
    },
    {
      "id": 23,
      "content": "<0x11>",
      "single_word": false,
      "lstrip": false,
      "rstrip": false,
      "normalized": false,
      "special": true
    },
    {
      "id": 24,
      "content": "<0x12>",
      "single_word": false,
      "lstrip": false,
      "rstrip": false,
      "normalized": false,
      "special": true
    },
    {
      "id": 25,
      "content": "<0x13>",
      "single_word": false,
      "lstrip": false,
      "rstrip": false,
      "normalized": false,
      "special": true
    },
    {
      "id": 26,
      "content": "<0x14>",
      "single_word": false,
      "lstrip": false,
      "rstrip": false,
      "normalized": false,
      "special": true
    },
    {
      "id": 27,
      "content": "<0x15>",
      "single_word": false,
      "lstrip": false,
      "rstrip": false,
      "normalized": false,
      "special": true
    },
    {
      "id": 28,
      "content": "<0x16>",
      "single_word": false,
      "lstrip": false,
      "rstrip": false,
      "normalized": false,
      "special": true
    },
    {
      "id": 29,
      "content": "<0x17>",
      "single_word": false,
      "lstrip": false,
      "rstrip": false,
      "normalized": false,
      "special": true
    },
    {
      "id": 30,
      "content": "<0x18>",
      "single_word": false,
      "lstrip": false,
      "rstrip": false,
      "normalized": false,
      "special": true
    },
    {
      "id": 31,
      "content": "<0x19>",
      "single_word": false,
      "lstrip": false,
      "rstrip": false,
      "normalized": false,
      "special": true
    },
    {
      "id": 32,
      "content": "<0x1A>",
      "single_word": false,
      "lstrip": false,
      "rstrip": false,
      "normalized": false,
      "special": true
    },
    {
      "id": 33,
      "content": "<0x1B>",
      "single_word": false,
      "lstrip": false,
      "rstrip": false,
      "normalized": false,
      "special": true
    },
    {
      "id": 34,
      "content": "<0x1C>",
      "single_word": false,
      "lstrip": false,
      "rstrip": false,
      "normalized": false,
      "special": true
    },
    {
      "id": 35,
      "content": "<0x1D>",
      "single_word": false,
      "lstrip": false,
      "rstrip": false,
      "normalized": false,
      "special": true
    },
    {
      "id": 36,
      "content": "<0x1E>",
      "single_word": false,
      "lstrip": false,
      "rstrip": false,
      "normalized": false,
      "special": true
    },
    {
      "id": 37,
      "content": "<0x1F>",
      "single_word": false,
      "lstrip": false,
      "rstrip": false,
      "normalized": false,
      "special": true
    },
    {
      "id": 38,
      "content": "<0x20>",
      "single_word": false,
      "lstrip": false,
      "rstrip": false,
      "normalized": false,
      "special": true
    },
    {
      "id": 39,
      "content": "<0x21>",
      "single_word": false,
      "lstrip": false,
      "rstrip": false,
      "normalized": false,
      "special": true
    },
    {
      "id": 40,
      "content": "<0x22>",
      "single_word": false,
      "lstrip": false,
      "rstrip": false,
      "normalized": false,
      "special": true
    },
    {
      "id": 41,
      "content": "<0x23>",
      "single_word": false,
      "lstrip": false,
      "rstrip": false,
      "normalized": false,
      "special": true
    },
    {
      "id": 42,
      "content": "<0x24>",
      "single_word": false,
      "lstrip": false,
      "rstrip": false,
      "normalized": false,
      "special": true
    },
    {
      "id": 43,
      "content": "<0x25>",
      "single_word": false,
      "lstrip": false,
      "rstrip": false,
      "normalized": false,
      "special": true
    },
    {
      "id": 44,
      "content": "<0x26>",
      "single_word": false,
      "lstrip": false,
      "rstrip": false,
      "normalized": false,
      "special": true
    },
    {
      "id": 45,
      "content": "<0x27>",
      "single_word": false,
      "lstrip": false,
      "rstrip": false,
      "normalized": false,
      "special": true
    },
    {
      "id": 46,
      "content": "<0x28>",
      "single_word": false,
      "lstrip": false,
      "rstrip": false,
      "normalized": false,
      "special": true
    },
    {
      "id": 47,
      "content": "<0x29>",
      "single_word": false,
      "lstrip": false,
      "rstrip": false,
      "normalized": false,
      "special": true
    },
    {
      "id": 48,
      "content": "<0x2A>",
      "single_word": false,
      "lstrip": false,
      "rstrip": false,
      "normalized": false,
      "special": true
    },
    {
      "id": 49,
      "content": "<0x2B>",
      "single_word": false,
      "lstrip": false,
      "rstrip": false,
      "normalized": false,
      "special": true
    },
    {
      "id": 50,
      "content": "<0x2C>",
      "single_word": false,
      "lstrip": false,
      "rstrip": false,
      "normalized": false,
      "special": true
    },
    {
      "id": 51,
      "content": "<0x2D>",
      "single_word": false,
      "lstrip": false,
      "rstrip": false,
      "normalized": false,
      "special": true
    },
    {
      "id": 52,
      "content": "<0x2E>",
      "single_word": false,
      "lstrip": false,
      "rstrip": false,
      "normalized": false,
      "special": true
    },
    {
      "id": 53,
      "content": "<0x2F>",
      "single_word": false,
      "lstrip": false,
      "rstrip": false,
      "normalized": false,
      "special": true
    },
    {
      "id": 54,
      "content": "<0x30>",
      "single_word": false,
      "lstrip": false,
      "rstrip": false,
      "normalized": false,
      "special": true
    },
    {
      "id": 55,
      "content": "<0x31>",
      "single_word": false,
      "lstrip": false,
      "rstrip": false,
      "normalized": false,
      "special": true
    },
    {
      "id": 56,
      "content": "<0x32>",
      "single_word": false,
      "lstrip": false,
      "rstrip": false,
      "normalized": false,
      "special": true
    },
    {
      "id": 57,
      "content": "<0x33>",
      "single_word": false,
      "lstrip": false,
      "rstrip": false,
      "normalized": false,
      "special": true
    },
    {
      "id": 58,
      "content": "<0x34>",
      "single_word": false,
      "lstrip": false,
      "rstrip": false,
      "normalized": false,
      "special": true
    },
    {
      "id": 59,
      "content": "<0x35>",
      "single_word": false,
      "lstrip": false,
      "rstrip": false,
      "normalized": false,
      "special": true
    },
    {
      "id": 60,
      "content": "<0x36>",
      "single_word": false,
      "lstrip": false,
      "rstrip": false,
      "normalized": false,
      "special": true
    },
    {
      "id": 61,
      "content": "<0x37>",
      "single_word": false,
      "lstrip": false,
      "rstrip": false,
      "normalized": false,
      "special": true
    },
    {
      "id": 62,
      "content": "<0x38>",
      "single_word": false,
      "lstrip": false,
      "rstrip": false,
      "normalized": false,
      "special": true
    },
    {
      "id": 63,
      "content": "<0x39>",
      "single_word": false,
      "lstrip": false,
      "rstrip": false,
      "normalized": false,
      "special": true
    },
    {
      "id": 64,
      "content": "<0x3A>",
      "single_word": false,
      "lstrip": false,
      "rstrip": false,
      "normalized": false,
      "special": true
    },
    {
      "id": 65,
      "content": "<0x3B>",
      "single_word": false,
      "lstrip": false,
      "rstrip": false,
      "normalized": false,
      "special": true
    },
    {
      "id": 66,
      "content": "<0x3C>",
      "single_word": false,
      "lstrip": false,
      "rstrip": false,
      "normalized": false,
      "special": true
    },
    {
      "id": 67,
      "content": "<0x3D>",
      "single_word": false,
      "lstrip": false,
      "rstrip": false,
      "normalized": false,
      "special": true
    },
    {
      "id": 68,
      "content": "<0x3E>",
      "single_word": false,
      "lstrip": false,
      "rstrip": false,
      "normalized": false,
      "special": true
    },
    {
      "id": 69,
      "content": "<0x3F>",
      "single_word": false,
      "lstrip": false,
      "rstrip": false,
      "normalized": false,
      "special": true
    },
    {
      "id": 70,
      "content": "<0x40>",
      "single_word": false,
      "lstrip": false,
      "rstrip": false,
      "normalized": false,
      "special": true
    },
    {
      "id": 71,
      "content": "<0x41>",
      "single_word": false,
      "lstrip": false,
      "rstrip": false,
      "normalized": false,
      "special": true
    },
    {
      "id": 72,
      "content": "<0x42>",
      "single_word": false,
      "lstrip": false,
      "rstrip": false,
      "normalized": false,
      "special": true
    },
    {
      "id": 73,
      "content": "<0x43>",
      "single_word": false,
      "lstrip": false,
      "rstrip": false,
      "normalized": false,
      "special": true
    },
    {
      "id": 74,
      "content": "<0x44>",
      "single_word": false,
      "lstrip": false,
      "rstrip": false,
      "normalized": false,
      "special": true
    },
    {
      "id": 75,
      "content": "<0x45>",
      "single_word": false,
      "lstrip": false,
      "rstrip": false,
      "normalized": false,
      "special": true
    },
    {
      "id": 76,
      "content": "<0x46>",
      "single_word": false,
      "lstrip": false,
      "rstrip": false,
      "normalized": false,
      "special": true
    },
    {
      "id": 77,
      "content": "<0x47>",
      "single_word": false,
      "lstrip": false,
      "rstrip": false,
      "normalized": false,
      "special": true
    },
    {
      "id": 78,
      "content": "<0x48>",
      "single_word": false,
      "lstrip": false,
      "rstrip": false,
      "normalized": false,
      "special": true
    },
    {
      "id": 79,
      "content": "<0x49>",
      "single_word": false,
      "lstrip": false,
      "rstrip": false,
      "normalized": false,
      "special": true
    },
    {
      "id": 80,
      "content": "<0x4A>",
      "single_word": false,
      "lstrip": false,
      "rstrip": false,
      "normalized": false,
      "special": true
    },
    {
      "id": 81,
      "content": "<0x4B>",
      "single_word": false,
      "lstrip": false,
      "rstrip": false,
      "normalized": false,
      "special": true
    },
    {
      "id": 82,
      "content": "<0x4C>",
      "single_word": false,
      "lstrip": false,
      "rstrip": false,
      "normalized": false,
      "special": true
    },
    {
      "id": 83,
      "content": "<0x4D>",
      "single_word": false,
      "lstrip": false,
      "rstrip": false,
      "normalized": false,
      "special": true
    },
    {
      "id": 84,
      "content": "<0x4E>",
      "single_word": false,
      "lstrip": false,
      "rstrip": false,
      "normalized": false,
      "special": true
    },
    {
      "id": 85,
      "content": "<0x4F>",
      "single_word": false,
      "lstrip": false,
      "rstrip": false,
      "normalized": false,
      "special": true
    },
    {
      "id": 86,
      "content": "<0x50>",
      "single_word": false,
      "lstrip": false,
      "rstrip": false,
      "normalized": false,
      "special": true
    },
    {
      "id": 87,
      "content": "<0x51>",
      "single_word": false,
      "lstrip": false,
      "rstrip": false,
      "normalized": false,
      "special": true
    },
    {
      "id": 88,
      "content": "<0x52>",
      "single_word": false,
      "lstrip": false,
      "rstrip": false,
      "normalized": false,
      "special": true
    },
    {
      "id": 89,
      "content": "<0x53>",
      "single_word": false,
      "lstrip": false,
      "rstrip": false,
      "normalized": false,
      "special": true
    },
    {
      "id": 90,
      "content": "<0x54>",
      "single_word": false,
      "lstrip": false,
      "rstrip": false,
      "normalized": false,
      "special": true
    },
    {
      "id": 91,
      "content": "<0x55>",
      "single_word": false,
      "lstrip": false,
      "rstrip": false,
      "normalized": false,
      "special": true
    },
    {
      "id": 92,
      "content": "<0x56>",
      "single_word": false,
      "lstrip": false,
      "rstrip": false,
      "normalized": false,
      "special": true
    },
    {
      "id": 93,
      "content": "<0x57>",
      "single_word": false,
      "lstrip": false,
      "rstrip": false,
      "normalized": false,
      "special": true
    },
    {
      "id": 94,
      "content": "<0x58>",
      "single_word": false,
      "lstrip": false,
      "rstrip": false,
      "normalized": false,
      "special": true
    },
    {
      "id": 95,
      "content": "<0x59>",
      "single_word": false,
      "lstrip": false,
      "rstrip": false,
      "normalized": false,
      "special": true
    },
    {
      "id": 96,
      "content": "<0x5A>",
      "single_word": false,
      "lstrip": false,
      "rstrip": false,
      "normalized": false,
      "special": true
    },
    {
      "id": 97,
      "content": "<0x5B>",
      "single_word": false,
      "lstrip": false,
      "rstrip": false,
      "normalized": false,
      "special": true
    },
    {
      "id": 98,
      "content": "<0x5C>",
      "single_word": false,
      "lstrip": false,
      "rstrip": false,
      "normalized": false,
      "special": true
    },
    {
      "id": 99,
      "content": "<0x5D>",
      "single_word": false,
      "lstrip": false,
      "rstrip": false,
      "normalized": false,
      "special": true
    },
    {
      "id": 100,
      "content": "<0x5E>",
      "single_word": false,
      "lstrip": false,
      "rstrip": false,
      "normalized": false,
      "special": true
    },
    {
      "id": 101,
      "content": "<0x5F>",
      "single_word": false,
      "lstrip": false,
      "rstrip": false,
      "normalized": false,
      "special": true
    },
    {
      "id": 102,
      "content": "<0x60>",
      "single_word": false,
      "lstrip": false,
      "rstrip": false,
      "normalized": false,
      "special": true
    },
    {
      "id": 103,
      "content": "<0x61>",
      "single_word": false,
      "lstrip": false,
      "rstrip": false,
      "normalized": false,
      "special": true
    },
    {
      "id": 104,
      "content": "<0x62>",
      "single_word": false,
      "lstrip": false,
      "rstrip": false,
      "normalized": false,
      "special": true
    },
    {
      "id": 105,
      "content": "<0x63>",
      "single_word": false,
      "lstrip": false,
      "rstrip": false,
      "normalized": false,
      "special": true
    },
    {
      "id": 106,
      "content": "<0x64>",
      "single_word": false,
      "lstrip": false,
      "rstrip": false,
      "normalized": false,
      "special": true
    },
    {
      "id": 107,
      "content": "<0x65>",
      "single_word": false,
      "lstrip": false,
      "rstrip": false,
      "normalized": false,
      "special": true
    },
    {
      "id": 108,
      "content": "<0x66>",
      "single_word": false,
      "lstrip": false,
      "rstrip": false,
      "normalized": false,
      "special": true
    },
    {
      "id": 109,
      "content": "<0x67>",
      "single_word": false,
      "lstrip": false,
      "rstrip": false,
      "normalized": false,
      "special": true
    },
    {
      "id": 110,
      "content": "<0x68>",
      "single_word": false,
      "lstrip": false,
      "rstrip": false,
      "normalized": false,
      "special": true
    },
    {
      "id": 111,
      "content": "<0x69>",
      "single_word": false,
      "lstrip": false,
      "rstrip": false,
      "normalized": false,
      "special": true
    },
    {
      "id": 112,
      "content": "<0x6A>",
      "single_word": false,
      "lstrip": false,
      "rstrip": false,
      "normalized": false,
      "special": true
    },
    {
      "id": 113,
      "content": "<0x6B>",
      "single_word": false,
      "lstrip": false,
      "rstrip": false,
      "normalized": false,
      "special": true
    },
    {
      "id": 114,
      "content": "<0x6C>",
      "single_word": false,
      "lstrip": false,
      "rstrip": false,
      "normalized": false,
      "special": true
    },
    {
      "id": 115,
      "content": "<0x6D>",
      "single_word": false,
      "lstrip": false,
      "rstrip": false,
      "normalized": false,
      "special": true
    },
    {
      "id": 116,
      "content": "<0x6E>",
      "single_word": false,
      "lstrip": false,
      "rstrip": false,
      "normalized": false,
      "special": true
    },
    {
      "id": 117,
      "content": "<0x6F>",
      "single_word": false,
      "lstrip": false,
      "rstrip": false,
      "normalized": false,
      "special": true
    },
    {
      "id": 118,
      "content": "<0x70>",
      "single_word": false,
      "lstrip": false,
      "rstrip": false,
      "normalized": false,
      "special": true
    },
    {
      "id": 119,
      "content": "<0x71>",
      "single_word": false,
      "lstrip": false,
      "rstrip": false,
      "normalized": false,
      "special": true
    },
    {
      "id": 120,
      "content": "<0x72>",
      "single_word": false,
      "lstrip": false,
      "rstrip": false,
      "normalized": false,
      "special": true
    },
    {
      "id": 121,
      "content": "<0x73>",
      "single_word": false,
      "lstrip": false,
      "rstrip": false,
      "normalized": false,
      "special": true
    },
    {
      "id": 122,
      "content": "<0x74>",
      "single_word": false,
      "lstrip": false,
      "rstrip": false,
      "normalized": false,
      "special": true
    },
    {
      "id": 123,
      "content": "<0x75>",
      "single_word": false,
      "lstrip": false,
      "rstrip": false,
      "normalized": false,
      "special": true
    },
    {
      "id": 124,
      "content": "<0x76>",
      "single_word": false,
      "lstrip": false,
      "rstrip": false,
      "normalized": false,
      "special": true
    },
    {
      "id": 125,
      "content": "<0x77>",
      "single_word": false,
      "lstrip": false,
      "rstrip": false,
      "normalized": false,
      "special": true
    },
    {
      "id": 126,
      "content": "<0x78>",
      "single_word": false,
      "lstrip": false,
      "rstrip": false,
      "normalized": false,
      "special": true
    },
    {
      "id": 127,
      "content": "<0x79>",
      "single_word": false,
      "lstrip": false,
      "rstrip": false,
      "normalized": false,
      "special": true
    },
    {
      "id": 128,
      "content": "<0x7A>",
      "single_word": false,
      "lstrip": false,
      "rstrip": false,
      "normalized": false,
      "special": true
    },
    {
      "id": 129,
      "content": "<0x7B>",
      "single_word": false,
      "lstrip": false,
      "rstrip": false,
      "normalized": false,
      "special": true
    },
    {
      "id": 130,
      "content": "<0x7C>",
      "single_word": false,
      "lstrip": false,
      "rstrip": false,
      "normalized": false,
      "special": true
    },
    {
      "id": 131,
      "content": "<0x7D>",
      "single_word": false,
      "lstrip": false,
      "rstrip": false,
      "normalized": false,
      "special": true
    },
    {
      "id": 132,
      "content": "<0x7E>",
      "single_word": false,
      "lstrip": false,
      "rstrip": false,
      "normalized": false,
      "special": true
    },
    {
      "id": 133,
      "content": "<0x7F>",
      "single_word": false,
      "lstrip": false,
      "rstrip": false,
      "normalized": false,
      "special": true
    },
    {
      "id": 134,
      "content": "<0x80>",
      "single_word": false,
      "lstrip": false,
      "rstrip": false,
      "normalized": false,
      "special": true
    },
    {
      "id": 135,
      "content": "<0x81>",
      "single_word": false,
      "lstrip": false,
      "rstrip": false,
      "normalized": false,
      "special": true
    },
    {
      "id": 136,
      "content": "<0x82>",
      "single_word": false,
      "lstrip": false,
      "rstrip": false,
      "normalized": false,
      "special": true
    },
    {
      "id": 137,
      "content": "<0x83>",
      "single_word": false,
      "lstrip": false,
      "rstrip": false,
      "normalized": false,
      "special": true
    },
    {
      "id": 138,
      "content": "<0x84>",
      "single_word": false,
      "lstrip": false,
      "rstrip": false,
      "normalized": false,
      "special": true
    },
    {
      "id": 139,
      "content": "<0x85>",
      "single_word": false,
      "lstrip": false,
      "rstrip": false,
      "normalized": false,
      "special": true
    },
    {
      "id": 140,
      "content": "<0x86>",
      "single_word": false,
      "lstrip": false,
      "rstrip": false,
      "normalized": false,
      "special": true
    },
    {
      "id": 141,
      "content": "<0x87>",
      "single_word": false,
      "lstrip": false,
      "rstrip": false,
      "normalized": false,
      "special": true
    },
    {
      "id": 142,
      "content": "<0x88>",
      "single_word": false,
      "lstrip": false,
      "rstrip": false,
      "normalized": false,
      "special": true
    },
    {
      "id": 143,
      "content": "<0x89>",
      "single_word": false,
      "lstrip": false,
      "rstrip": false,
      "normalized": false,
      "special": true
    },
    {
      "id": 144,
      "content": "<0x8A>",
      "single_word": false,
      "lstrip": false,
      "rstrip": false,
      "normalized": false,
      "special": true
    },
    {
      "id": 145,
      "content": "<0x8B>",
      "single_word": false,
      "lstrip": false,
      "rstrip": false,
      "normalized": false,
      "special": true
    },
    {
      "id": 146,
      "content": "<0x8C>",
      "single_word": false,
      "lstrip": false,
      "rstrip": false,
      "normalized": false,
      "special": true
    },
    {
      "id": 147,
      "content": "<0x8D>",
      "single_word": false,
      "lstrip": false,
      "rstrip": false,
      "normalized": false,
      "special": true
    },
    {
      "id": 148,
      "content": "<0x8E>",
      "single_word": false,
      "lstrip": false,
      "rstrip": false,
      "normalized": false,
      "special": true
    },
    {
      "id": 149,
      "content": "<0x8F>",
      "single_word": false,
      "lstrip": false,
      "rstrip": false,
      "normalized": false,
      "special": true
    },
    {
      "id": 150,
      "content": "<0x90>",
      "single_word": false,
      "lstrip": false,
      "rstrip": false,
      "normalized": false,
      "special": true
    },
    {
      "id": 151,
      "content": "<0x91>",
      "single_word": false,
      "lstrip": false,
      "rstrip": false,
      "normalized": false,
      "special": true
    },
    {
      "id": 152,
      "content": "<0x92>",
      "single_word": false,
      "lstrip": false,
      "rstrip": false,
      "normalized": false,
      "special": true
    },
    {
      "id": 153,
      "content": "<0x93>",
      "single_word": false,
      "lstrip": false,
      "rstrip": false,
      "normalized": false,
      "special": true
    },
    {
      "id": 154,
      "content": "<0x94>",
      "single_word": false,
      "lstrip": false,
      "rstrip": false,
      "normalized": false,
      "special": true
    },
    {
      "id": 155,
      "content": "<0x95>",
      "single_word": false,
      "lstrip": false,
      "rstrip": false,
      "normalized": false,
      "special": true
    },
    {
      "id": 156,
      "content": "<0x96>",
      "single_word": false,
      "lstrip": false,
      "rstrip": false,
      "normalized": false,
      "special": true
    },
    {
      "id": 157,
      "content": "<0x97>",
      "single_word": false,
      "lstrip": false,
      "rstrip": false,
      "normalized": false,
      "special": true
    },
    {
      "id": 158,
      "content": "<0x98>",
      "single_word": false,
      "lstrip": false,
      "rstrip": false,
      "normalized": false,
      "special": true
    },
    {
      "id": 159,
      "content": "<0x99>",
      "single_word": false,
      "lstrip": false,
      "rstrip": false,
      "normalized": false,
      "special": true
    },
    {
      "id": 160,
      "content": "<0x9A>",
      "single_word": false,
      "lstrip": false,
      "rstrip": false,
      "normalized": false,
      "special": true
    },
    {
      "id": 161,
      "content": "<0x9B>",
      "single_word": false,
      "lstrip": false,
      "rstrip": false,
      "normalized": false,
      "special": true
    },
    {
      "id": 162,
      "content": "<0x9C>",
      "single_word": false,
      "lstrip": false,
      "rstrip": false,
      "normalized": false,
      "special": true
    },
    {
      "id": 163,
      "content": "<0x9D>",
      "single_word": false,
      "lstrip": false,
      "rstrip": false,
      "normalized": false,
      "special": true
    },
    {
      "id": 164,
      "content": "<0x9E>",
      "single_word": false,
      "lstrip": false,
      "rstrip": false,
      "normalized": false,
      "special": true
    },
    {
      "id": 165,
      "content": "<0x9F>",
      "single_word": false,
      "lstrip": false,
      "rstrip": false,
      "normalized": false,
      "special": true
    },
    {
      "id": 166,
      "content": "<0xA0>",
      "single_word": false,
      "lstrip": false,
      "rstrip": false,
      "normalized": false,
      "special": true
    },
    {
      "id": 167,
      "content": "<0xA1>",
      "single_word": false,
      "lstrip": false,
      "rstrip": false,
      "normalized": false,
      "special": true
    },
    {
      "id": 168,
      "content": "<0xA2>",
      "single_word": false,
      "lstrip": false,
      "rstrip": false,
      "normalized": false,
      "special": true
    },
    {
      "id": 169,
      "content": "<0xA3>",
      "single_word": false,
      "lstrip": false,
      "rstrip": false,
      "normalized": false,
      "special": true
    },
    {
      "id": 170,
      "content": "<0xA4>",
      "single_word": false,
      "lstrip": false,
      "rstrip": false,
      "normalized": false,
      "special": true
    },
    {
      "id": 171,
      "content": "<0xA5>",
      "single_word": false,
      "lstrip": false,
      "rstrip": false,
      "normalized": false,
      "special": true
    },
    {
      "id": 172,
      "content": "<0xA6>",
      "single_word": false,
      "lstrip": false,
      "rstrip": false,
      "normalized": false,
      "special": true
    },
    {
      "id": 173,
      "content": "<0xA7>",
      "single_word": false,
      "lstrip": false,
      "rstrip": false,
      "normalized": false,
      "special": true
    },
    {
      "id": 174,
      "content": "<0xA8>",
      "single_word": false,
      "lstrip": false,
      "rstrip": false,
      "normalized": false,
      "special": true
    },
    {
      "id": 175,
      "content": "<0xA9>",
      "single_word": false,
      "lstrip": false,
      "rstrip": false,
      "normalized": false,
      "special": true
    },
    {
      "id": 176,
      "content": "<0xAA>",
      "single_word": false,
      "lstrip": false,
      "rstrip": false,
      "normalized": false,
      "special": true
    },
    {
      "id": 177,
      "content": "<0xAB>",
      "single_word": false,
      "lstrip": false,
      "rstrip": false,
      "normalized": false,
      "special": true
    },
    {
      "id": 178,
      "content": "<0xAC>",
      "single_word": false,
      "lstrip": false,
      "rstrip": false,
      "normalized": false,
      "special": true
    },
    {
      "id": 179,
      "content": "<0xAD>",
      "single_word": false,
      "lstrip": false,
      "rstrip": false,
      "normalized": false,
      "special": true
    },
    {
      "id": 180,
      "content": "<0xAE>",
      "single_word": false,
      "lstrip": false,
      "rstrip": false,
      "normalized": false,
      "special": true
    },
    {
      "id": 181,
      "content": "<0xAF>",
      "single_word": false,
      "lstrip": false,
      "rstrip": false,
      "normalized": false,
      "special": true
    },
    {
      "id": 182,
      "content": "<0xB0>",
      "single_word": false,
      "lstrip": false,
      "rstrip": false,
      "normalized": false,
      "special": true
    },
    {
      "id": 183,
      "content": "<0xB1>",
      "single_word": false,
      "lstrip": false,
      "rstrip": false,
      "normalized": false,
      "special": true
    },
    {
      "id": 184,
      "content": "<0xB2>",
      "single_word": false,
      "lstrip": false,
      "rstrip": false,
      "normalized": false,
      "special": true
    },
    {
      "id": 185,
      "content": "<0xB3>",
      "single_word": false,
      "lstrip": false,
      "rstrip": false,
      "normalized": false,
      "special": true
    },
    {
      "id": 186,
      "content": "<0xB4>",
      "single_word": false,
      "lstrip": false,
      "rstrip": false,
      "normalized": false,
      "special": true
    },
    {
      "id": 187,
      "content": "<0xB5>",
      "single_word": false,
      "lstrip": false,
      "rstrip": false,
      "normalized": false,
      "special": true
    },
    {
      "id": 188,
      "content": "<0xB6>",
      "single_word": false,
      "lstrip": false,
      "rstrip": false,
      "normalized": false,
      "special": true
    },
    {
      "id": 189,
      "content": "<0xB7>",
      "single_word": false,
      "lstrip": false,
      "rstrip": false,
      "normalized": false,
      "special": true
    },
    {
      "id": 190,
      "content": "<0xB8>",
      "single_word": false,
      "lstrip": false,
      "rstrip": false,
      "normalized": false,
      "special": true
    },
    {
      "id": 191,
      "content": "<0xB9>",
      "single_word": false,
      "lstrip": false,
      "rstrip": false,
      "normalized": false,
      "special": true
    },
    {
      "id": 192,
      "content": "<0xBA>",
      "single_word": false,
      "lstrip": false,
      "rstrip": false,
      "normalized": false,
      "special": true
    },
    {
      "id": 193,
      "content": "<0xBB>",
      "single_word": false,
      "lstrip": false,
      "rstrip": false,
      "normalized": false,
      "special": true
    },
    {
      "id": 194,
      "content": "<0xBC>",
      "single_word": false,
      "lstrip": false,
      "rstrip": false,
      "normalized": false,
      "special": true
    },
    {
      "id": 195,
      "content": "<0xBD>",
      "single_word": false,
      "lstrip": false,
      "rstrip": false,
      "normalized": false,
      "special": true
    },
    {
      "id": 196,
      "content": "<0xBE>",
      "single_word": false,
      "lstrip": false,
      "rstrip": false,
      "normalized": false,
      "special": true
    },
    {
      "id": 197,
      "content": "<0xBF>",
      "single_word": false,
      "lstrip": false,
      "rstrip": false,
      "normalized": false,
      "special": true
    },
    {
      "id": 198,
      "content": "<0xC0>",
      "single_word": false,
      "lstrip": false,
      "rstrip": false,
      "normalized": false,
      "special": true
    },
    {
      "id": 199,
      "content": "<0xC1>",
      "single_word": false,
      "lstrip": false,
      "rstrip": false,
      "normalized": false,
      "special": true
    },
    {
      "id": 200,
      "content": "<0xC2>",
      "single_word": false,
      "lstrip": false,
      "rstrip": false,
      "normalized": false,
      "special": true
    },
    {
      "id": 201,
      "content": "<0xC3>",
      "single_word": false,
      "lstrip": false,
      "rstrip": false,
      "normalized": false,
      "special": true
    },
    {
      "id": 202,
      "content": "<0xC4>",
      "single_word": false,
      "lstrip": false,
      "rstrip": false,
      "normalized": false,
      "special": true
    },
    {
      "id": 203,
      "content": "<0xC5>",
      "single_word": false,
      "lstrip": false,
      "rstrip": false,
      "normalized": false,
      "special": true
    },
    {
      "id": 204,
      "content": "<0xC6>",
      "single_word": false,
      "lstrip": false,
      "rstrip": false,
      "normalized": false,
      "special": true
    },
    {
      "id": 205,
      "content": "<0xC7>",
      "single_word": false,
      "lstrip": false,
      "rstrip": false,
      "normalized": false,
      "special": true
    },
    {
      "id": 206,
      "content": "<0xC8>",
      "single_word": false,
      "lstrip": false,
      "rstrip": false,
      "normalized": false,
      "special": true
    },
    {
      "id": 207,
      "content": "<0xC9>",
      "single_word": false,
      "lstrip": false,
      "rstrip": false,
      "normalized": false,
      "special": true
    },
    {
      "id": 208,
      "content": "<0xCA>",
      "single_word": false,
      "lstrip": false,
      "rstrip": false,
      "normalized": false,
      "special": true
    },
    {
      "id": 209,
      "content": "<0xCB>",
      "single_word": false,
      "lstrip": false,
      "rstrip": false,
      "normalized": false,
      "special": true
    },
    {
      "id": 210,
      "content": "<0xCC>",
      "single_word": false,
      "lstrip": false,
      "rstrip": false,
      "normalized": false,
      "special": true
    },
    {
      "id": 211,
      "content": "<0xCD>",
      "single_word": false,
      "lstrip": false,
      "rstrip": false,
      "normalized": false,
      "special": true
    },
    {
      "id": 212,
      "content": "<0xCE>",
      "single_word": false,
      "lstrip": false,
      "rstrip": false,
      "normalized": false,
      "special": true
    },
    {
      "id": 213,
      "content": "<0xCF>",
      "single_word": false,
      "lstrip": false,
      "rstrip": false,
      "normalized": false,
      "special": true
    },
    {
      "id": 214,
      "content": "<0xD0>",
      "single_word": false,
      "lstrip": false,
      "rstrip": false,
      "normalized": false,
      "special": true
    },
    {
      "id": 215,
      "content": "<0xD1>",
      "single_word": false,
      "lstrip": false,
      "rstrip": false,
      "normalized": false,
      "special": true
    },
    {
      "id": 216,
      "content": "<0xD2>",
      "single_word": false,
      "lstrip": false,
      "rstrip": false,
      "normalized": false,
      "special": true
    },
    {
      "id": 217,
      "content": "<0xD3>",
      "single_word": false,
      "lstrip": false,
      "rstrip": false,
      "normalized": false,
      "special": true
    },
    {
      "id": 218,
      "content": "<0xD4>",
      "single_word": false,
      "lstrip": false,
      "rstrip": false,
      "normalized": false,
      "special": true
    },
    {
      "id": 219,
      "content": "<0xD5>",
      "single_word": false,
      "lstrip": false,
      "rstrip": false,
      "normalized": false,
      "special": true
    },
    {
      "id": 220,
      "content": "<0xD6>",
      "single_word": false,
      "lstrip": false,
      "rstrip": false,
      "normalized": false,
      "special": true
    },
    {
      "id": 221,
      "content": "<0xD7>",
      "single_word": false,
      "lstrip": false,
      "rstrip": false,
      "normalized": false,
      "special": true
    },
    {
      "id": 222,
      "content": "<0xD8>",
      "single_word": false,
      "lstrip": false,
      "rstrip": false,
      "normalized": false,
      "special": true
    },
    {
      "id": 223,
      "content": "<0xD9>",
      "single_word": false,
      "lstrip": false,
      "rstrip": false,
      "normalized": false,
      "special": true
    },
    {
      "id": 224,
      "content": "<0xDA>",
      "single_word": false,
      "lstrip": false,
      "rstrip": false,
      "normalized": false,
      "special": true
    },
    {
      "id": 225,
      "content": "<0xDB>",
      "single_word": false,
      "lstrip": false,
      "rstrip": false,
      "normalized": false,
      "special": true
    },
    {
      "id": 226,
      "content": "<0xDC>",
      "single_word": false,
      "lstrip": false,
      "rstrip": false,
      "normalized": false,
      "special": true
    },
    {
      "id": 227,
      "content": "<0xDD>",
      "single_word": false,
      "lstrip": false,
      "rstrip": false,
      "normalized": false,
      "special": true
    },
    {
      "id": 228,
      "content": "<0xDE>",
      "single_word": false,
      "lstrip": false,
      "rstrip": false,
      "normalized": false,
      "special": true
    },
    {
      "id": 229,
      "content": "<0xDF>",
      "single_word": false,
      "lstrip": false,
      "rstrip": false,
      "normalized": false,
      "special": true
    },
    {
      "id": 230,
      "content": "<0xE0>",
      "single_word": false,
      "lstrip": false,
      "rstrip": false,
      "normalized": false,
      "special": true
    },
    {
      "id": 231,
      "content": "<0xE1>",
      "single_word": false,
      "lstrip": false,
      "rstrip": false,
      "normalized": false,
      "special": true
    },
    {
      "id": 232,
      "content": "<0xE2>",
      "single_word": false,
      "lstrip": false,
      "rstrip": false,
      "normalized": false,
      "special": true
    },
    {
      "id": 233,
      "content": "<0xE3>",
      "single_word": false,
      "lstrip": false,
      "rstrip": false,
      "normalized": false,
      "special": true
    },
    {
      "id": 234,
      "content": "<0xE4>",
      "single_word": false,
      "lstrip": false,
      "rstrip": false,
      "normalized": false,
      "special": true
    },
    {
      "id": 235,
      "content": "<0xE5>",
      "single_word": false,
      "lstrip": false,
      "rstrip": false,
      "normalized": false,
      "special": true
    },
    {
      "id": 236,
      "content": "<0xE6>",
      "single_word": false,
      "lstrip": false,
      "rstrip": false,
      "normalized": false,
      "special": true
    },
    {
      "id": 237,
      "content": "<0xE7>",
      "single_word": false,
      "lstrip": false,
      "rstrip": false,
      "normalized": false,
      "special": true
    },
    {
      "id": 238,
      "content": "<0xE8>",
      "single_word": false,
      "lstrip": false,
      "rstrip": false,
      "normalized": false,
      "special": true
    },
    {
      "id": 239,
      "content": "<0xE9>",
      "single_word": false,
      "lstrip": false,
      "rstrip": false,
      "normalized": false,
      "special": true
    },
    {
      "id": 240,
      "content": "<0xEA>",
      "single_word": false,
      "lstrip": false,
      "rstrip": false,
      "normalized": false,
      "special": true
    },
    {
      "id": 241,
      "content": "<0xEB>",
      "single_word": false,
      "lstrip": false,
      "rstrip": false,
      "normalized": false,
      "special": true
    },
    {
      "id": 242,
      "content": "<0xEC>",
      "single_word": false,
      "lstrip": false,
      "rstrip": false,
      "normalized": false,
      "special": true
    },
    {
      "id": 243,
      "content": "<0xED>",
      "single_word": false,
      "lstrip": false,
      "rstrip": false,
      "normalized": false,
      "special": true
    },
    {
      "id": 244,
      "content": "<0xEE>",
      "single_word": false,
      "lstrip": false,
      "rstrip": false,
      "normalized": false,
      "special": true
    },
    {
      "id": 245,
      "content": "<0xEF>",
      "single_word": false,
      "lstrip": false,
      "rstrip": false,
      "normalized": false,
      "special": true
    },
    {
      "id": 246,
      "content": "<0xF0>",
      "single_word": false,
      "lstrip": false,
      "rstrip": false,
      "normalized": false,
      "special": true
    },
    {
      "id": 247,
      "content": "<0xF1>",
      "single_word": false,
      "lstrip": false,
      "rstrip": false,
      "normalized": false,
      "special": true
    },
    {
      "id": 248,
      "content": "<0xF2>",
      "single_word": false,
      "lstrip": false,
      "rstrip": false,
      "normalized": false,
      "special": true
    },
    {
      "id": 249,
      "content": "<0xF3>",
      "single_word": false,
      "lstrip": false,
      "rstrip": false,
      "normalized": false,
      "special": true
    },
    {
      "id": 250,
      "content": "<0xF4>",
      "single_word": false,
      "lstrip": false,
      "rstrip": false,
      "normalized": false,
      "special": true
    },
    {
      "id": 251,
      "content": "<0xF5>",
      "single_word": false,
      "lstrip": false,
      "rstrip": false,
      "normalized": false,
      "special": true
    },
    {
      "id": 252,
      "content": "<0xF6>",
      "single_word": false,
      "lstrip": false,
      "rstrip": false,
      "normalized": false,
      "special": true
    },
    {
      "id": 253,
      "content": "<0xF7>",
      "single_word": false,
      "lstrip": false,
      "rstrip": false,
      "normalized": false,
      "special": true
    },
    {
      "id": 254,
      "content": "<0xF8>",
      "single_word": false,
      "lstrip": false,
      "rstrip": false,
      "normalized": false,
      "special": true
    },
    {
      "id": 255,
      "content": "<0xF9>",
      "single_word": false,
      "lstrip": false,
      "rstrip": false,
      "normalized": false,
      "special": true
    },
    {
      "id": 256,
      "content": "<0xFA>",
      "single_word": false,
      "lstrip": false,
      "rstrip": false,
      "normalized": false,
      "special": true
    },
    {
      "id": 257,
      "content": "<0xFB>",
      "single_word": false,
      "lstrip": false,
      "rstrip": false,
      "normalized": false,
      "special": true
    },
    {
      "id": 258,
      "content": "<0xFC>",
      "single_word": false,
      "lstrip": false,
      "rstrip": false,
      "normalized": false,
      "special": true
    },
    {
      "id": 259,
      "content": "<0xFD>",
      "single_word": false,
      "lstrip": false,
      "rstrip": false,
      "normalized": false,
      "special": true
    },
    {
      "id": 260,
      "content": "<0xFE>",
      "single_word": false,
      "lstrip": false,
      "rstrip": false,
      "normalized": false,
      "special": true
    },
    {
      "id": 261,
      "content": "<0xFF>",
      "single_word": false,
      "lstrip": false,
      "rstrip": false,
      "normalized": false,
      "special": true
    }
  ],
  "normalizer": null,
  "pre_tokenizer": {
    "type": "ByteLevel",
    "add_prefix_space": false,
    "trim_offsets": true,
    "use_regex": false
  },
  "post_processor": null,
  "decoder": {
    "type": "Sequence",
    "decoders": [
      {
        "type": "ByteFallback"
      },
      {
        "type": "ByteLevel",
        "add_prefix_space": true,
        "trim_offsets": true,
        "use_regex": true
      }
    ]
  },
  "model": {
    "type": "BPE",
    "dropout": null,
    "unk_token": null,
    "continuing_subword_prefix": null,
    "end_of_word_suffix": null,
    "fuse_unk": false,
    "byte_fallback": true,
    "vocab": {
      "<|begin_of_text|>": 0,
      "<|end_of_text|>": 1,
      "<pad>": 2,
      "<|fim_prefix|>": 3,
      "<|fim_middle|>": 4,
      "<|fim_suffix|>": 5,
      "<0x00>": 6,
      "<0x01>": 7,
      "<0x02>": 8,
      "<0x03>": 9,
      "<0x04>": 10,
      "<0x05>": 11,
      "<0x06>": 12,
      "<0x07>": 13,
      "<0x08>": 14,
      "<0x09>": 15,
      "<0x0A>": 16,
      "<0x0B>": 17,
      "<0x0C>": 18,
      "<0x0D>": 19,
      "<0x0E>": 20,
      "<0x0F>": 21,
      "<0x10>": 22,
      "<0x11>": 23,
      "<0x12>": 24,
      "<0x13>": 25,
      "<0x14>": 26,
      "<0x15>": 27,
      "<0x16>": 28,
      "<0x17>": 29,
      "<0x18>": 30,
      "<0x19>": 31,
      "<0x1A>": 32,
      "<0x1B>": 33,
      "<0x1C>": 34,
      "<0x1D>": 35,
      "<0x1E>": 36,
      "<0x1F>": 37,
      "<0x20>": 38,
      "<0x21>": 39,
      "<0x22>": 40,
      "<0x23>": 41,
      "<0x24>": 42,
      "<0x25>": 43,
      "<0x26>": 44,
      "<0x27>": 45,
      "<0x28>": 46,
      "<0x29>": 47,
      "<0x2A>": 48,
      "<0x2B>": 49,
      "<0x2C>": 50,
      "<0x2D>": 51,
      "<0x2E>": 52,
      "<0x2F>": 53,
      "<0x30>": 54,
      "<0x31>": 55,
      "<0x32>": 56,
      "<0x33>": 57,
      "<0x34>": 58,
      "<0x35>": 59,
      "<0x36>": 60,
      "<0x37>": 61,
      "<0x38>": 62,
      "<0x39>": 63,
      "<0x3A>": 64,
      "<0x3B>": 65,
      "<0x3C>": 66,
      "<0x3D>": 67,
      "<0x3E>": 68,
      "<0x3F>": 69,
      "<0x40>": 70,
      "<0x41>": 71,
      "<0x42>": 72,
      "<0x43>": 73,
      "<0x44>": 74,
      "<0x45>": 75,
      "<0x46>": 76,
      "<0x47>": 77,
      "<0x48>": 78,
      "<0x49>": 79,
      "<0x4A>": 80,
      "<0x4B>": 81,
      "<0x4C>": 82,
      "<0x4D>": 83,
      "<0x4E>": 84,
      "<0x4F>": 85,
      "<0x50>": 86,
      "<0x51>": 87,
      "<0x52>": 88,
      "<0x53>": 89,
      "<0x54>": 90,
      "<0x55>": 91,
      "<0x56>": 92,
      "<0x57>": 93,
      "<0x58>": 94,
      "<0x59>": 95,
      "<0x5A>": 96,
      "<0x5B>": 97,
      "<0x5C>": 98,
      "<0x5D>": 99,
      "<0x5E>": 100,
      "<0x5F>": 101,
      "<0x60>": 102,
      "<0x61>": 103,
      "<0x62>": 104,
      "<0x63>": 105,
      "<0x64>": 106,
      "<0x65>": 107,
      "<0x66>": 108,
      "<0x67>": 109,
      "<0x68>": 110,
      "<0x69>": 111,
      "<0x6A>": 112,
      "<0x6B>": 113,
      "<0x6C>": 114,
      "<0x6D>": 115,
      "<0x6E>": 116,
      "<0x6F>": 117,
      "<0x70>": 118,
      "<0x71>": 119,
      "<0x72>": 120,
      "<0x73>": 121,
      "<0x74>": 122,
      "<0x75>": 123,
      "<0x76>": 124,
      "<0x77>": 125,
      "<0x78>": 126,
      "<0x79>": 127,
      "<0x7A>": 128,
      "<0x7B>": 129,
      "<0x7C>": 130,
      "<0x7D>": 131,
      "<0x7E>": 132,
      "<0x7F>": 133,
      "<0x80>": 134,
      "<0x81>": 135,
      "<0x82>": 136,
      "<0x83>": 137,
      "<0x84>": 138,
      "<0x85>": 139,
      "<0x86>": 140,
      "<0x87>": 141,
      "<0x88>": 142,
      "<0x89>": 143,
      "<0x8A>": 144,
      "<0x8B>": 145,
      "<0x8C>": 146,
      "<0x8D>": 147,
      "<0x8E>": 148,
      "<0x8F>": 149,
      "<0x90>": 150,
      "<0x91>": 151,
      "<0x92>": 152,
      "<0x93>": 153,
      "<0x94>": 154,
      "<0x95>": 155,
      "<0x96>": 156,
      "<0x97>": 157,
      "<0x98>": 158,
      "<0x99>": 159,
      "<0x9A>": 160,
      "<0x9B>": 161,
      "<0x9C>": 162,
      "<0x9D>": 163,
      "<0x9E>": 164,
      "<0x9F>": 165,
      "<0xA0>": 166,
      "<0xA1>": 167,
      "<0xA2>": 168,
      "<0xA3>": 169,
      "<0xA4>": 170,
      "<0xA5>": 171,
      "<0xA6>": 172,
      "<0xA7>": 173,
      "<0xA8>": 174,
      "<0xA9>": 175,
      "<0xAA>": 176,
      "<0xAB>": 177,
      "<0xAC>": 178,
      "<0xAD>": 179,
      "<0xAE>": 180,
      "<0xAF>": 181,
      "<0xB0>": 182,
      "<0xB1>": 183,
      "<0xB2>": 184,
      "<0xB3>": 185,
      "<0xB4>": 186,
      "<0xB5>": 187,
      "<0xB6>": 188,
      "<0xB7>": 189,
      "<0xB8>": 190,
      "<0xB9>": 191,
      "<0xBA>": 192,
      "<0xBB>": 193,
      "<0xBC>": 194,
      "<0xBD>": 195,
      "<0xBE>": 196,
      "<0xBF>": 197,
      "<0xC0>": 198,
      "<0xC1>": 199,
      "<0xC2>": 200,
      "<0xC3>": 201,
      "<0xC4>": 202,
      "<0xC5>": 203,
      "<0xC6>": 204,
      "<0xC7>": 205,
      "<0xC8>": 206,
      "<0xC9>": 207,
      "<0xCA>": 208,
      "<0xCB>": 209,
      "<0xCC>": 210,
      "<0xCD>": 211,
      "<0xCE>": 212,
      "<0xCF>": 213,
      "<0xD0>": 214,
      "<0xD1>": 215,
      "<0xD2>": 216,
      "<0xD3>": 217,
      "<0xD4>": 218,
      "<0xD5>": 219,
      "<0xD6>": 220,
      "<0xD7>": 221,
      "<0xD8>": 222,
      "<0xD9>": 223,
      "<0xDA>": 224,
      "<0xDB>": 225,
      "<0xDC>": 226,
      "<0xDD>": 227,
      "<0xDE>": 228,
      "<0xDF>": 229,
      "<0xE0>": 230,
      "<0xE1>": 231,
      "<0xE2>": 232,
      "<0xE3>": 233,
      "<0xE4>": 234,
      "<0xE5>": 235,
      "<0xE6>": 236,
      "<0xE7>": 237,
      "<0xE8>": 238,
      "<0xE9>": 239,
      "<0xEA>": 240,
      "<0xEB>": 241,
      "<0xEC>": 242,
      "<0xED>": 243,
      "<0xEE>": 244,
      "<0xEF>": 245,
      "<0xF0>": 246,
      "<0xF1>": 247,
      "<0xF2>": 248,
      "<0xF3>": 249,
      "<0xF4>": 250,
      "<0xF5>": 251,
      "<0xF6>": 252,
      "<0xF7>": 253,
      "<0xF8>": 254,
      "<0xF9>": 255,
      "<0xFA>": 256,
      "<0xFB>": 257,
      "<0xFC>": 258,
      "<0xFD>": 259,
      "<0xFE>": 260,
      "<0xFF>": 261,
      "!": 262,
      "\"": 263,
      "#": 264,
      "$": 265,
      "%": 266,
      "&": 267,
      "'": 268,
      "(": 269,
      ")": 270,
      "*": 271,
      "+": 272,
      ",": 273,
      "-": 274,
      ".": 275,
      "/": 276,
      "0": 277,
      "1": 278,
      "2": 279,
      "3": 280,
      "4": 281,
      "5": 282,
      "6": 283,
      "7": 284,
      "8": 285,
      "9": 286,
      ":": 287,
      ";": 288,
      "<": 289,
      "=": 290,
      ">": 291,
      "?": 292,
      "@": 293,
      "A": 294,
      "B": 295,
      "C": 296,
      "D": 297,
      "E": 298,
      "F": 299,
      "G": 300,
      "H": 301,
      "I": 302,
      "J": 303,
      "K": 304,
      "L": 305,
      "M": 306,
      "N": 307,
      "O": 308,
      "P": 309,
      "Q": 310,
      "R": 311,
      "S": 312,
      "T": 313,
      "U": 314,
      "V": 315,
      "W": 316,
      "X": 317,
      "Y": 318,
      "Z": 319,
      "[": 320,
      "\\": 321,
      "]": 322,
      "^": 323,
      "_": 324,
      "`": 325,
      "a": 326,
      "b": 327,
      "c": 328,
      "d": 329,
      "e": 330,
      "f": 331,
      "g": 332,
      "h": 333,
      "i": 334,
      "j": 335,
      "k": 336,
      "l": 337,
      "m": 338,
      "n": 339,
      "o": 340,
      "p": 341,
      "q": 342,
      "r": 343,
      "s": 344,
      "t": 345,
      "u": 346,
      "v": 347,
      "w": 348,
      "x": 349,
      "y": 350,
      "z": 351,
      "{": 352,
      "|": 353,
      "}": 354,
      "~": 355,
      "¡": 356,
      "¢": 357,
      "£": 358,
      "¤": 359,
      "¥": 360,
      "¦": 361,
      "§": 362,
      "¨": 363,
      "©": 364,
      "ª": 365,
      "«": 366,
      "¬": 367,
      "®": 368,
      "¯": 369,
      "°": 370,
      "±": 371,
      "²": 372,
      "³": 373,
      "´": 374,
      "µ": 375,
      "¶": 376,
      "·": 377,
      "¸": 378,
      "¹": 379,
      "º": 380,
      "»": 381,
      "¼": 382,
      "½": 383,
      "¾": 384,
      "¿": 385,
      "Â": 386,
      "Ã": 387,
      "Ä": 388,
      "Å": 389,
      "Æ": 390,
      "Ç": 391,
      "È": 392,
      "É": 393,
      "Ê": 394,
      "Ë": 395,
      "Ì": 396,
      "Í": 397,
      "Î": 398,
      "Ï": 399,
      "Ð": 400,
      "Ñ": 401,
      "Ò": 402,
      "Ó": 403,
      "Ô": 404,
      "Õ": 405,
      "Ö": 406,
      "×": 407,
      "Ø": 408,
      "Ù": 409,
      "Ú": 410,
      "Û": 411,
      "Ü": 412,
      "Ý": 413,
      "Þ": 414,
      "ß": 415,
      "à": 416,
      "á": 417,
      "â": 418,
      "ã": 419,
      "ä": 420,
      "å": 421,
      "æ": 422,
      "ç": 423,
      "è": 424,
      "é": 425,
      "ê": 426,
      "ë": 427,
      "ì": 428,
      "í": 429,
      "î": 430,
      "ï": 431,
      "ð": 432,
      "ñ": 433,
      "ò": 434,
      "ó": 435,
      "ô": 436,
      "Ā": 437,
      "ā": 438,
      "Ă": 439,
      "ă": 440,
      "Ą": 441,
      "ą": 442,
      "ć": 443,
      "Ĉ": 444,
      "ĉ": 445,
      "Ċ": 446,
      "ċ": 447,
      "Č": 448,
      "č": 449,
      "ď": 450,
      "Đ": 451,
      "Ē": 452,
      "ē": 453,
      "Ĕ": 454,
      "ĕ": 455,
      "Ė": 456,
      "Ę": 457,
      "ę": 458,
      "Ě": 459,
      "ě": 460,
      "Ĝ": 461,
      "ĝ": 462,
      "Ğ": 463,
      "ğ": 464,
      "Ġ": 465,
      "ġ": 466,
      "Ģ": 467,
      "ģ": 468,
      "Ĥ": 469,
      "ĥ": 470,
      "Ħ": 471,
      "ħ": 472,
      "Ĩ": 473,
      "ĩ": 474,
      "Ī": 475,
      "ī": 476,
      "Ĭ": 477,
      "ĭ": 478,
      "Į": 479,
      "į": 480,
      "İ": 481,
      "ı": 482,
      "Ĳ": 483,
      "ĳ": 484,
      "Ĵ": 485,
      "ĵ": 486,
      "Ķ": 487,
      "ķ": 488,
      "ĸ": 489,
      "Ĺ": 490,
      "ĺ": 491,
      "Ļ": 492,
      "ļ": 493,
      "Ľ": 494,
      "ľ": 495,
      "Ŀ": 496,
      "ŀ": 497,
      "Ł": 498,
      "ł": 499,
      "Ń": 500,
      "ĠĠ": 501,
      "ĠĠĠĠ": 502,
      "ĠĠĠĠĠĠĠĠ": 503,
      "eĠ": 504,
      "in": 505,
      "er": 506,
      "on": 507,
      "th": 508,
      "tĠ": 509,
      "sĠ": 510,
      "re": 511,
      ",Ġ": 512,
      "ĊĠĠĠĠĠĠĠĠ": 513,
      "en": 514,
      "at": 515,
      "or": 516,
      "an": 517,
      "st": 518,
      "dĠ": 519,
      "al": 520,
      "ĉĉ": 521,
      "ar": 522,
      "ĊĠĠĠĠ": 523,
      "ti": 524,
      "le": 525,
      "=Ġ": 526,
      "se": 527,
      "ou": 528,
      "ing": 529,
      "de": 530,
      "theĠ": 531,
      "fĠ": 532,
      "ro": 533,
      "ic": 534,
      "yĠ": 535,
      "te": 536,
      ");": 537,
      "oĠ": 538,
      "am": 539,
      "ac": 540,
      ")Ġ": 541,
      "as": 542,
      "ĊĊ": 543,
      "et": 544,
      "es": 545,
      "--": 546,
      ":Ġ": 547,
      "is": 548,
      "tion": 549,
      "ur": 550,
      "co": 551,
      "Ċĉĉ": 552,
      "ion": 553,
      "aĠ": 554,
      "ingĠ": 555,
      "it": 556,
      "lo": 557,
      ".Ġ": 558,
      "ĊĠĠĠĠĠĠĠĠĠĠĠĠĠĠĠĠ": 559,
      "tr": 560,
      "ec": 561,
      "el": 562,
      "erĠ": 563,
      "ĊĠĠĠĠĠĠĠĠĠĠĠĠ": 564,
      "//": 565,
      "il": 566,
      "toĠ": 567,
      "ch": 568,
      "ent": 569,
      "mp": 570,
      "con": 571,
      "ofĠ": 572,
      "ig": 573,
      "ad": 574,
      "ag": 575,
      "id": 576,
      "**": 577,
      "un": 578,
      "isĠ": 579,
      "orĠ": 580,
      "andĠ": 581,
      "ul": 582,
      "ab": 583,
      "ate": 584,
      "ap": 585,
      "Ġ=Ġ": 586,
      "inĠ": 587,
      "ation": 588,
      "nĠ": 589,
      "us": 590,
      "Ċĉ": 591,
      "ol": 592,
      "ex": 593,
      "ĊĠĠ": 594,
      "ue": 595,
      "di": 596,
      "ri": 597,
      "Ġ*": 598,
      "cl": 599,
      "me": 600,
      "s.": 601,
      "mĠ": 602,
      "ew": 603,
      "res": 604,
      "atĠ": 605,
      "no": 606,
      "ret": 607,
      "->": 608,
      "pu": 609,
      "pro": 610,
      "ifĠ": 611,
      "get": 612,
      "ce": 613,
      ")Ġ{": 614,
      "alĠ": 615,
      "str": 616,
      "to": 617,
      "um": 618,
      "----": 619,
      "()": 620,
      "retur": 621,
      "ver": 622,
      "lĠ": 623,
      "ter": 624,
      "edĠ": 625,
      "yp": 626,
      "ay": 627,
      "In": 628,
      "ame": 629,
      "asĠ": 630,
      "ĊĠĠĠĠĠĠ": 631,
      "li": 632,
      "Th": 633,
      "ma": 634,
      "mo": 635,
      "qu": 636,
      "fi": 637,
      "si": 638,
      "av": 639,
      "icĠ": 640,
      "ed": 641,
      "anĠ": 642,
      "pl": 643,
      "forĠ": 644,
      "ass": 645,
      "enĠ": 646,
      "returnĠ": 647,
      "}Ċ": 648,
      "bl": 649,
      "ith": 650,
      "=\"": 651,
      "ction": 652,
      "end": 653,
      "po": 654,
      "bu": 655,
      "wh": 656,
      "do": 657,
      "per": 658,
      "==": 659,
      "val": 660,
      "\"Ġ": 661,
      "this": 662,
      ">Ġ": 663,
      "for": 664,
      ";Ċ": 665,
      "sh": 666,
      "our": 667,
      "00": 668,
      "par": 669,
      "oun": 670,
      "</": 671,
      "int": 672,
      "set": 673,
      "ht": 674,
      "::": 675,
      "ĠĠĠĠĠĠĠĠĠĠĠĠĠĠĠĠ": 676,
      "su": 677,
      ".Ċ": 678,
      "(\"": 679,
      "Ġ*Ġ": 680,
      "Con": 681,
      "imp": 682,
      "esĠ": 683,
      "kĠ": 684,
      "op": 685,
      "Ċĉĉĉĉ": 686,
      "bo": 687,
      "onĠ": 688,
      "and": 689,
      "ect": 690,
      "Re": 691,
      "ata": 692,
      "****": 693,
      "ifĠ(": 694,
      "new": 695,
      "with": 696,
      "age": 697,
      "be": 698,
      "ortĠ": 699,
      "stĠ": 700,
      "//Ġ": 701,
      "sp": 702,
      "im": 703,
      "sel": 704,
      "}Ġ": 705,
      "thatĠ": 706,
      "om": 707,
      "ateĠ": 708,
      "ff": 709,
      "com": 710,
      "ir": 711,
      "entĠ": 712,
      "ment": 713,
      "lyĠ": 714,
      "Ċĉĉĉ": 715,
      "}ĊĊ": 716,
      "('": 717,
      "();": 718,
      "ser": 719,
      "ct": 720,
      "hĠ": 721,
      "itĠ": 722,
      "ype": 723,
      "St": 724,
      "ist": 725,
      "ess": 726,
      "fun": 727,
      "ang": 728,
      "âĢ": 729,
      "Str": 730,
      "fin": 731,
      "publ": 732,
      "##": 733,
      "arĠ": 734,
      "tex": 735,
      "fro": 736,
      "gr": 737,
      "ack": 738,
      "sc": 739,
      "self": 740,
      "em": 741,
      "s,Ġ": 742,
      "up": 743,
      "Ġ(": 744,
      "ow": 745,
      "able": 746,
      "withĠ": 747,
      "ve": 748,
      "leĠ": 749,
      "name": 750,
      "\",Ġ": 751,
      "publicĠ": 752,
      "t.": 753,
      "ĊĠĠĠĠĠĠĠĠĠĠĠĠĠĠĠĠĠĠĠĠ": 754,
      "bj": 755,
      "importĠ": 756,
      "--------": 757,
      "idĠ": 758,
      "iz": 759,
      "IĠ": 760,
      "ke": 761,
      "ta": 762,
      "loc": 763,
      "beĠ": 764,
      "-Ġ": 765,
      "der": 766,
      "seĠ": 767,
      "ofĠtheĠ": 768,
      "newĠ": 769,
      "TheĠ": 770,
      "this.": 771,
      "fromĠ": 772,
      "+Ġ": 773,
      "ationĠ": 774,
      "Ex": 775,
      "sion": 776,
      ");Ċ": 777,
      "ath": 778,
      "ren": 779,
      ";Ġ": 780,
      "Pro": 781,
      "vo": 782,
      "ceĠ": 783,
      "lin": 784,
      "he": 785,
      "wor": 786,
      ")Ċ": 787,
      "ĊĠĠĠĠĠĠĠĠĠĠĠĠĠĠĠĠĠĠĠĠĠĠĠĠ": 788,
      "if": 789,
      "areĠ": 790,
      "form": 791,
      "deĠ": 792,
      "all": 793,
      "err": 794,
      "oo": 795,
      "function": 796,
      "ult": 797,
      "ouĠ": 798,
      "intĠ": 799,
      "\">": 800,
      ";ĊĠĠĠĠ": 801,
      "ption": 802,
      "'Ġ": 803,
      "vi": 804,
      "ev": 805,
      "data": 806,
      "ase": 807,
      "ut": 808,
      "',Ġ": 809,
      "oc": 810,
      "class": 811,
      "the": 812,
      "ite": 813,
      ".get": 814,
      ");ĊĠĠĠĠĠĠĠĠ": 815,
      "|Ġ": 816,
      "veĠ": 817,
      "du": 818,
      "comp": 819,
      "out": 820,
      "stat": 821,
      "ge": 822,
      "ight": 823,
      "col": 824,
      "notĠ": 825,
      "..": 826,
      ");ĊĠĠĠĠ": 827,
      "__": 828,
      "&Ġ": 829,
      "eĠ=Ġ": 830,
      "ĠĠĠ": 831,
      "))": 832,
      "pĠ": 833,
      "ra": 834,
      "=>Ġ": 835,
      "que": 836,
      ";ĊĊ": 837,
      "ER": 838,
      "fa": 839,
      "==Ġ": 840,
      "Ch": 841,
      "*Ġ": 842,
      "ereĠ": 843,
      "gin": 844,
      "text": 845,
      "$Ġ": 846,
      "ph": 847,
      "self.": 848,
      "cre": 849,
      "ort": 850,
      "add": 851,
      "Co": 852,
      "param": 853,
      "thisĠ": 854,
      "sĠ=Ġ": 855,
      "\",": 856,
      "au": 857,
      "div": 858,
      "čĊ": 859,
      "====": 860,
      "fig": 861,
      "ext": 862,
      "IN": 863,
      "exp": 864,
      "row": 865,
      "low": 866,
      "youĠ": 867,
      ").": 868,
      "ull": 869,
      "act": 870,
      "constĠ": 871,
      "oul": 872,
      "app": 873,
      "put": 874,
      "En": 875,
      "_{": 876,
      "byĠ": 877,
      "ty": 878,
      "s(": 879,
      "value": 880,
      "type": 881,
      "ure": 882,
      "pri": 883,
      "hav": 884,
      "ign": 885,
      "pr": 886,
      "#Ġ": 887,
      "log": 888,
      "del": 889,
      "ourĠ": 890,
      "inĠtheĠ": 891,
      "',": 892,
      "tedĠ": 893,
      "********": 894,
      "code": 895,
      "20": 896,
      "String": 897,
      "cont": 898,
      "est": 899,
      "rr": 900,
      "ref": 901,
      "ip": 902,
      "Fi": 903,
      "vic": 904,
      "min": 905,
      "cur": 906,
      "ft": 907,
      "{Ġ": 908,
      "Mo": 909,
      "allĠ": 910,
      "tp": 911,
      "fo": 912,
      "No": 913,
      "Name": 914,
      "To": 915,
      "ON": 916,
      "tĠ=Ġ": 917,
      "adĠ": 918,
      "we": 919,
      "er.": 920,
      ";ĊĠĠĠĠĠĠĠĠ": 921,
      "quest": 922,
      "]Ġ": 923,
      "Val": 924,
      "arg": 925,
      "Res": 926,
      "ST": 927,
      "wasĠ": 928,
      "s_": 929,
      ")ĊĠĠĠĠĠĠĠĠ": 930,
      "dex": 931,
      "De": 932,
      "file": 933,
      "ace": 934,
      "ouldĠ": 935,
      "atch": 936,
      "outĠ": 937,
      "bject": 938,
      "ne": 939,
      "ong": 940,
      "aseĠ": 941,
      "Id": 942,
      ")ĊĠĠĠĠ": 943,
      "iĠ": 944,
      "0.": 945,
      "E_": 946,
      "List": 947,
      "sy": 948,
      "tionĠ": 949,
      "test": 950,
      "one": 951,
      "mar": 952,
      "voidĠ": 953,
      "/Ġ": 954,
      "varĠ": 955,
      "illĠ": 956,
      "clu": 957,
      "dis": 958,
      "An": 959,
      "inter": 960,
      "siz": 961,
      "{ĊĠĠĠĠĠĠĠĠ": 962,
      "Ġ*/": 963,
      "ans": 964,
      "nam": 965,
      "stan": 966,
      "haveĠ": 967,
      "['": 968,
      "($": 969,
      "time": 970,
      "igh": 971,
      "pre": 972,
      "string": 973,
      "read": 974,
      "d_": 975,
      "tic": 976,
      "y,Ġ": 977,
      "0Ġ": 978,
      "so": 979,
      "ber": 980,
      "num": 981,
      "alse": 982,
      "Type": 983,
      "pon": 984,
      "()Ġ": 985,
      "),Ġ": 986,
      "RE": 987,
      "keĠ": 988,
      "coun": 989,
      "fr": 990,
      "art": 991,
      "Tr": 992,
      "class=\"": 993,
      "{\\": 994,
      "Ġ*Ġ@": 995,
      "},": 996,
      "fil": 997,
      "Ð¾": 998,
      ";ĊimportĠ": 999,
      "ll": 1000,
      "ableĠ": 1001,
      "are": 1002,
      "ageĠ": 1003,
      "dow": 1004,
      "weĠ": 1005,
      "1Ġ": 1006,
      "stru": 1007,
      "canĠ": 1008,
      "\"\"": 1009,
      "oneĠ": 1010,
      "useĠ": 1011,
      ")Ġ{ĊĠĠĠĠĠĠĠĠ": 1012,
      "s/": 1013,
      "abel": 1014,
      "xĠ": 1015,
      "Se": 1016,
      "len": 1017,
      "ener": 1018,
      "}ĊĊĠĠĠĠ": 1019,
      "ast": 1020,
      "tho": 1021,
      "ID": 1022,
      "pp": 1023,
      "'sĠ": 1024,
      "ĉĉĉĉ": 1025,
      "),": 1026,
      "0,Ġ": 1027,
      "user": 1028,
      "toĠtheĠ": 1029,
      "(Ġ": 1030,
      "true": 1031,
      "ire": 1032,
      "AT": 1033,
      "e.": 1034,
      "Ser": 1035,
      "null": 1036,
      "thĠ": 1037,
      "']": 1038,
      "http": 1039,
      "////": 1040,
      "<Ġ": 1041,
      "date": 1042,
      "2Ġ": 1043,
      "assĠ": 1044,
      "{ĊĠĠĠĠ": 1045,
      "s.Ġ": 1046,
      "eld": 1047,
      "m_": 1048,
      "tri": 1049,
      "priv": 1050,
      "/**": 1051,
      "scri": 1052,
      "Sy": 1053,
      "ityĠ": 1054,
      "Bu": 1055,
      "Ad": 1056,
      "comm": 1057,
      "T_": 1058,
      "soĠ": 1059,
      "Data": 1060,
      "chĠ": 1061,
      "Col": 1062,
      "Po": 1063,
      "ource": 1064,
      "-1": 1065,
      "âĢĻ": 1066,
      "io": 1067,
      "ard": 1068,
      "ted": 1069,
      "sub": 1070,
      "t_": 1071,
      "reg": 1072,
      "ayĠ": 1073,
      "ity": 1074,
      "ĊĊĠĠĠĠ": 1075,
      ");ĊĠĠĠĠĠĠĠĠĠĠĠĠ": 1076,
      ",ĠandĠ": 1077,
      "dat": 1078,
      "defĠ": 1079,
      "ception": 1080,
      "----------------": 1081,
      "br": 1082,
      "ichĠ": 1083,
      "typ": 1084,
      "Ðµ": 1085,
      "path": 1086,
      ".ĊĊ": 1087,
      "son": 1088,
      "iv": 1089,
      "EN": 1090,
      "ak": 1091,
      "stem": 1092,
      "enti": 1093,
      "ory": 1094,
      "Com": 1095,
      "ach": 1096,
      "use": 1097,
      "}ĊĠĠĠĠ": 1098,
      "cor": 1099,
      "sĠandĠ": 1100,
      "ild": 1101,
      "sĠofĠ": 1102,
      "s:": 1103,
      "inclu": 1104,
      "$\\": 1105,
      "ureĠ": 1106,
      "now": 1107,
      "ĊĠĠĠĠĠĠĠĠĠĠ": 1108,
      "Par": 1109,
      ":Ġ\"": 1110,
      "Cl": 1111,
      ":Ġ'": 1112,
      "ava": 1113,
      "willĠ": 1114,
      "OR": 1115,
      "til": 1116,
      "list": 1117,
      "false": 1118,
      "rou": 1119,
      "Lo": 1120,
      "staticĠ": 1121,
      "Vi": 1122,
      ";Ċĉ": 1123,
      "s[": 1124,
      "``": 1125,
      "arr": 1126,
      "functionĠ": 1127,
      "Ð°": 1128,
      "Un": 1129,
      "For": 1130,
      "lement": 1131,
      "oth": 1132,
      "pt": 1133,
      "ueĠ": 1134,
      "1.": 1135,
      "asser": 1136,
      ");ĊĊ": 1137,
      "tim": 1138,
      "key": 1139,
      "ho": 1140,
      "ial": 1141,
      "size": 1142,
      "org": 1143,
      "ub": 1144,
      "ell": 1145,
      "this->": 1146,
      "ctĠ": 1147,
      "cess": 1148,
      "ãģ": 1149,
      "lock": 1150,
      "Get": 1151,
      ";ĊĠĠ": 1152,
      "defin": 1153,
      "requ": 1154,
      "StringĠ": 1155,
      "privateĠ": 1156,
      "aw": 1157,
      "Cont": 1158,
      "man": 1159,
      "):": 1160,
      "ator": 1161,
      "ces": 1162,
      "ound": 1163,
      "ĠÐ": 1164,
      "ari": 1165,
      "AL": 1166,
      "ain": 1167,
      "Set": 1168,
      "mentĠ": 1169,
      "essage": 1170,
      "Sh": 1171,
      "pe": 1172,
      "\\n": 1173,
      "fl": 1174,
      "ffer": 1175,
      "view": 1176,
      "Err": 1177,
      "atedĠ": 1178,
      "begin": 1179,
      "tain": 1180,
      ",Ġ\"": 1181,
      "ectĠ": 1182,
      "label": 1183,
      "####": 1184,
      "///Ġ": 1185,
      "le.": 1186,
      "error": 1187,
      "{ĊĠĠĠĠĠĠĠĠĠĠĠĠ": 1188,
      "?Ġ": 1189,
      "View": 1190,
      "!=Ġ": 1191,
      "classĠ": 1192,
      "sĠtoĠ": 1193,
      "yourĠ": 1194,
      "aceĠ": 1195,
      "amp": 1196,
      "ingĠtheĠ": 1197,
      "whichĠ": 1198,
      "10": 1199,
      "fir": 1200,
      "qual": 1201,
      ".ĠI": 1202,
      "config": 1203,
      "butĠ": 1204,
      "oreĠ": 1205,
      "index": 1206,
      "AR": 1207,
      "go": 1208,
      "elseĠ": 1209,
      "}}": 1210,
      "back": 1211,
      "ameĠ": 1212,
      "Exception": 1213,
      "Ċĉĉĉĉĉ": 1214,
      "ind": 1215,
      "work": 1216,
      "math": 1217,
      "rent": 1218,
      "Ð¸": 1219,
      "right": 1220,
      "map": 1221,
      "eck": 1222,
      ";ĊĠĠĠĠĠĠĠĠĠĠĠĠ": 1223,
      "Comp": 1224,
      "caseĠ": 1225,
      "ble": 1226,
      "Ċ\\": 1227,
      "}ĊĠĠĠĠĠĠĠĠ": 1228,
      "mat": 1229,
      "_c": 1230,
      "return": 1231,
      "Ke": 1232,
      "ick": 1233,
      "fe": 1234,
      "Value": 1235,
      "Ċ#": 1236,
      "ml": 1237,
      "========": 1238,
      "ash": 1239,
      "ÑĤ": 1240,
      "0x": 1241,
      "ob": 1242,
      "ton": 1243,
      "allyĠ": 1244,
      "16": 1245,
      "iti": 1246,
      "',Ġ'": 1247,
      "\")": 1248,
      "ustĠ": 1249,
      "option": 1250,
      "1,Ġ": 1251,
      "boo": 1252,
      "cal": 1253,
      "item": 1254,
      "pres": 1255,
      "estĠ": 1256,
      ");ĊĠĠ": 1257,
      "load": 1258,
      "create": 1259,
      "$this->": 1260,
      "s:Ġ": 1261,
      "ust": 1262,
      ".ĠTheĠ": 1263,
      "fault": 1264,
      "ument": 1265,
      "sign": 1266,
      "ati": 1267,
      "DE": 1268,
      "irĠ": 1269,
      "ize": 1270,
      "ere": 1271,
      "ightĠ": 1272,
      "]Ġ=Ġ": 1273,
      "ask": 1274,
      "result": 1275,
      "AĠ": 1276,
      "_C": 1277,
      "sĠtheĠ": 1278,
      "ThisĠ": 1279,
      "ĊĠĠĠĠĠĠĠĠĠĠĠĠĠĠĠĠĠĠĠĠĠĠĠĠĠĠĠĠ": 1280,
      "Ar": 1281,
      "Ac": 1282,
      "of": 1283,
      "SE": 1284,
      "^{": 1285,
      "_id": 1286,
      "teĠ": 1287,
      "vice": 1288,
      "respon": 1289,
      "div>": 1290,
      "action": 1291,
      "hasĠ": 1292,
      "play": 1293,
      "ãĥ": 1294,
      "'tĠ": 1295,
      "temp": 1296,
      "UL": 1297,
      "model": 1298,
      "spec": 1299,
      "Bo": 1300,
      "owĠ": 1301,
      "doc": 1302,
      "ear": 1303,
      "System": 1304,
      "AN": 1305,
      "sum": 1306,
      "2.": 1307,
      "\",Ġ\"": 1308,
      "array": 1309,
      "Ð½": 1310,
      "`Ġ": 1311,
      "čĊĠĠĠĠĠĠĠĠ": 1312,
      "derĠ": 1313,
      "Test": 1314,
      "ste": 1315,
      "_p": 1316,
      ");Ċĉĉ": 1317,
      "_t": 1318,
      "obj": 1319,
      "end{": 1320,
      "usingĠ": 1321,
      "LE": 1322,
      "Al": 1323,
      "print": 1324,
      "begin{": 1325,
      "wid": 1326,
      "emp": 1327,
      "ader": 1328,
      "ence": 1329,
      "java": 1330,
      "Ev": 1331,
      "char": 1332,
      "Object": 1333,
      "</div>": 1334,
      "File": 1335,
      "ery": 1336,
      "run": 1337,
      "tit": 1338,
      ");Ċĉ": 1339,
      "divĠ": 1340,
      "dedĠ": 1341,
      "verĠ": 1342,
      "antĠ": 1343,
      "****************": 1344,
      "čĊĠĠĠĠ": 1345,
      "es.": 1346,
      "(\\": 1347,
      ")Ġ{ĊĠĠĠĠĠĠĠĠĠĠĠĠ": 1348,
      "Error": 1349,
      "yle": 1350,
      "19": 1351,
      "<divĠ": 1352,
      "].": 1353,
      "request": 1354,
      "line": 1355,
      "ãĤ": 1356,
      "12": 1357,
      "().": 1358,
      "bre": 1359,
      "*/": 1360,
      "getĠ": 1361,
      ",ĠtheĠ": 1362,
      "berĠ": 1363,
      "grou": 1364,
      "stringĠ": 1365,
      "sw": 1366,
      "32": 1367,
      "letĠ": 1368,
      "paramĠ": 1369,
      "trans": 1370,
      "')": 1371,
      "Ti": 1372,
      "stance": 1373,
      "ant": 1374,
      "by": 1375,
      "[]": 1376,
      "setĠ": 1377,
      "pa": 1378,
      "indow": 1379,
      "Wh": 1380,
      "SĠ": 1381,
      "sele": 1382,
      "metho": 1383,
      "elĠ": 1384,
      "lay": 1385,
      "wr": 1386,
      "doĠ": 1387,
      "cĠ": 1388,
      "Ð¾Ð": 1389,
      "Ite": 1390,
      "onĠtheĠ": 1391,
      "++": 1392,
      "node": 1393,
      "leng": 1394,
      "eta": 1395,
      "pos": 1396,
      "state": 1397,
      "ken": 1398,
      "Ċĉĉĉĉĉĉ": 1399,
      "roll": 1400,
      "tribu": 1401,
      "cri": 1402,
      "count": 1403,
      "_s": 1404,
      "over": 1405,
      "d.": 1406,
      ")Ġ{ĊĠĠĠĠ": 1407,
      "finalĠ": 1408,
      "enceĠ": 1409,
      "Text": 1410,
      "try": 1411,
      "achĠ": 1412,
      "max": 1413,
      "Key": 1414,
      "dy": 1415,
      "ÑĢ": 1416,
      "whenĠ": 1417,
      "ream": 1418,
      "includeĠ": 1419,
      "std": 1420,
      "ill": 1421,
      "plic": 1422,
      "ine": 1423,
      "com/": 1424,
      "dataĠ": 1425,
      "ann": 1426,
      "ĠĠĠĠĠĠĠĠĠĠĠĠ": 1427,
      "ms": 1428,
      "hisĠ": 1429,
      "S_": 1430,
      "&&Ġ": 1431,
      "require": 1432,
      "By": 1433,
      "ä¸": 1434,
      "pack": 1435,
      "heĠ": 1436,
      "TĠ": 1437,
      "omeĠ": 1438,
      "base": 1439,
      "ss": 1440,
      "gĠ": 1441,
      "ient": 1442,
      "ange": 1443,
      "AM": 1444,
      "ledĠ": 1445,
      "hand": 1446,
      "forĠtheĠ": 1447,
      "/*Ġ": 1448,
      "((": 1449,
      "left": 1450,
      "At": 1451,
      ">ĊĠĠĠĠĠĠĠĠ": 1452,
      "arch": 1453,
      "Au": 1454,
      "ersĠ": 1455,
      ")ĊĊ": 1456,
      "TE": 1457,
      "event": 1458,
      "Ñģ": 1459,
      "ĊĠĠĠĠĠ*Ġ": 1460,
      "etĠ": 1461,
      "mu": 1462,
      "Map": 1463,
      "_in": 1464,
      "rel": 1465,
      "Me": 1466,
      "raw": 1467,
      "myĠ": 1468,
      "\"Ċ": 1469,
      ".h": 1470,
      "ideĠ": 1471,
      "'Ġ=>Ġ": 1472,
      "start": 1473,
      "3Ġ": 1474,
      "sa": 1475,
      "s://": 1476,
      "Or": 1477,
      "ongĠ": 1478,
      "||Ġ": 1479,
      "cr": 1480,
      "net": 1481,
      "pi": 1482,
      "ci": 1483,
      "}Ċ\\": 1484,
      "off": 1485,
      "moreĠ": 1486,
      "https://": 1487,
      "onlyĠ": 1488,
      "bleĠ": 1489,
      "assert": 1490,
      "nec": 1491,
      "Man": 1492,
      "Cre": 1493,
      ",ĊĠĠĠĠĠĠĠĠĠĠĠĠĠĠĠĠ": 1494,
      "dic": 1495,
      "TI": 1496,
      ",ĊĠĠĠĠ": 1497,
      "Config": 1498,
      "rite": 1499,
      "putĠ": 1500,
      "upĠ": 1501,
      "url": 1502,
      "fol": 1503,
      "main": 1504,
      "ax": 1505,
      "ree": 1506,
      "Arr": 1507,
      "ileĠ": 1508,
      "otherĠ": 1509,
      "AP": 1510,
      "AC": 1511,
      "Add": 1512,
      "dire": 1513,
      "On": 1514,
      "iteĠ": 1515,
      "](": 1516,
      ".set": 1517,
      ";Ċĉĉ": 1518,
      "He": 1519,
      "_P": 1520,
      "tw": 1521,
      "object": 1522,
      "}\\": 1523,
      "Event": 1524,
      "4Ġ": 1525,
      "ger": 1526,
      "Time": 1527,
      "port": 1528,
      "User": 1529,
      "{Ċĉĉ": 1530,
      "ultĠ": 1531,
      "UR": 1532,
      "sionĠ": 1533,
      "ĊĠĠĠĠĠ*Ġ@": 1534,
      "know": 1535,
      "sol": 1536,
      "oundĠ": 1537,
      "State": 1538,
      "_S": 1539,
      "cle": 1540,
      "bĠ": 1541,
      ",ĊĠĠĠĠĠĠĠĠ": 1542,
      ")ĊĠĠĠĠĠĠĠĠĠĠĠĠ": 1543,
      "Stat": 1544,
      "15": 1545,
      "Path": 1546,
      "[0": 1547,
      "point": 1548,
      "System.": 1549,
      "else": 1550,
      "itsĠ": 1551,
      "mem": 1552,
      "ilĠ": 1553,
      "onent": 1554,
      "As": 1555,
      "<divĠclass=\"": 1556,
      "{ĊĠĠĠĠĠĠĠĠĠĠĠĠĠĠĠĠ": 1557,
      "pleĠ": 1558,
      "d,Ġ": 1559,
      "men": 1560,
      "theyĠ": 1561,
      "olĠ": 1562,
      ".j": 1563,
      "sedĠ": 1564,
      "Sp": 1565,
      "acti": 1566,
      "ĊĠĠĠĠpublicĠ": 1567,
      "check": 1568,
      "čĊĠĠĠĠĠĠĠĠĠĠĠĠ": 1569,
      "ĊĠ*Ġ": 1570,
      "100": 1571,
      "throw": 1572,
      "usĠ": 1573,
      "terĠ": 1574,
      "ackĠ": 1575,
      "RO": 1576,
      "noĠ": 1577,
      "LO": 1578,
      "flo": 1579,
      "Item": 1580,
      "iter": 1581,
      "field": 1582,
      "p.": 1583,
      "endĠ": 1584,
      ",ĊĠĠĠĠĠĠĠĠĠĠĠĠ": 1585,
      "can": 1586,
      "db": 1587,
      "Typ": 1588,
      "Array": 1589,
      "ionĠ": 1590,
      "ĠĠĠĠĠĠĠĠĠĠĠĠĠĠĠĠĠĠĠĠ": 1591,
      "hel": 1592,
      "////////": 1593,
      "les": 1594,
      "}Ċĉ": 1595,
      "arget": 1596,
      "ok": 1597,
      "sĠinĠ": 1598,
      "util": 1599,
      "typeĠ": 1600,
      "Inter": 1601,
      "order": 1602,
      "sition": 1603,
      ":=Ġ": 1604,
      "hadĠ": 1605,
      "eter": 1606,
      "sĠareĠ": 1607,
      "rc": 1608,
      "anyĠ": 1609,
      "Qu": 1610,
      "18": 1611,
      "Index": 1612,
      "mis": 1613,
      "if(": 1614,
      "descri": 1615,
      "ardĠ": 1616,
      "goo": 1617,
      "shouldĠ": 1618,
      "gener": 1619,
      "equ": 1620,
      "ctor": 1621,
      "_tĠ": 1622,
      "break": 1623,
      "std::": 1624,
      "();ĊĠĠĠĠĠĠĠĠ": 1625,
      "}ĠelseĠ": 1626,
      "theirĠ": 1627,
      ")Ċĉ": 1628,
      "valid": 1629,
      "content": 1630,
      "auth": 1631,
      "ore": 1632,
      "Param": 1633,
      "es,Ġ": 1634,
      "default": 1635,
      "ject": 1636,
      "proper": 1637,
      "aryĠ": 1638,
      "Field": 1639,
      "mon": 1640,
      "umĠ": 1641,
      "istĠ": 1642,
      "vari": 1643,
      "{Ċĉ": 1644,
      "ly": 1645,
      "input": 1646,
      "contain": 1647,
      "produ": 1648,
      "call": 1649,
      "valu": 1650,
      "Up": 1651,
      "astĠ": 1652,
      "x.": 1653,
      "25": 1654,
      "ctionĠ": 1655,
      "ï¼": 1656,
      "umn": 1657,
      "aph": 1658,
      "aboutĠ": 1659,
      "64": 1660,
      "group": 1661,
      "sch": 1662,
      "âĢĻsĠ": 1663,
      "ful": 1664,
      "Log": 1665,
      "structĠ": 1666,
      "likeĠ": 1667,
      ";ĊĊĠĠĠĠ": 1668,
      "ont": 1669,
      "ech": 1670,
      "ot": 1671,
      "lete": 1672,
      "erĠ=Ġ": 1673,
      "wouldĠ": 1674,
      "timeĠ": 1675,
      "ish": 1676,
      "met": 1677,
      "ghĠ": 1678,
      "FI": 1679,
      "ting": 1680,
      ");ĊĠĠĠĠĠĠĠĠĠĠĠĠĠĠĠĠ": 1681,
      "čĊĉ": 1682,
      "ary": 1683,
      "}ĊĊĠĠĠĠĠĠĠĠ": 1684,
      "ock": 1685,
      "show": 1686,
      "200": 1687,
      "post": 1688,
      "table": 1689,
      "ĊĊĠĠĠĠĠĠĠĠ": 1690,
      "Int": 1691,
      "ide": 1692,
      "Coun": 1693,
      "Proper": 1694,
      "py": 1695,
      "i.": 1696,
      "ck": 1697,
      "tyĠ": 1698,
      "sl": 1699,
      "AS": 1700,
      "er,Ġ": 1701,
      "remo": 1702,
      "Im": 1703,
      "Model": 1704,
      "../": 1705,
      "isĠaĠ": 1706,
      "but": 1707,
      "word": 1708,
      "style": 1709,
      "ULL": 1710,
      "cent": 1711,
      "Request": 1712,
      "update": 1713,
      "Ver": 1714,
      "gl": 1715,
      "ice": 1716,
      "valueĠ": 1717,
      "wereĠ": 1718,
      "com.": 1719,
      "->Ġ": 1720,
      "ever": 1721,
      "ens": 1722,
      ".ĠTh": 1723,
      "With": 1724,
      "s.Ċ": 1725,
      ");ĊĠĠĠĠĠĠ": 1726,
      "ing.": 1727,
      "DĠ": 1728,
      "vis": 1729,
      ">Ċ": 1730,
      "tribute": 1731,
      "alsoĠ": 1732,
      "clo": 1733,
      "WeĠ": 1734,
      "message": 1735,
      "lang": 1736,
      "Node": 1737,
      "md": 1738,
      "edĠtoĠ": 1739,
      "ateg": 1740,
      "Hand": 1741,
      "New": 1742,
      "dep": 1743,
      "rol": 1744,
      "bet": 1745,
      "sm": 1746,
      "EĠ": 1747,
      "ingĠtoĠ": 1748,
      "ema": 1749,
      "beenĠ": 1750,
      "ample": 1751,
      "ifĠ(!": 1752,
      "title": 1753,
      "Ã©": 1754,
      "Option": 1755,
      "},Ġ": 1756,
      "az": 1757,
      "width": 1758,
      "get_": 1759,
      "mary": 1760,
      "NULL": 1761,
      "Num": 1762,
      "(t": 1763,
      "eseĠ": 1764,
      "amĠ": 1765,
      "Message": 1766,
      "ord": 1767,
      "Be": 1768,
      "()Ġ{": 1769,
      "Info": 1770,
      "length": 1771,
      "withĠtheĠ": 1772,
      "td": 1773,
      "ector": 1774,
      "nc": 1775,
      "color": 1776,
      "whereĠ": 1777,
      "someĠ": 1778,
      "esp": 1779,
      "a.": 1780,
      "sĠthatĠ": 1781,
      "my": 1782,
      "ance": 1783,
      "{ĊĠĠ": 1784,
      "lob": 1785,
      "Equal": 1786,
      "java.": 1787,
      "lineĠ": 1788,
      "D_": 1789,
      "ses": 1790,
      "thenĠ": 1791,
      "TH": 1792,
      "thereĠ": 1793,
      "0000": 1794,
      "late": 1795,
      "org.": 1796,
      "(self": 1797,
      "client": 1798,
      "ĠĠĠĠĠ": 1799,
      "Comment": 1800,
      "sk": 1801,
      "='": 1802,
      "oper": 1803,
      "mul": 1804,
      "mi": 1805,
      "ousĠ": 1806,
      "\\begin{": 1807,
      "nameĠ": 1808,
      "DI": 1809,
      "dĠ=Ġ": 1810,
      "<?": 1811,
      "}ĊĊĉ": 1812,
      "],Ġ": 1813,
      "ache": 1814,
      "whatĠ": 1815,
      "mit": 1816,
      "Ġ=Ġ0": 1817,
      "Respon": 1818,
      "<<Ġ": 1819,
      ".com/": 1820,
      "ush": 1821,
      "Fr": 1822,
      "}Ġ\\": 1823,
      "fore": 1824,
      "er_": 1825,
      "}ĊĠĠĠĠĠĠĠĠĠĠĠĠ": 1826,
      "a_": 1827,
      "block": 1828,
      "SI": 1829,
      "\":Ġ": 1830,
      "fromĠtheĠ": 1831,
      "Cli": 1832,
      "chang": 1833,
      "Per": 1834,
      "p_": 1835,
      "ps": 1836,
      "mb": 1837,
      "Des": 1838,
      "We": 1839,
      "ride": 1840,
      "forĠ(": 1841,
      "gre": 1842,
      "Grou": 1843,
      "tif": 1844,
      "proto": 1845,
      "match": 1846,
      "(),Ġ": 1847,
      "čĊĉĉ": 1848,
      "thanĠ": 1849,
      "cap": 1850,
      "[\"": 1851,
      "aliz": 1852,
      "dou": 1853,
      "Reg": 1854,
      ");ĊĊĠĠĠĠĠĠĠĠ": 1855,
      "2,Ġ": 1856,
      "3.": 1857,
      "dir": 1858,
      "way": 1859,
      "Gr": 1860,
      "(1": 1861,
      "}{": 1862,
      "lev": 1863,
      "lection": 1864,
      "vir": 1865,
      "usedĠ": 1866,
      "curren": 1867,
      "Over": 1868,
      "tryĠ": 1869,
      "âĢľ": 1870,
      "}ĊĊĠĠ": 1871,
      "Ġ\\": 1872,
      "supp": 1873,
      "App": 1874,
      "format": 1875,
      "json": 1876,
      ");ĊĊĠĠĠĠ": 1877,
      "seeĠ": 1878,
      "c_": 1879,
      "icalĠ": 1880,
      "tal": 1881,
      "herĠ": 1882,
      "sĊ": 1883,
      "ud": 1884,
      "open": 1885,
      ">ĊĠĠĠĠĠĠĠĠĠĠĠĠĠĠĠĠ": 1886,
      "gh": 1887,
      "oryĠ": 1888,
      "gu": 1889,
      "Element": 1890,
      "_M": 1891,
      "None": 1892,
      "ĊĠĠĠĠĠ*/": 1893,
      "}ĊĠĠ": 1894,
      "ãĢ": 1895,
      ".ĠH": 1896,
      "UN": 1897,
      "{ĊĠĠĠĠĠĠ": 1898,
      "ute": 1899,
      "+=Ġ": 1900,
      "Fun": 1901,
      "âĢĿ": 1902,
      "image": 1903,
      "pol": 1904,
      "ww": 1905,
      "Loc": 1906,
      "${": 1907,
      "not": 1908,
      "dition": 1909,
      "11": 1910,
      "fix": 1911,
      "();ĊĠĠĠĠ": 1912,
      "query": 1913,
      "frac": 1914,
      ");Ġ": 1915,
      "LI": 1916,
      "firstĠ": 1917,
      "star": 1918,
      "bar": 1919,
      "roid": 1920,
      "[i": 1921,
      "(s": 1922,
      "EC": 1923,
      "sĠaĠ": 1924,
      "0,": 1925,
      "\"\"\"": 1926,
      ";ĊĠĠĠĠĠĠĠĠĠĠĠĠĠĠĠĠ": 1927,
      "TY": 1928,
      "TO": 1929,
      "sĠforĠ": 1930,
      "top": 1931,
      "TR": 1932,
      ";ĊĠĠĠĠ}ĊĊĠĠĠĠ": 1933,
      "core": 1934,
      "Of": 1935,
      ".p": 1936,
      "Dis": 1937,
      "Class": 1938,
      "ave": 1939,
      "ink": 1940,
      "eq": 1941,
      "çļ": 1942,
      "AG": 1943,
      "çļĦ": 1944,
      "justĠ": 1945,
      "anceĠ": 1946,
      ";ĊĠĠĠĠĠĠ": 1947,
      "response": 1948,
      "urn": 1949,
      "Rec": 1950,
      "ation.": 1951,
      "ress": 1952,
      "={": 1953,
      "thingĠ": 1954,
      "x_": 1955,
      "ctedĠ": 1956,
      "```": 1957,
      "uint": 1958,
      "number": 1959,
      "old": 1960,
      "let": 1961,
      "name=\"": 1962,
      "But": 1963,
      "Date": 1964,
      "})": 1965,
      "follow": 1966,
      "ualĠ": 1967,
      "):ĊĠĠĠĠĠĠĠĠ": 1968,
      "Manag": 1969,
      "led": 1970,
      "CO": 1971,
      "LĠ": 1972,
      "\":Ġ\"": 1973,
      "mode": 1974,
      "hi": 1975,
      "fer": 1976,
      "cer": 1977,
      "byte": 1978,
      "Window": 1979,
      "17": 1980,
      "ner": 1981,
      "andĠtheĠ": 1982,
      "ĉĉĉ": 1983,
      "lat": 1984,
      "bin": 1985,
      "isĠtheĠ": 1986,
      "Comment:Ġ": 1987,
      ":ĊĠĠĠĠĠĠĠĠĠĠĠĠ": 1988,
      "Ġ=ĠnewĠ": 1989,
      "f.": 1990,
      "_name": 1991,
      ");Ċĉĉĉ": 1992,
      "14": 1993,
      "status": 1994,
      "Code": 1995,
      "face": 1996,
      "write": 1997,
      "any": 1998,
      "tern": 1999,
      "fromĠ'": 2000,
      "ĠĠĠĠĠĠ": 2001,
      "sq": 2002,
      "Ċ#includeĠ": 2003,
      "Service": 2004,
      "...": 2005,
      "CH": 2006,
      "True": 2007,
      "differ": 2008,
      "actĠ": 2009,
      "mark": 2010,
      "Size": 2011,
      "{Ċĉĉĉ": 2012,
      "########": 2013,
      "toĠbeĠ": 2014,
      "5Ġ": 2015,
      "reeĠ": 2016,
      "Ċĉĉĉĉĉĉĉĉ": 2017,
      "ptĠ": 2018,
      "ten": 2019,
      "sing": 2020,
      "13": 2021,
      "append": 2022,
      "some": 2023,
      "fileĠ": 2024,
      "\\\\": 2025,
      ",ĠbutĠ": 2026,
      ",Ġ'": 2027,
      "scal": 2028,
      "leg": 2029,
      "ĠĠĠĠĠĠĠĠĠĠĠĠĠĠĠĠĠĠĠĠĠĠĠĠ": 2030,
      "yĠ=Ġ": 2031,
      "arn": 2032,
      "link": 2033,
      "IfĠ": 2034,
      "AD": 2035,
      "vid": 2036,
      "context": 2037,
      "Is": 2038,
      "struct": 2039,
      "twoĠ": 2040,
      "orm": 2041,
      "method": 2042,
      "Ð»": 2043,
      "current": 2044,
      "meĠ": 2045,
      "ilder": 2046,
      "n'tĠ": 2047,
      "dule": 2048,
      "Trans": 2049,
      "html": 2050,
      "pass": 2051,
      ";Ċ}ĊĊ": 2052,
      "og": 2053,
      "ule": 2054,
      "c.": 2055,
      "ler": 2056,
      "ĊĊĠĠ": 2057,
      "ank": 2058,
      "Fro": 2059,
      "giv": 2060,
      "down": 2061,
      "info": 2062,
      "YouĠ": 2063,
      "inĠaĠ": 2064,
      "L_": 2065,
      "ature": 2066,
      "box": 2067,
      "fterĠ": 2068,
      "secon": 2069,
      "ustom": 2070,
      "!Ġ": 2071,
      "dev": 2072,
      "Sec": 2073,
      "NO": 2074,
      "ated": 2075,
      "eachĠ": 2076,
      "therĠ": 2077,
      "cy": 2078,
      "element": 2079,
      "================": 2080,
      "%Ġ": 2081,
      ");ĊĠĠĠĠ}ĊĊĠĠĠĠ": 2082,
      "dr": 2083,
      "UI": 2084,
      "Ret": 2085,
      "ineĠ": 2086,
      "find": 2087,
      ",Ġ$": 2088,
      ")Ġ{ĊĠĠĠĠĠĠĠĠĠĠĠĠĠĠĠĠ": 2089,
      "Input": 2090,
      "Form": 2091,
      "day": 2092,
      "src": 2093,
      "place": 2094,
      "defineĠ": 2095,
      "numberĠ": 2096,
      "<?ph": 2097,
      "auseĠ": 2098,
      "iesĠ": 2099,
      "\"Ġ+Ġ": 2100,
      "intoĠ": 2101,
      "atĠtheĠ": 2102,
      "--Ġ": 2103,
      "server": 2104,
      "ork": 2105,
      "čĊĠĠĠĠĠĠĠĠĠĠĠĠĠĠĠĠ": 2106,
      ")ĊĊĠĠĠĠ": 2107,
      "filter": 2108,
      "/*": 2109,
      "mayĠ": 2110,
      ")Ċĉĉ": 2111,
      "Out": 2112,
      "al_": 2113,
      "ele": 2114,
      "sĠ(": 2115,
      "\"]": 2116,
      "g_": 2117,
      "dif": 2118,
      ")ĊĠĠĠĠĠĠĠĠĠĠĠĠĠĠĠĠ": 2119,
      "://": 2120,
      "Ġì": 2121,
      "\",ĊĠĠĠĠĠĠĠĠĠĠĠĠ": 2122,
      "eng": 2123,
      "Dat": 2124,
      "ExceptionĠ": 2125,
      "refer": 2126,
      "DO": 2127,
      "Response": 2128,
      "a,Ġ": 2129,
      "1,": 2130,
      "(x": 2131,
      "Op": 2132,
      ">ĊĠĠĠĠ": 2133,
      "mer": 2134,
      "}Ċĉĉ": 2135,
      "InĠ": 2136,
      "Group": 2137,
      ";Ċĉĉĉ": 2138,
      "AB": 2139,
      "don": 2140,
      "publicĠvoidĠ": 2141,
      "tiv": 2142,
      "howĠ": 2143,
      ".add": 2144,
      "codeĠ": 2145,
      "Color": 2146,
      "parse": 2147,
      "G_": 2148,
      "EX": 2149,
      "whileĠ": 2150,
      "Result": 2151,
      "var": 2152,
      "ellĠ": 2153,
      "_{\\": 2154,
      "summary": 2155,
      "exist": 2156,
      ")Ġ{ĊĠĠĠĠĠĠ": 2157,
      "bt": 2158,
      "android": 2159,
      "Sub": 2160,
      "web": 2161,
      "åı": 2162,
      "Pre": 2163,
      "IO": 2164,
      "></": 2165,
      "canĠbeĠ": 2166,
      "ages": 2167,
      "ForĠ": 2168,
      "Lay": 2169,
      "boolĠ": 2170,
      "graph": 2171,
      "eff": 2172,
      "(c": 2173,
      ")Ġ=>Ġ": 2174,
      "button": 2175,
      "den": 2176,
      "Sele": 2177,
      "tag": 2178,
      "lowĠ": 2179,
      "/**ĊĠĠĠĠĠ*Ġ": 2180,
      "version": 2181,
      "gen": 2182,
      "âĢĵ": 2183,
      "Property": 2184,
      "suc": 2185,
      "Comm": 2186,
      "Action": 2187,
      "Context": 2188,
      "(&": 2189,
      "\\c": 2190,
      "ric": 2191,
      "ade": 2192,
      "ingĠaĠ": 2193,
      "boole": 2194,
      "ref{": 2195,
      "has": 2196,
      "ĊĠĠĠĠ-Ġ": 2197,
      "ES": 2198,
      "elyĠ": 2199,
      "Le": 2200,
      "Client": 2201,
      "prote": 2202,
      "uĠ": 2203,
      "||": 2204,
      "_re": 2205,
      "func": 2206,
      "Pl": 2207,
      "Ġ=Ġ\"": 2208,
      "reĠ": 2209,
      "exec": 2210,
      "bit": 2211,
      "whoĠ": 2212,
      "target": 2213,
      "///Ġ<": 2214,
      "echoĠ": 2215,
      "prop": 2216,
      "thatĠtheĠ": 2217,
      "mod": 2218,
      ")Ġ{Ċĉĉ": 2219,
      "->get": 2220,
      "byĠtheĠ": 2221,
      "Nam": 2222,
      "Sch": 2223,
      "overĠ": 2224,
      "abil": 2225,
      "rĠ": 2226,
      "you": 2227,
      "Arg": 2228,
      "itor": 2229,
      "isĠnotĠ": 2230,
      "(p": 2231,
      "head": 2232,
      "non": 2233,
      "os": 2234,
      "ofĠaĠ": 2235,
      "instance": 2236,
      "search": 2237,
      "##Ġ": 2238,
      "expect": 2239,
      "}$Ġ": 2240,
      "next": 2241,
      "List<": 2242,
      "[1": 2243,
      "foo": 2244,
      "mostĠ": 2245,
      "header": 2246,
      "couldĠ": 2247,
      "stream": 2248,
      "US": 2249,
      "http://": 2250,
      "auto": 2251,
      "CĠ": 2252,
      "output": 2253,
      "ï¼Į": 2254,
      "Ap": 2255,
      "suchĠ": 2256,
      "Table": 2257,
      "ys": 2258,
      "resul": 2259,
      "namesp": 2260,
      "dist": 2261,
      ".ĠIĠ": 2262,
      "uration": 2263,
      "api": 2264,
      "af": 2265,
      "amb": 2266,
      "token": 2267,
      "ing,Ġ": 2268,
      "jo": 2269,
      "vol": 2270,
      "sĠofĠtheĠ": 2271,
      "y_": 2272,
      "Button": 2273,
      "section": 2274,
      "eĠtheĠ": 2275,
      ".ĠS": 2276,
      "ifi": 2277,
      "ail": 2278,
      "âĢĶ": 2279,
      ":ĊĠĠĠĠĠĠĠĠ": 2280,
      "s'": 2281,
      "theseĠ": 2282,
      "formĠ": 2283,
      "C_": 2284,
      "PĠ": 2285,
      "Wid": 2286,
      "Ed": 2287,
      "Override": 2288,
      "Âł": 2289,
      "ĊĠĠĠĠĠĠĠĠĠĠĠĠĠĠ": 2290,
      "servic": 2291,
      "ution": 2292,
      "workĠ": 2293,
      "Status": 2294,
      "year": 2295,
      "init": 2296,
      "document": 2297,
      "void": 2298,
      "last": 2299,
      "bec": 2300,
      "s-": 2301,
      "ual": 2302,
      "Obj": 2303,
      "Tag": 2304,
      "bug": 2305,
      "body": 2306,
      "6Ġ": 2307,
      "Controll": 2308,
      "<aĠ": 2309,
      "then": 2310,
      "makeĠ": 2311,
      "''": 2312,
      "child": 2313,
      "Run": 2314,
      "throu": 2315,
      "ep": 2316,
      "Ht": 2317,
      "sur": 2318,
      "nection": 2319,
      "ĊĠĠĠ": 2320,
      "local": 2321,
      "veryĠ": 2322,
      "fact": 2323,
      "align": 2324,
      "source": 2325,
      "m.": 2326,
      "ai": 2327,
      "medi": 2328,
      "Ðº": 2329,
      "\\right": 2330,
      "sheĠ": 2331,
      "description": 2332,
      "8Ġ": 2333,
      "multi": 2334,
      "ng": 2335,
      "Util": 2336,
      "expec": 2337,
      "inte": 2338,
      "ithub": 2339,
      "tiveĠ": 2340,
      "cop": 2341,
      "store": 2342,
      "build": 2343,
      ",Ċ": 2344,
      "objectĠ": 2345,
      "ativeĠ": 2346,
      "Image": 2347,
      "ĊimportĠ": 2348,
      "()ĊĠĠĠĠ": 2349,
      "Imp": 2350,
      "0.0": 2351,
      "plication": 2352,
      "24": 2353,
      "===Ġ": 2354,
      "textĠ": 2355,
      "_de": 2356,
      "icro": 2357,
      "window": 2358,
      "thou": 2359,
      "_Ġ": 2360,
      "_I": 2361,
      "endsĠ": 2362,
      "\"></": 2363,
      "sameĠ": 2364,
      "willĠbeĠ": 2365,
      "page": 2366,
      "td>": 2367,
      "čĊčĊ": 2368,
      "cript": 2369,
      "();ĊĠĠĠĠĠĠĠĠĠĠĠĠ": 2370,
      "ies": 2371,
      "ourceĠ": 2372,
      "valĠ": 2373,
      "MP": 2374,
      "ialĠ": 2375,
      "betwe": 2376,
      "href": 2377,
      "uni": 2378,
      "component": 2379,
      "Create": 2380,
      "Box": 2381,
      "initi": 2382,
      "Token": 2383,
      "goog": 2384,
      "util.": 2385,
      "conn": 2386,
      "first": 2387,
      "errorĠ": 2388,
      "iceĠ": 2389,
      "that": 2390,
      "Metho": 2391,
      "inst": 2392,
      "uc": 2393,
      "\\end{": 2394,
      ".c": 2395,
      "alph": 2396,
      "sin": 2397,
      "att": 2398,
      "column": 2399,
      "super": 2400,
      "Stream": 2401,
      "system": 2402,
      "mathb": 2403,
      "github": 2404,
      "functionĠ(": 2405,
      "span": 2406,
      "iseĠ": 2407,
      "Ñĥ": 2408,
      "Fil": 2409,
      "atorĠ": 2410,
      "longĠ": 2411,
      "to_": 2412,
      "čĊĉĉĉ": 2413,
      "Mar": 2414,
      "MĠ": 2415,
      "()Ġ{ĊĠĠĠĠĠĠĠĠ": 2416,
      "tingĠ": 2417,
      "req": 2418,
      "asy": 2419,
      "ĊĠĠĠĠĠ*": 2420,
      "Base": 2421,
      "b.": 2422,
      "backĠ": 2423,
      "her": 2424,
      ".ĠThisĠ": 2425,
      "Gener": 2426,
      "ication": 2427,
      "position": 2428,
      ";ĊĊĉ": 2429,
      "./": 2430,
      "oldĠ": 2431,
      "serv": 2432,
      "eldĠ": 2433,
      "From": 2434,
      "ook": 2435,
      "attr": 2436,
      "ĊĊĉ": 2437,
      "\\begin{code": 2438,
      "'Ġ=>Ġ'": 2439,
      "Content": 2440,
      "ĊĊĊ": 2441,
      "0)": 2442,
      "ando": 2443,
      "errĠ": 2444,
      "part": 2445,
      "afterĠ": 2446,
      "is_": 2447,
      "HT": 2448,
      "Call": 2449,
      "equation": 2450,
      "aitĠ": 2451,
      "equal": 2452,
      "publicĠstaticĠ": 2453,
      "M_": 2454,
      "':Ġ": 2455,
      "ict": 2456,
      "Li": 2457,
      "ä»": 2458,
      "JS": 2459,
      "()ĊĠĠĠĠĠĠĠĠ": 2460,
      "Point": 2461,
      "x,Ġ": 2462,
      "host": 2463,
      "@Override": 2464,
      "Attribute": 2465,
      "cul": 2466,
      "project": 2467,
      "mess": 2468,
      "itch": 2469,
      "%%": 2470,
      "under": 2471,
      "flag": 2472,
      "send": 2473,
      "look": 2474,
      "msg": 2475,
      "Fact": 2476,
      "lef": 2477,
      ",ĊĠĠĠĠĠĠ": 2478,
      "[]Ġ": 2479,
      "igin": 2480,
      "FF": 2481,
      "adeĠ": 2482,
      "betweenĠ": 2483,
      "withĠaĠ": 2484,
      "px": 2485,
      "ome": 2486,
      "themĠ": 2487,
      "_r": 2488,
      "Inte": 2489,
      "faultĠ": 2490,
      "\",ĊĠĠĠĠĠĠĠĠĠĠĠĠ\"": 2491,
      "annel": 2492,
      "mustĠ": 2493,
      "geĠ": 2494,
      "wayĠ": 2495,
      "faceĠ": 2496,
      "inform": 2497,
      "ullĠ": 2498,
      "asĠaĠ": 2499,
      "lot": 2500,
      "åĪ": 2501,
      "unit": 2502,
      "adi": 2503,
      "Que": 2504,
      "Cur": 2505,
      "Ġ*/Ċ": 2506,
      "_1": 2507,
      "display": 2508,
      "ãĢĤ": 2509,
      ")ĊĠĠ": 2510,
      "[Ġ": 2511,
      "[0]": 2512,
      "Component": 2513,
      "command": 2514,
      "_F": 2515,
      "frac{": 2516,
      "exportĠ": 2517,
      "float": 2518,
      "gram": 2519,
      "simp": 2520,
      "cord": 2521,
      "velo": 2522,
      ")ĊĠĠĠĠĠĠ": 2523,
      "s\"": 2524,
      "ĠandĠ": 2525,
      "inputĠ": 2526,
      "bi": 2527,
      "stateĠ": 2528,
      "intern": 2529,
      "istr": 2530,
      "process": 2531,
      "vide": 2532,
      "sig": 2533,
      "out.": 2534,
      "Query": 2535,
      "contin": 2536,
      "gg": 2537,
      ";ĊĊimportĠ": 2538,
      "own": 2539,
      "becauseĠ": 2540,
      "All": 2541,
      "Wr": 2542,
      "direct": 2543,
      "function(": 2544,
      ".ĠItĠ": 2545,
      "Label": 2546,
      "appro": 2547,
      "Doc": 2548,
      "Instance": 2549,
      "from": 2550,
      "cted": 2551,
      "env": 2552,
      "wantĠ": 2553,
      "_B": 2554,
      "](https://": 2555,
      "height": 2556,
      ");Ċ}ĊĊ": 2557,
      "\\begin{code}Ċ": 2558,
      "da": 2559,
      "):Ġ": 2560,
      "UT": 2561,
      "TYP": 2562,
      "/>": 2563,
      "Default": 2564,
      "Pr": 2565,
      "f_": 2566,
      "glob": 2567,
      "}$": 2568,
      "code}ĊĊ": 2569,
      "^2": 2570,
      "\\\"": 2571,
      ".Ġ\"": 2572,
      ",ĊĠĠ": 2573,
      "Check": 2574,
      "atingĠ": 2575,
      "(newĠ": 2576,
      "Ċ//": 2577,
      "30": 2578,
      "Ð¼": 2579,
      "3,Ġ": 2580,
      "nil": 2581,
      "CON": 2582,
      "dro": 2583,
      "Ñı": 2584,
      "Read": 2585,
      "ster": 2586,
      "session": 2587,
      "data.": 2588,
      "(i": 2589,
      "Ro": 2590,
      "').": 2591,
      ".ĊTheĠ": 2592,
      "rang": 2593,
      "high": 2594,
      ".ĠA": 2595,
      "Block": 2596,
      "throwĠ": 2597,
      "y.": 2598,
      "er:Ġ": 2599,
      "ed_": 2600,
      "Servic": 2601,
      "DB": 2602,
      "}ĊĠĠĠĠĠĠ": 2603,
      "car": 2604,
      "packageĠ": 2605,
      "eckĠ": 2606,
      "$(": 2607,
      "everĠ": 2608,
      "False": 2609,
      "throughĠ": 2610,
      "I'": 2611,
      "ME": 2612,
      "flow": 2613,
      "okĠ": 2614,
      "Ċ}ĊĊ": 2615,
      "MA": 2616,
      "script": 2617,
      "Fl": 2618,
      "ative": 2619,
      "href=\"": 2620,
      ".S": 2621,
      "Ð²": 2622,
      "asse": 2623,
      ".ĠInĠ": 2624,
      "import": 2625,
      "ugin": 2626,
      ":ĊĊ": 2627,
      "present": 2628,
      "ING": 2629,
      "parti": 2630,
      "<?phpĠ": 2631,
      "Count": 2632,
      "tran": 2633,
      "tity": 2634,
      "Builder": 2635,
      "Function": 2636,
      "icon": 2637,
      "Contain": 2638,
      "und": 2639,
      "p>": 2640,
      "proble": 2641,
      "æľ": 2642,
      "ĊĉĠ*Ġ": 2643,
      ";ĊimportĠorg.": 2644,
      "cell": 2645,
      "\\n\"": 2646,
      "4.": 2647,
      "s()": 2648,
      "namespaceĠ": 2649,
      "resource": 2650,
      "99": 2651,
      ">(": 2652,
      ")Ġ{Ċĉĉĉ": 2653,
      "ties": 2654,
      "};ĊĊ": 2655,
      "////////////////": 2656,
      "ERR": 2657,
      "Pa": 2658,
      "ded": 2659,
      ";ĊĊĠĠĠĠĠĠĠĠ": 2660,
      "}ĊĠĠĠĠĠĠĠĠĠĠĠĠĠĠĠĠ": 2661,
      "Not": 2662,
      "itt": 2663,
      "sid": 2664,
      "thing": 2665,
      "rayĠ": 2666,
      "Update": 2667,
      "RI": 2668,
      "catch": 2669,
      "50": 2670,
      "Asser": 2671,
      "tive": 2672,
      "case": 2673,
      "proces": 2674,
      "ie": 2675,
      "listĠ": 2676,
      "tail": 2677,
      "Resource": 2678,
      "ister": 2679,
      "tĠofĠ": 2680,
      "givenĠ": 2681,
      "stor": 2682,
      "text.": 2683,
      "o.": 2684,
      "comple": 2685,
      "###Ġ": 2686,
      "type=\"": 2687,
      "foreĠ": 2688,
      "stand": 2689,
      "-0": 2690,
      "evenĠ": 2691,
      "dateĠ": 2692,
      "inf": 2693,
      "{ĊĠĠĠĠĠĠĠĠĠĠĠĠĠĠĠĠĠĠĠĠ": 2694,
      "ther": 2695,
      "%s": 2696,
      "ground": 2697,
      "allow": 2698,
      "set_": 2699,
      "remove": 2700,
      "Byte": 2701,
      "()Ġ=>Ġ": 2702,
      "Http": 2703,
      "?>": 2704,
      "por": 2705,
      "loy": 2706,
      ":\"": 2707,
      "ìĿ": 2708,
      "setting": 2709,
      "Ċ\\end{": 2710,
      "norm": 2711,
      "booleanĠ": 2712,
      ";čĊ": 2713,
      "\\cite": 2714,
      "test_": 2715,
      "product": 2716,
      "aĠ=Ġ": 2717,
      "GE": 2718,
      "Null": 2719,
      "w.": 2720,
      "signedĠ": 2721,
      "Requ": 2722,
      "doesĠ": 2723,
      "long": 2724,
      "lib": 2725,
      "iveĠ": 2726,
      "dri": 2727,
      "_2": 2728,
      "Ċĉĉĉĉĉĉĉ": 2729,
      "other": 2730,
      "(f": 2731,
      "pow": 2732,
      "Number": 2733,
      "âĢĿĠ": 2734,
      "Ab": 2735,
      ")Ġ=Ġ": 2736,
      "inkĠ": 2737,
      "draw": 2738,
      ",ĠweĠ": 2739,
      "NS": 2740,
      "ButĠ": 2741,
      "rightĠ": 2742,
      "render": 2743,
      "ĊĠ*": 2744,
      "ular": 2745,
      "Ur": 2746,
      "_f": 2747,
      "ous": 2748,
      "throwsĠ": 2749,
      "tra": 2750,
      "close": 2751,
      "P_": 2752,
      "cel": 2753,
      "module": 2754,
      ");ĊĊĠĠ": 2755,
      "Line": 2756,
      "ĊĠ*Ġ@": 2757,
      "doubleĠ": 2758,
      "Mat": 2759,
      "Tim": 2760,
      "TypeĠ": 2761,
      "identi": 2762,
      "methodĠ": 2763,
      "logg": 2764,
      "parent": 2765,
      "ĠĠĠĠĠĠĠĠĠĠĠĠĠĠĠĠĠĠĠĠĠĠĠĠĠĠĠĠ": 2766,
      "{}": 2767,
      "exper": 2768,
      "ationsĠ": 2769,
      "success": 2770,
      "include": 2771,
      "conver": 2772,
      "itĠisĠ": 2773,
      "ker": 2774,
      "select": 2775,
      "dest": 2776,
      "worl": 2777,
      "defaultĠ": 2778,
      "site": 2779,
      "Oper": 2780,
      "Command": 2781,
      "Can": 2782,
      "extĠ": 2783,
      "example": 2784,
      "bot": 2785,
      "Fe": 2786,
      "mean": 2787,
      "çĶ": 2788,
      ">>": 2789,
      "ĊĠĠĠĠĠ*Ġ@paramĠ": 2790,
      ";ĊusingĠ": 2791,
      "queĠ": 2792,
      "åĲ": 2793,
      "Emp": 2794,
      "And": 2795,
      "handle": 2796,
      "The": 2797,
      "protectedĠ": 2798,
      "Ċ\\begin{": 2799,
      "}čĊ": 2800,
      "extendsĠ": 2801,
      "40": 2802,
      "manyĠ": 2803,
      "book": 2804,
      "ali": 2805,
      "}ĠfromĠ'": 2806,
      "Mode": 2807,
      "Method": 2808,
      "Valid": 2809,
      "plit": 2810,
      "(n": 2811,
      "_b": 2812,
      "âĢĵĠ": 2813,
      "selfĠ": 2814,
      "ich": 2815,
      "TION": 2816,
      "')Ġ": 2817,
      "Page": 2818,
      "<!": 2819,
      "ĠĠĠĠĠĠĠ": 2820,
      "=>": 2821,
      "abase": 2822,
      "ek": 2823,
      "Hel": 2824,
      "vedĠ": 2825,
      "sec": 2826,
      "(self,Ġ": 2827,
      "Row": 2828,
      "AndĠ": 2829,
      "Parameter": 2830,
      "control": 2831,
      "+Ġ\"": 2832,
      "amil": 2833,
      "laĠ": 2834,
      "ationĠofĠ": 2835,
      "center": 2836,
      "differentĠ": 2837,
      "dingĠ": 2838,
      "redĠ": 2839,
      "depend": 2840,
      "ed,Ġ": 2841,
      "Mem": 2842,
      "endif": 2843,
      "Ġ=Ġ0;Ġ": 2844,
      "def": 2845,
      "Ġ=Ġ(": 2846,
      "forĠaĠ": 2847,
      "findĠ": 2848,
      "comeĠ": 2849,
      ":ĊĠĠĠĠĠĠĠĠĠĠĠĠĠĠĠĠ": 2850,
      "anal": 2851,
      ")ĊĠĠĠĠ{ĊĠĠĠĠĠĠĠĠ": 2852,
      "perĠ": 2853,
      "const": 2854,
      "Bl": 2855,
      "sideĠ": 2856,
      "Ñĭ": 2857,
      "):ĊĠĠĠĠ": 2858,
      "llĠ": 2859,
      "Temp": 2860,
      "7Ġ": 2861,
      "a>": 2862,
      "tom": 2863,
      "_m": 2864,
      "Column": 2865,
      "5,Ġ": 2866,
      "ĊĠĠĠĠĠ*/ĊĠĠĠĠpublicĠ": 2867,
      "red": 2868,
      "hash": 2869,
      ".s": 2870,
      "stant": 2871,
      "assertEqual": 2872,
      "buffer": 2873,
      ")ĊĊĠĠĠĠĠĠĠĠ": 2874,
      "tab": 2875,
      "orderĠ": 2876,
      "Char": 2877,
      "Ph": 2878,
      "tonĠ": 2879,
      "template": 2880,
      "&&": 2881,
      "email": 2882,
      "Auth": 2883,
      "github.com/": 2884,
      "level": 2885,
      "čĊĠĠ": 2886,
      "Return": 2887,
      "sync": 2888,
      "aveĠ": 2889,
      "ui": 2890,
      "ItĠ": 2891,
      "s.get": 2892,
      "Source": 2893,
      "origin": 2894,
      "numberĠofĠ": 2895,
      "buf": 2896,
      "ing_": 2897,
      "y(": 2898,
      "s)": 2899,
      "Ċ//Ġ": 2900,
      "Pri": 2901,
      "of(": 2902,
      "termin": 2903,
      "ni": 2904,
      "stop": 2905,
      "keyĠ": 2906,
      "tool": 2907,
      "VER": 2908,
      "\">ĊĠĠĠĠĠĠĠĠĠĠĠĠĠĠĠĠ": 2909,
      "id=\"": 2910,
      "sĠwithĠ": 2911,
      "enc": 2912,
      "itemĠ": 2913,
      "e_": 2914,
      "space": 2915,
      "Play": 2916,
      "move": 2917,
      "s)Ġ": 2918,
      "testĠ": 2919,
      "knowĠ": 2920,
      "PO": 2921,
      "\").": 2922,
      "Do": 2923,
      "acter": 2924,
      "tx": 2925,
      "img": 2926,
      "å®": 2927,
      "Entity": 2928,
      "Task": 2929,
      "**Ġ": 2930,
      "(r": 2931,
      "eĠ=Ġ\"": 2932,
      "ä½": 2933,
      "author": 2934,
      "lessĠ": 2935,
      "frame": 2936,
      "rece": 2937,
      "idĠ=Ġ": 2938,
      ")ĊĠĠĠĠĠĠĠĠ{ĊĠĠĠĠĠĠĠĠĠĠĠĠ": 2939,
      "awaitĠ": 2940,
      "Men": 2941,
      "parameter": 2942,
      "label{": 2943,
      "a-": 2944,
      "avail": 2945,
      "sor": 2946,
      "Manager": 2947,
      "exten": 2948,
      "sizeĠ": 2949,
      "specif": 2950,
      "plan": 2951,
      "pointĠ": 2952,
      "sist": 2953,
      "sql": 2954,
      "mission": 2955,
      "TER": 2956,
      "readĠ": 2957,
      "NameĠ": 2958,
      "Draw": 2959,
      "ven": 2960,
      "Chang": 2961,
      ":ĊĠĠĠĠ": 2962,
      "stanceĠ": 2963,
      "dot": 2964,
      "ptr": 2965,
      "{Ċĉĉĉĉ": 2966,
      "nowĠ": 2967,
      "io.": 2968,
      ");ĊĊĉ": 2969,
      "sole.": 2970,
      "JSON": 2971,
      "make": 2972,
      "admin": 2973,
      "ainĠ": 2974,
      "Format": 2975,
      "ializ": 2976,
      "vector": 2977,
      "ould": 2978,
      "Build": 2979,
      "defined": 2980,
      "URL": 2981,
      "addres": 2982,
      "NAM": 2983,
      "roo": 2984,
      "medĠ": 2985,
      "SC": 2986,
      "possi": 2987,
      "Min": 2988,
      "Pol": 2989,
      "',ĊĠĠĠĠ": 2990,
      "sĠinĠtheĠ": 2991,
      "train": 2992,
      "}Ċ}ĊĊ": 2993,
      "mbol": 2994,
      "=ĠnewĠ": 2995,
      "nav": 2996,
      "zĠ": 2997,
      "Dire": 2998,
      "(2": 2999,
      "Dec": 3000,
      ");ĊĠĠĠĠĠĠĠĠĠĠĠĠĠĠĠĠĠĠĠĠ": 3001,
      "oci": 3002,
      "Spec": 3003,
      "]ĊĠĠĠĠĠĠĠĠ": 3004,
      "categ": 3005,
      "linkĠ": 3006,
      "(self.": 3007,
      "them": 3008,
      "MO": 3009,
      "task": 3010,
      "agesĠ": 3011,
      "iĠ<Ġ": 3012,
      "Collection": 3013,
      "wa": 3014,
      "Ã¡": 3015,
      "Ġ=Ġ'": 3016,
      "Off": 3017,
      "-2": 3018,
      "cs": 3019,
      ";ĊĊĠĠ": 3020,
      "font": 3021,
      "hol": 3022,
      "Vis": 3023,
      "Handler": 3024,
      "i++": 3025,
      "posi": 3026,
      "job": 3027,
      "([": 3028,
      "80": 3029,
      "edĠbyĠ": 3030,
      "Style": 3031,
      "lengthĠ": 3032,
      ")Ġ{Ċĉ": 3033,
      "ump": 3034,
      "service": 3035,
      "btn": 3036,
      "bothĠ": 3037,
      "asĠtheĠ": 3038,
      "opleĠ": 3039,
      "à¦": 3040,
      "java.util.": 3041,
      "Net": 3042,
      "ug": 3043,
      "resol": 3044,
      "custom": 3045,
      "userĠ": 3046,
      "wi": 3047,
      "åħ": 3048,
      "ToĠ": 3049,
      "stud": 3050,
      "delete": 3051,
      "ouse": 3052,
      "Controller": 3053,
      "fulĠ": 3054,
      "partic": 3055,
      "Jo": 3056,
      "_type": 3057,
      "viron": 3058,
      "Server": 3059,
      "Ċ#includeĠ<": 3060,
      "+1": 3061,
      "total": 3062,
      "Leng": 3063,
      "stemĠ": 3064,
      "SP": 3065,
      "vĠ": 3066,
      "Ref": 3067,
      "indĠ": 3068,
      "(this.": 3069,
      "<T": 3070,
      ",\"Ġ": 3071,
      "sequ": 3072,
      "UE": 3073,
      "ĊĊComment:Ġ": 3074,
      "where": 3075,
      "common": 3076,
      "cover": 3077,
      "IC": 3078,
      "\"Ġclass=\"": 3079,
      "ile": 3080,
      "Url": 3081,
      "FĠ": 3082,
      "Answ": 3083,
      "Hash": 3084,
      "cept": 3085,
      "=0": 3086,
      "))Ġ": 3087,
      "}Ċ\\end{": 3088,
      "don'tĠ": 3089,
      "needĠtoĠ": 3090,
      "ession": 3091,
      "Di": 3092,
      "_data": 3093,
      "(constĠ": 3094,
      "form-": 3095,
      "push": 3096,
      "edĠinĠ": 3097,
      "foundĠ": 3098,
      "lic": 3099,
      ".ĠWeĠ": 3100,
      "ense": 3101,
      "attribute": 3102,
      "zer": 3103,
      "ĊĊ#": 3104,
      "000": 3105,
      "unsignedĠ": 3106,
      "{\"": 3107,
      "al.": 3108,
      "e,Ġ": 3109,
      "board": 3110,
      "ickĠ": 3111,
      "develo": 3112,
      "Ã¼": 3113,
      "ÑĮ": 3114,
      "Ð´": 3115,
      "amew": 3116,
      "uleĠ": 3117,
      "expect(": 3118,
      "Del": 3119,
      "nullĠ": 3120,
      "','": 3121,
      "Ġë": 3122,
      "End": 3123,
      "second": 3124,
      "Start": 3125,
      "Control": 3126,
      "}Ċ}Ċ": 3127,
      "location": 3128,
      "member": 3129,
      "resultĠ": 3130,
      "abled": 3131,
      "dec": 3132,
      "edit": 3133,
      "df": 3134,
      "EL": 3135,
      "lamb": 3136,
      "spe": 3137,
      "Buffer": 3138,
      "bil": 3139,
      "X_": 3140,
      "code>": 3141,
      "Vector": 3142,
      "uallyĠ": 3143,
      "org/": 3144,
      "ender": 3145,
      "Web": 3146,
      "empty": 3147,
      "tak": 3148,
      "s::": 3149,
      "ĠĠĠĠĠĠĠĠĠ": 3150,
      "anel": 3151,
      "ribu": 3152,
      "ildĠ": 3153,
      "shap": 3154,
      "beingĠ": 3155,
      "localĠ": 3156,
      "id,Ġ": 3157,
      "æĸ": 3158,
      "][": 3159,
      "ensor": 3160,
      "corre": 3161,
      "}^": 3162,
      "Json": 3163,
      "google.": 3164,
      "ĊĠĠĠĠĠ*/ĊĠĠĠĠ": 3165,
      "è¿": 3166,
      "KE": 3167,
      "cour": 3168,
      "ĠÐ¿": 3169,
      "ĊĠ": 3170,
      "big": 3171,
      "äº": 3172,
      "createĠ": 3173,
      "f(\"": 3174,
      "dayĠ": 3175,
      "xml": 3176,
      "sed": 3177,
      "stack": 3178,
      "itu": 3179,
      "Boo": 3180,
      "22": 3181,
      "thoseĠ": 3182,
      "property": 3183,
      "Met": 3184,
      "bus": 3185,
      "gerĠ": 3186,
      "(0": 3187,
      "ampleĠ": 3188,
      "SS": 3189,
      "withoutĠ": 3190,
      "tiesĠ": 3191,
      "Br": 3192,
      ",ĊĠĠĠĠĠĠĠĠĠĠĠĠĠĠĠĠĠĠĠĠ": 3193,
      "currentĠ": 3194,
      "returnĠfalse": 3195,
      "sureĠ": 3196,
      "5.": 3197,
      "è¯": 3198,
      "offset": 3199,
      "ationalĠ": 3200,
      "click": 3201,
      "tor": 3202,
      "condition": 3203,
      "bas": 3204,
      "OP": 3205,
      "ularĠ": 3206,
      "DAT": 3207,
      "Us": 3208,
      "manag": 3209,
      "answ": 3210,
      "\\left": 3211,
      "edĠtheĠ": 3212,
      "},ĊĠĠĠĠ": 3213,
      "',ĊĠĠĠĠĠĠĠĠ": 3214,
      "expres": 3215,
      "fieldĠ": 3216,
      ">=Ġ": 3217,
      "nilĠ": 3218,
      ",ĠwhichĠ": 3219,
      "posit": 3220,
      "\\ref{": 3221,
      "mak": 3222,
      "mock": 3223,
      "goĠ": 3224,
      "readyĠ": 3225,
      "\");ĊĠĠĠĠĠĠĠĠ": 3226,
      "v_": 3227,
      "peopleĠ": 3228,
      "activ": 3229,
      "(intĠ": 3230,
      "larg": 3231,
      "\")Ġ": 3232,
      "muchĠ": 3233,
      "Version": 3234,
      "t,Ġ": 3235,
      "{{": 3236,
      ",Ċĉĉ": 3237,
      "basedĠ": 3238,
      "Setting": 3239,
      "9Ġ": 3240,
      "Ġ*Ġ@paramĠ": 3241,
      "]Ċ": 3242,
      "fac": 3243,
      "col-": 3244,
      "air": 3245,
      "ward": 3246,
      "Dev": 3247,
      "active": 3248,
      "toĠaĠ": 3249,
      "Provid": 3250,
      "\\cite{": 3251,
      "g.": 3252,
      ");ĊĊĠĠĠĠĠĠĠĠĠĠĠĠ": 3253,
      "clear": 3254,
      "exception": 3255,
      "args": 3256,
      "argument": 3257,
      "Back": 3258,
      "íķ": 3259,
      "mail": 3260,
      ".ĠIfĠ": 3261,
      "==Ġ'": 3262,
      "help": 3263,
      "ableĠtoĠ": 3264,
      "YĠ": 3265,
      "resh": 3266,
      "t(": 3267,
      "beforeĠ": 3268,
      "question": 3269,
      "Write": 3270,
      "incre": 3271,
      "ipĠ": 3272,
      "addĠ": 3273,
      "entity": 3274,
      "rix": 3275,
      "saidĠ": 3276,
      "root": 3277,
      "strong": 3278,
      "tract": 3279,
      "floatĠ": 3280,
      "dur": 3281,
      "downĠ": 3282,
      "FA": 3283,
      "s,ĠandĠ": 3284,
      "virt": 3285,
      "tre": 3286,
      "b_": 3287,
      "stillĠ": 3288,
      "Sc": 3289,
      "qĠ": 3290,
      ".is": 3291,
      "4,Ġ": 3292,
      "Sup": 3293,
      "Filter": 3294,
      "33": 3295,
      "';ĊimportĠ": 3296,
      ")Ġ{Ġ": 3297,
      ")$Ġ": 3298,
      "alpha": 3299,
      "funcĠ": 3300,
      "IT": 3301,
      "K_": 3302,
      "æķ": 3303,
      "again": 3304,
      "pay": 3305,
      "leaseĠ": 3306,
      "Ċ#includeĠ\"": 3307,
      "SO": 3308,
      "patch": 3309,
      "essĠ": 3310,
      "ÑģÑĤ": 3311,
      "summary>ĊĠĠĠĠĠĠĠĠ": 3312,
      "())": 3313,
      "ename": 3314,
      "takeĠ": 3315,
      "underĠ": 3316,
      "countĠ": 3317,
      ":Ċ": 3318,
      "ML": 3319,
      "actionĠ": 3320,
      "Link": 3321,
      "Sto": 3322,
      "entry": 3323,
      "values": 3324,
      "ason": 3325,
      "ms.": 3326,
      "sonĠ": 3327,
      ".ĊĠĠĠĠĠĠĠĠ": 3328,
      "ningĠ": 3329,
      ".ĠĠ": 3330,
      "Ċ{ĊĠĠĠĠ": 3331,
      "followingĠ": 3332,
      "detail": 3333,
      "epĠ": 3334,
      "vers": 3335,
      "meas": 3336,
      "rando": 3337,
      "=1": 3338,
      "loadĠ": 3339,
      "share": 3340,
      "sn": 3341,
      "modelĠ": 3342,
      "paramet": 3343,
      "Valu": 3344,
      "channel": 3345,
      "(b": 3346,
      "IP": 3347,
      "publicĠclassĠ": 3348,
      "mil": 3349,
      "ishĠ": 3350,
      "BO": 3351,
      "os.": 3352,
      "Descri": 3353,
      "60": 3354,
      "âĢĻtĠ": 3355,
      "sinceĠ": 3356,
      "ga": 3357,
      "API": 3358,
      "Exp": 3359,
      "lesĠ": 3360,
      "Header": 3361,
      "name,Ġ": 3362,
      "callĠ": 3363,
      "lastĠ": 3364,
      "time.": 3365,
      "youĠcanĠ": 3366,
      "archĠ": 3367,
      "syn": 3368,
      "variable": 3369,
      "lim": 3370,
      "pop": 3371,
      "lean": 3372,
      "Fir": 3373,
      ";ĊuseĠ": 3374,
      "indic": 3375,
      "www.": 3376,
      "().get": 3377,
      "ientĠ": 3378,
      "Factory": 3379,
      "(*": 3380,
      "Ste": 3381,
      "there": 3382,
      "Bar": 3383,
      "dyĠ": 3384,
      "utionĠ": 3385,
      ".to": 3386,
      "ĊĠĠĠ*Ġ": 3387,
      "switch": 3388,
      "Listener": 3389,
      "---": 3390,
      "WhenĠ": 3391,
      "(m": 3392,
      "VAL": 3393,
      "lex": 3394,
      "stra": 3395,
      "'Ċ": 3396,
      ">Ċ#includeĠ<": 3397,
      "Unit": 3398,
      "alloc": 3399,
      "change": 3400,
      "throwĠnewĠ": 3401,
      "!=Ġnull": 3402,
      "Menu": 3403,
      "Ñĩ": 3404,
      ",ĠIĠ": 3405,
      "uid": 3406,
      "SER": 3407,
      "wantĠtoĠ": 3408,
      "Math": 3409,
      "consid": 3410,
      "ĊĠĠĠĠĠĠĠĠĠĠĠĠ'": 3411,
      "console.": 3412,
      "ote": 3413,
      ",Ġ&": 3414,
      "spr": 3415,
      "copy": 3416,
      "atureĠ": 3417,
      "CT": 3418,
      "Ã¤": 3419,
      "lease": 3420,
      "),ĊĠĠĠĠ": 3421,
      "}Ġ=Ġ": 3422,
      ".h\"": 3423,
      "RĠ": 3424,
      "public": 3425,
      ");Ċĉĉĉĉ": 3426,
      "fail": 3427,
      "=\\": 3428,
      "?Ċ": 3429,
      "orĠ=Ġ": 3430,
      "\"ĊĠĠĠĠ": 3431,
      "cal{": 3432,
      "adata": 3433,
      "resultĠ=Ġ": 3434,
      "cm": 3435,
      "<=Ġ": 3436,
      "Max": 3437,
      "self._": 3438,
      ";ĊĠĠĠĠĠĠĠĠĠĠĠĠĠĠĠĠĠĠĠĠ": 3439,
      "sĠfromĠ": 3440,
      ".re": 3441,
      "ticĠ": 3442,
      "himĠ": 3443,
      "Ma": 3444,
      "implement": 3445,
      "Siz": 3446,
      "quer": 3447,
      "publicĠfunctionĠ": 3448,
      "ln": 3449,
      "../../": 3450,
      "askĠ": 3451,
      "///Ġ</": 3452,
      "appl": 3453,
      "menu": 3454,
      "light": 3455,
      "append(": 3456,
      ",\\": 3457,
      "she": 3458,
      "\"Ċ\"": 3459,
      "cu": 3460,
      "1_": 3461,
      "Ã³": 3462,
      "here": 3463,
      ".ĠHeĠ": 3464,
      "tmp": 3465,
      "systemĠ": 3466,
      "wellĠ": 3467,
      "Pack": 3468,
      "vesĠ": 3469,
      "rowĠ": 3470,
      ")Ċ{Ċĉ": 3471,
      "cat": 3472,
      "ÐµÐ½": 3473,
      "ceptĠ": 3474,
      "madeĠ": 3475,
      "proj": 3476,
      "}Ċĉĉĉ": 3477,
      "lockĠ": 3478,
      "ObjectĠ": 3479,
      "ingĠandĠ": 3480,
      "sty": 3481,
      "application": 3482,
      "Exec": 3483,
      "ation,Ġ": 3484,
      "Load": 3485,
      "1/": 3486,
      "ros": 3487,
      ",Ċĉ": 3488,
      "ÃŃ": 3489,
      "bool": 3490,
      "step": 3491,
      "ert": 3492,
      "etch": 3493,
      "informationĠ": 3494,
      "className": 3495,
      "ene": 3496,
      "thinkĠ": 3497,
      "Produ": 3498,
      "çĶ¨": 3499,
      "Open": 3500,
      "tableĠ": 3501,
      "resp": 3502,
      "Position": 3503,
      "Y_": 3504,
      "startĠ": 3505,
      "Su": 3506,
      "SQ": 3507,
      "ĊĠĠĠĠĠ*Ġ@returnĠ": 3508,
      "side": 3509,
      "entr": 3510,
      "Ċ$": 3511,
      "catchĠ(": 3512,
      "alway": 3513,
      "shouldĠbeĠ": 3514,
      "Tool": 3515,
      "hist": 3516,
      "mathcal{": 3517,
      "acces": 3518,
      "sĠonĠ": 3519,
      "ifĠtheĠ": 3520,
      "ED": 3521,
      "34": 3522,
      "charĠ*": 3523,
      "Layout": 3524,
      "s->": 3525,
      "æĪ": 3526,
      "ures": 3527,
      "Uni": 3528,
      "idd": 3529,
      "arrayĠ": 3530,
      "LE_": 3531,
      "Pu": 3532,
      "l.": 3533,
      "f{": 3534,
      "goodĠ": 3535,
      "mainĠ": 3536,
      "lif": 3537,
      ",ĠintĠ": 3538,
      "Answer:Ġ": 3539,
      "li>": 3540,
      ":Ġstring": 3541,
      "stion": 3542,
      "Work": 3543,
      "amework": 3544,
      "BU": 3545,
      "(C": 3546,
      ")Ċĉĉĉ": 3547,
      "assertĠ": 3548,
      "čĊĉĉĉĉ": 3549,
      "scre": 3550,
      "timesĠ": 3551,
      "Child": 3552,
      "_path": 3553,
      "haveĠaĠ": 3554,
      "bind": 3555,
      "'Ġ+Ġ": 3556,
      "<br": 3557,
      "ĠĠĠĠĠĠĠĠĠĠ": 3558,
      "viewĠ": 3559,
      "}^{": 3560,
      "vec": 3561,
      "abo": 3562,
      "distribu": 3563,
      "everyĠ": 3564,
      "();Ċĉĉ": 3565,
      "\",ĊĠĠĠĠĠĠĠĠ": 3566,
      "s\\": 3567,
      "trueĠ": 3568,
      "connection": 3569,
      ")Ġ{ĊĠĠ": 3570,
      "s[0": 3571,
      "Length": 3572,
      "bel": 3573,
      "_n": 3574,
      "phi": 3575,
      "################": 3576,
      "(ĊĠĠĠĠĠĠĠĠ": 3577,
      "STAT": 3578,
      "<aĠhref=\"": 3579,
      "network": 3580,
      "ship": 3581,
      "clas": 3582,
      ";ĊimportĠcom.": 3583,
      "opt": 3584,
      "person": 3585,
      "allĠtheĠ": 3586,
      "Ċĉ\"": 3587,
      "stu": 3588,
      "ghtĠ": 3589,
      "Lin": 3590,
      "||Ċ": 3591,
      "Vari": 3592,
      "Type.": 3593,
      "ownĠ": 3594,
      "pat": 3595,
      "_0": 3596,
      "icallyĠ": 3597,
      "();Ċ": 3598,
      "dig": 3599,
      "non-": 3600,
      "Lev": 3601,
      "ticalĠ": 3602,
      "inser": 3603,
      "len(": 3604,
      "checkĠ": 3605,
      "Mon": 3606,
      "}ĊĠĠĠĠ}ĊĊĠĠĠĠ": 3607,
      "Ġ+Ġ": 3608,
      "Ġ*/Ċĉ": 3609,
      "<!--Ġ": 3610,
      "s=": 3611,
      "Output": 3612,
      "Cell": 3613,
      "anim": 3614,
      "==Ġ\"": 3615,
      "ION": 3616,
      ">>Ġ": 3617,
      "comment": 3618,
      "cho": 3619,
      "Empty": 3620,
      "ive": 3621,
      "aff": 3622,
      "(this": 3623,
      "UP": 3624,
      ").Ġ": 3625,
      "card": 3626,
      "WhatĠ": 3627,
      "colle": 3628,
      "-\\": 3629,
      "_I/": 3630,
      ",ĠaĠ": 3631,
      ")Ġ->Ġ": 3632,
      "ordin": 3633,
      "plugin": 3634,
      "thread": 3635,
      "åĬ": 3636,
      "ocket": 3637,
      "}ĊĊĉĉ": 3638,
      "region": 3639,
      "come": 3640,
      "amoun": 3641,
      "inc": 3642,
      "term": 3643,
      ")Ċ{ĊĠĠĠĠ": 3644,
      "transform": 3645,
      ").to": 3646,
      "\"))": 3647,
      "eĠofĠ": 3648,
      "Order": 3649,
      "la": 3650,
      "Width": 3651,
      "langu": 3652,
      "loop": 3653,
      "Enum": 3654,
      "prob": 3655,
      "outputĠ": 3656,
      "double": 3657,
      "ources": 3658,
      "hereĠ": 3659,
      "device": 3660,
      "wrap": 3661,
      "groupĠ": 3662,
      "text-": 3663,
      "/**ĊĠ*Ġ": 3664,
      "famil": 3665,
      "Api": 3666,
      "Core": 3667,
      ")Ġ{ĊĠĠĠĠĠĠĠĠĠĠĠĠĠĠĠĠĠĠĠĠ": 3668,
      "addr": 3669,
      "lateĠ": 3670,
      "Rou": 3671,
      ";Ċĉĉĉĉ": 3672,
      "ition": 3673,
      "dd": 3674,
      "':Ġ'": 3675,
      "ER_": 3676,
      "undĠ": 3677,
      "np.": 3678,
      "26": 3679,
      "iĠ=Ġ0;Ġ": 3680,
      "']Ġ=Ġ": 3681,
      "mightĠ": 3682,
      "diff": 3683,
      "spanĠ": 3684,
      "anch": 3685,
      "maĠ": 3686,
      "redu": 3687,
      "Case": 3688,
      "gam": 3689,
      "Tit": 3690,
      "Ho": 3691,
      "==Ġnull": 3692,
      ")ĠandĠ": 3693,
      "debug": 3694,
      "å¤": 3695,
      "ĊĠĠĠĠĠĠĠĠĠĠĠĠ<": 3696,
      "FO": 3697,
      "l_": 3698,
      "see": 3699,
      "it'sĠ": 3700,
      "$,Ġ": 3701,
      "IDĠ": 3702,
      "____": 3703,
      "calledĠ": 3704,
      "10Ġ": 3705,
      "|Ċ": 3706,
      "data-": 3707,
      "sen": 3708,
      "(_": 3709,
      "æĺ": 3710,
      "ĊfromĠ": 3711,
      "happ": 3712,
      "s[i": 3713,
      "pc": 3714,
      "Prop": 3715,
      "mag": 3716,
      "hasĠbeenĠ": 3717,
      "erial": 3718,
      "game": 3719,
      "versionĠ": 3720,
      "cedĠ": 3721,
      "ĊĊĠĠĠĠdefĠ": 3722,
      "rmĠ": 3723,
      "[2": 3724,
      "[1]": 3725,
      "k_": 3726,
      "android.": 3727,
      "urĠ": 3728,
      "er(": 3729,
      "String(": 3730,
      "STR": 3731,
      "*)": 3732,
      "ëĭ": 3733,
      "limit": 3734,
      "fĠ=Ġ": 3735,
      "nameĠ=Ġ": 3736,
      "responseĠ": 3737,
      "}_{": 3738,
      ":Ġtrue": 3739,
      "expected": 3740,
      "ERROR": 3741,
      ",Ċĉĉĉ": 3742,
      "character": 3743,
      "didĠ": 3744,
      "calcul": 3745,
      "unĠ": 3746,
      "apache": 3747,
      "7.": 3748,
      "hal": 3749,
      "CL": 3750,
      "Micro": 3751,
      "abilityĠ": 3752,
      "border": 3753,
      "Location": 3754,
      "dio": 3755,
      "NE": 3756,
      "'reĠ": 3757,
      "wĠ": 3758,
      "nodeĠ": 3759,
      "ctr": 3760,
      "aterĠ": 3761,
      "Frame": 3762,
      "program": 3763,
      "y-": 3764,
      "A_": 3765,
      "Clo": 3766,
      "36": 3767,
      "()->": 3768,
      "rt": 3769,
      "note": 3770,
      "style=\"": 3771,
      "Change": 3772,
      "Post": 3773,
      "$ĠandĠ": 3774,
      "\".": 3775,
      "();Ġ": 3776,
      "pm": 3777,
      "rec": 3778,
      "ÑĢÐ°": 3779,
      "Click": 3780,
      "Cal": 3781,
      "static": 3782,
      "say": 3783,
      "nextĠ": 3784,
      "Ċ#Ġ": 3785,
      "route": 3786,
      "required": 3787,
      "validĠ": 3788,
      "'.": 3789,
      "tech": 3790,
      "xĠ=Ġ": 3791,
      ")Ġ==Ġ": 3792,
      ")Ġ+Ġ": 3793,
      "();ĊĠĠ": 3794,
      "tainĠ": 3795,
      "him": 3796,
      "feature": 3797,
      "1Ġ=Ġ": 3798,
      "Description": 3799,
      "portĠ": 3800,
      "searchĠ": 3801,
      "playĠ": 3802,
      "BĠ": 3803,
      "continue": 3804,
      "n_": 3805,
      "String,Ġ": 3806,
      "{ĊĠĠĠĠĠĠĠĠĠĠ": 3807,
      "api.": 3808,
      "Are": 3809,
      "cir": 3810,
      "ifĠ(Ġ": 3811,
      "Thread": 3812,
      "doesĠnotĠ": 3813,
      "Py": 3814,
      "Stor": 3815,
      "value=\"": 3816,
      "provid": 3817,
      "pur": 3818,
      "showĠ": 3819,
      "}(": 3820,
      "Connection": 3821,
      "Car": 3822,
      "annot": 3823,
      "XĠ": 3824,
      "sĠasĠ": 3825,
      "-Ġ1": 3826,
      "ific": 3827,
      "did": 3828,
      "NewĠ": 3829,
      "imple": 3830,
      "||Ċ||Ġ": 3831,
      "æķ°": 3832,
      ".Get": 3833,
      "Fin": 3834,
      "Ċ#defineĠ": 3835,
      "ron": 3836,
      "controll": 3837,
      "Flo": 3838,
      "reference": 3839,
      "gor": 3840,
      "Go": 3841,
      "());ĊĠĠĠĠĠĠĠĠ": 3842,
      "whe": 3843,
      ".ĊĠĠĠĠ": 3844,
      "role": 3845,
      "Ne": 3846,
      "Activ": 3847,
      "ing-": 3848,
      "alreadyĠ": 3849,
      "rot": 3850,
      "en,Ġ": 3851,
      "oriz": 3852,
      "UM": 3853,
      "home": 3854,
      "ifĠ($": 3855,
      "asset": 3856,
      "čĊĠĠĠĠĠĠĠĠĠĠĠĠĠĠĠĠĠĠĠĠ": 3857,
      "è¡": 3858,
      "options": 3859,
      "Exten": 3860,
      "console.log": 3861,
      "Deta": 3862,
      "fm": 3863,
      "difi": 3864,
      "Ge": 3865,
      "micro": 3866,
      "predic": 3867,
      "helpĠ": 3868,
      "aroundĠ": 3869,
      "{{Ġ": 3870,
      "ah": 3871,
      "register": 3872,
      "Defin": 3873,
      ";Ċĉ}ĊĊĉ": 3874,
      "owever": 3875,
      "Bit": 3876,
      "ĊĠĠĠĠĠĠĠĠself.": 3877,
      "2Ġ=Ġ": 3878,
      "8,Ġ": 3879,
      "Pres": 3880,
      "nb": 3881,
      "container": 3882,
      "(ĊĠĠĠĠĠĠĠĠĠĠĠĠ": 3883,
      "{@": 3884,
      "ware": 3885,
      "Down": 3886,
      "manĠ": 3887,
      "export": 3888,
      "specifi": 3889,
      "(StringĠ": 3890,
      "bound": 3891,
      "privateĠstaticĠ": 3892,
      "}ĊĊĠĠĠĠĠĠĠĠĠĠĠĠ": 3893,
      "scop": 3894,
      "ume": 3895,
      "vingĠ": 3896,
      "sof": 3897,
      ")\\": 3898,
      "writ": 3899,
      "o,Ġ": 3900,
      "Ġ\"": 3901,
      "ĠÐ²": 3902,
      "(S": 3903,
      "ireĠ": 3904,
      "changeĠ": 3905,
      "HO": 3906,
      "âĶ": 3907,
      "eas": 3908,
      "IL": 3909,
      "(d": 3910,
      "rideĠ": 3911,
      "lar": 3912,
      "tĠtheĠ": 3913,
      "result.": 3914,
      "Target": 3915,
      "Top": 3916,
      "iĠ=Ġ0;ĠiĠ<Ġ": 3917,
      "sv": 3918,
      "cryp": 3919,
      "00Ġ": 3920,
      "SheĠ": 3921,
      "Ð¿": 3922,
      "32Ġ": 3923,
      "Pass": 3924,
      "enter": 3925,
      "Refer": 3926,
      "(0,Ġ": 3927,
      ").Ċ": 3928,
      "php": 3929,
      "previ": 3930,
      "1.0": 3931,
      "->set": 3932,
      "```ĊĊ": 3933,
      "callback": 3934,
      "Dir": 3935,
      "invo": 3936,
      "propertyĠ": 3937,
      "yĠofĠ": 3938,
      "Initi": 3939,
      "bro": 3940,
      "esĠtheĠ": 3941,
      "runĠ": 3942,
      "placeĠ": 3943,
      "Process": 3944,
      "war": 3945,
      "rolĠ": 3946,
      "oĠ=Ġ": 3947,
      "prev": 3948,
      "uteĠ": 3949,
      ";ĊĠĠĠĠ}ĊĠĠĠĠ": 3950,
      "CP": 3951,
      "':": 3952,
      "commun": 3953,
      "^{\\": 3954,
      "F_": 3955,
      "anotherĠ": 3956,
      "]ĊĠĠĠĠ": 3957,
      "does": 3958,
      ".Ċ\"": 3959,
      "EXP": 3960,
      "!=ĠnilĠ": 3961,
      "2,": 3962,
      "iss": 3963,
      "intoĠtheĠ": 3964,
      "plac": 3965,
      "pot": 3966,
      "ç»": 3967,
      "Publ": 3968,
      "Local": 3969,
      ";ĊĠĠĠĠĠĠĠĠ}ĊĊĠĠĠĠĠĠĠĠ": 3970,
      "Session": 3971,
      "27": 3972,
      "organ": 3973,
      "seg": 3974,
      "atur": 3975,
      "dele": 3976,
      "earĠ": 3977,
      "}Ċ}": 3978,
      "this._": 3979,
      "assign": 3980,
      "35": 3981,
      "alog": 3982,
      "()Ġ{ĊĠĠĠĠ": 3983,
      "oft": 3984,
      "password": 3985,
      "Fig": 3986,
      "constru": 3987,
      "ly,Ġ": 3988,
      "yĠandĠ": 3989,
      "prov": 3990,
      "itedĠ": 3991,
      ".ĠM": 3992,
      "offĠ": 3993,
      "queue": 3994,
      "tar": 3995,
      "cc": 3996,
      "domain": 3997,
      "<spanĠ": 3998,
      "Sign": 3999,
      "rule": 4000,
      "Ð·": 4001,
      "account": 4002,
      "Auto": 4003,
      "connec": 4004,
      "PRO": 4005,
      "context.": 4006,
      "<td>": 4007,
      "Entry": 4008,
      "[i]": 4009,
      "wal": 4010,
      "Argument": 4011,
      "every": 4012,
      "full": 4013,
      "connect": 4014,
      "(self):ĊĠĠĠĠĠĠĠĠ": 4015,
      ";Ġi++": 4016,
      "range": 4017,
      "ageĠ=Ġ": 4018,
      "perform": 4019,
      "los": 4020,
      ",Ġp": 4021,
      "Async": 4022,
      "access": 4023,
      "</span": 4024,
      "paren": 4025,
      "ĊĠĠĠĠ{ĊĠĠĠĠĠĠĠĠ": 4026,
      "somethingĠ": 4027,
      "Module": 4028,
      "Search": 4029,
      "environ": 4030,
      "enable": 4031,
      ");čĊ": 4032,
      "_{i": 4033,
      "xy": 4034,
      "$('": 4035,
      "SION": 4036,
      "ers": 4037,
      "put.": 4038,
      ">ĊĊ": 4039,
      "CE": 4040,
      "rm": 4041,
      ".ĠButĠ": 4042,
      "libr": 4043,
      "beta": 4044,
      "NAME": 4045,
      "akĠ": 4046,
      "....": 4047,
      ")ĊĠĠĠĠĠĠĠĠself.": 4048,
      "è®": 4049,
      "Access": 4050,
      "stri": 4051,
      ",ĠS": 4052,
      "returnĠtrue": 4053,
      "\",\"": 4054,
      "secondĠ": 4055,
      "Dep": 4056,
      "INT": 4057,
      "Mess": 4058,
      "\"ĊĠĠĠĠĠĠĠĠ": 4059,
      "Detail": 4060,
      "s(\"": 4061,
      "sure": 4062,
      "energ": 4063,
      "pg": 4064,
      "NoĠ": 4065,
      "ãģ®": 4066,
      "Level": 4067,
      "devic": 4068,
      "ry": 4069,
      "Dial": 4070,
      "atesĠ": 4071,
      "Proto": 4072,
      "n.": 4073,
      "_list": 4074,
      "free": 4075,
      "apter": 4076,
      "Question": 4077,
      "Tex": 4078,
      "ity,Ġ": 4079,
      "suppor": 4080,
      "\")ĊĠĠĠĠ": 4081,
      "GL": 4082,
      "ix": 4083,
      "determin": 4084,
      "flu": 4085,
      "ãĥ¼": 4086,
      "Cop": 4087,
      "tific": 4088,
      "al-": 4089,
      "interfaceĠ": 4090,
      "pository": 4091,
      "Document": 4092,
      "ST_": 4093,
      "mut": 4094,
      "I'mĠ": 4095,
      "dataĠ=Ġ": 4096,
      "Match": 4097,
      "aredĠ": 4098,
      "i_": 4099,
      "_CO": 4100,
      "Ã¶": 4101,
      "develop": 4102,
      "\":": 4103,
      "represent": 4104,
      "gine": 4105,
      "unk": 4106,
      "save": 4107,
      "onĠaĠ": 4108,
      "s.ĊĊ": 4109,
      "lookĠ": 4110,
      "symbol": 4111,
      "haveĠbeenĠ": 4112,
      "28": 4113,
      "indexĠ": 4114,
      "MS": 4115,
      "gn": 4116,
      "ighĠ": 4117,
      "pathĠ": 4118,
      "/**Ġ": 4119,
      "idden": 4120,
      "sesĠ": 4121,
      "Tab": 4122,
      "ctx": 4123,
      "eventĠ": 4124,
      "i,Ġ": 4125,
      "background": 4126,
      "warn": 4127,
      "few": 4128,
      "need": 4129,
      "Mul": 4130,
      "',Ġ$": 4131,
      ".ĠO": 4132,
      "operator": 4133,
      "Graph": 4134,
      "Dou": 4135,
      "ankĠ": 4136,
      "litt": 4137,
      "win": 4138,
      "gorith": 4139,
      "conf": 4140,
      "leftĠ": 4141,
      "(re": 4142,
      "čĊĠĠĠĠĠĠ": 4143,
      "add_": 4144,
      "<p>": 4145,
      "Expres": 4146,
      "itherĠ": 4147,
      "']Ġ": 4148,
      ");ĊĊĉĉ": 4149,
      "StateĠ": 4150,
      "2_": 4151,
      "cope": 4152,
      "iev": 4153,
      "autoĠ": 4154,
      ",ĠorĠ": 4155,
      "Delete": 4156,
      "login": 4157,
      "margin": 4158,
      "alwaysĠ": 4159,
      "threeĠ": 4160,
      "ding": 4161,
      "CC": 4162,
      "clou": 4163,
      ");ĊĠĠ}ĊĊĠĠ": 4164,
      "%d": 4165,
      "s,": 4166,
      "ĠÑģ": 4167,
      "new_": 4168,
      "åŃ": 4169,
      ");ĊĠĠĠĠĠĠĠĠ}ĊĊĠĠĠĠĠĠĠĠ": 4170,
      "pho": 4171,
      "_info": 4172,
      "umentĠ": 4173,
      "omĠ": 4174,
      "atherĠ": 4175,
      "}_": 4176,
      "optionĠ": 4177,
      "psil": 4178,
      "(R": 4179,
      "!!": 4180,
      "29": 4181,
      "dimen": 4182,
      "OK": 4183,
      "ateĠtheĠ": 4184,
      "ved": 4185,
      "config.": 4186,
      "reallyĠ": 4187,
      "-b": 4188,
      "Ms": 4189,
      "nerĠ": 4190,
      "rop": 4191,
      "ĊĊĉĉ": 4192,
      "igr": 4193,
      ".ĊĠĠ": 4194,
      "wait": 4195,
      "ieĠ": 4196,
      "(value": 4197,
      "),ĊĠĠĠĠĠĠĠĠ": 4198,
      "thoughĠ": 4199,
      "Mod": 4200,
      "23": 4201,
      "Ð¾Ð²": 4202,
      "sĠorĠ": 4203,
      "My": 4204,
      "<?phpĠechoĠ": 4205,
      "observ": 4206,
      "21": 4207,
      "calĠ": 4208,
      "Cap": 4209,
      "Goo": 4210,
      "_file": 4211,
      "IdĠ": 4212,
      "virtualĠ": 4213,
      "r.": 4214,
      "Icon": 4215,
      "notĠbeĠ": 4216,
      "knownĠ": 4217,
      "f(": 4218,
      "DataĠ": 4219,
      "Assert.": 4220,
      "ential": 4221,
      "subscri": 4222,
      "Ġ|Ġ": 4223,
      ",Ġ0x": 4224,
      "client.": 4225,
      "ond": 4226,
      ")Ġ\\": 4227,
      "Next": 4228,
      "=Ġ\"": 4229,
      "bestĠ": 4230,
      ".\"": 4231,
      "Cor": 4232,
      "Name,Ġ": 4233,
      "}ĠcatchĠ(": 4234,
      "fri": 4235,
      "gres": 4236,
      "sourceĠ": 4237,
      "ia": 4238,
      "Select": 4239,
      ".ĊĊComment:Ġ": 4240,
      "ATION": 4241,
      ".ĠForĠ": 4242,
      "()ĊĠĠĠĠ{ĊĠĠĠĠĠĠĠĠ": 4243,
      "amer": 4244,
      "=-": 4245,
      "Ptr": 4246,
      "shif": 4247,
      "sĠisĠ": 4248,
      "funcĠ(": 4249,
      "(L": 4250,
      "Integer": 4251,
      "%%%%": 4252,
      "sal": 4253,
      "Render": 4254,
      "sĊĊ": 4255,
      "MI": 4256,
      "weight": 4257,
      "extr": 4258,
      "room": 4259,
      "printĠ": 4260,
      "plat": 4261,
      "<inputĠ": 4262,
      "neverĠ": 4263,
      "_l": 4264,
      "sĠwereĠ": 4265,
      "~~": 4266,
      "imageĠ": 4267,
      "1)": 4268,
      "buf.": 4269,
      "yĠtheĠ": 4270,
      "secur": 4271,
      "GP": 4272,
      "forĠ(intĠ": 4273,
      "Scal": 4274,
      "dieĠ": 4275,
      "Configuration": 4276,
      "();ĊĠĠĠĠĠĠĠĠĠĠĠĠĠĠĠĠ": 4277,
      "AllĠ": 4278,
      "<h": 4279,
      ".create": 4280,
      "react": 4281,
      "Helper": 4282,
      "radi": 4283,
      "bodyĠ": 4284,
      "options.": 4285,
      "delta": 4286,
      ".id": 4287,
      "(v": 4288,
      "45": 4289,
      "sĊĠĠĠĠ": 4290,
      ",ĊĠĠĠĠĠĠĠĠĠĠĠĠĠĠĠĠĠĠĠĠĠĠĠĠ": 4291,
      "onentĠ": 4292,
      "8.": 4293,
      "applic": 4294,
      "num_": 4295,
      "framework": 4296,
      "6.": 4297,
      "contentĠ": 4298,
      "ef": 4299,
      "atom": 4300,
      ".ĠB": 4301,
      "mise": 4302,
      "messageĠ": 4303,
      "åľ": 4304,
      "tification": 4305,
      ")Ġ{Ċĉĉĉĉ": 4306,
      "osĠ": 4307,
      "///": 4308,
      "Rel": 4309,
      "Current": 4310,
      "Flag": 4311,
      "TP": 4312,
      "buff": 4313,
      "Ġ(Ġ": 4314,
      "sĠ=ĠnewĠ": 4315,
      "wordĠ": 4316,
      "perio": 4317,
      "spaceĠ": 4318,
      "soft": 4319,
      "Edit": 4320,
      "Ċ-Ġ": 4321,
      "GetĠ": 4322,
      "pret": 4323,
      "track": 4324,
      "dynam": 4325,
      "arm": 4326,
      "tilĠ": 4327,
      "measure": 4328,
      "short": 4329,
      "Mock": 4330,
      "tur": 4331,
      "kenĠ": 4332,
      "lab": 4333,
      "ater": 4334,
      "cleĠ": 4335,
      "month": 4336,
      "TYPE_": 4337,
      "associ": 4338,
      "wouldĠbeĠ": 4339,
      "(data": 4340,
      "itĠwasĠ": 4341,
      "))ĊĠĠĠĠĠĠĠĠ": 4342,
      "done": 4343,
      "desc": 4344,
      "!Ċ": 4345,
      ".Ċ\\end{": 4346,
      "learn": 4347,
      "$Ċ": 4348,
      ".ĠD": 4349,
      "ENT": 4350,
      "returnĠ(": 4351,
      "AsĠ": 4352,
      "AV": 4353,
      "fromĠ\"": 4354,
      "gotĠ": 4355,
      ";ĊimportĠjava.util.": 4356,
      "well": 4357,
      "Wor": 4358,
      "openĠ": 4359,
      "Inst": 4360,
      "\",ĊĠĠĠĠ": 4361,
      "grid": 4362,
      "itiesĠ": 4363,
      "lu": 4364,
      "Tree": 4365,
      "Iter": 4366,
      "overrideĠ": 4367,
      "erĠtoĠ": 4368,
      "mustĠbeĠ": 4369,
      "layout": 4370,
      "Roo": 4371,
      "angle": 4372,
      "busin": 4373,
      "core.": 4374,
      "Container": 4375,
      "ityĠofĠ": 4376,
      "alize": 4377,
      "selected": 4378,
      "áĥ": 4379,
      "lik": 4380,
      "\\frac{": 4381,
      "require('": 4382,
      "littleĠ": 4383,
      "partĠ": 4384,
      "ate_": 4385,
      "Inf": 4386,
      "foc": 4387,
      "Port": 4388,
      "=True": 4389,
      "\",ĊĠĠĠĠĠĠĠĠĠĠĠĠĠĠĠĠ": 4390,
      "Extension": 4391,
      "smallĠ": 4392,
      "wardĠ": 4393,
      "AA": 4394,
      "filename": 4395,
      "player": 4396,
      "cf": 4397,
      "r_": 4398,
      "MM": 4399,
      "database": 4400,
      "mm": 4401,
      "NĠ": 4402,
      "singleĠ": 4403,
      "src=\"": 4404,
      "ru": 4405,
      "}/": 4406,
      "valueĠ=Ġ": 4407,
      "usedĠtoĠ": 4408,
      "(ĊĠĠĠĠĠĠĠĠĠĠĠĠĠĠĠĠ": 4409,
      "rest": 4410,
      "s.ĠTheĠ": 4411,
      "moun": 4412,
      "levelĠ": 4413,
      "Gu": 4414,
      "\\inĠ": 4415,
      "Interface": 4416,
      "fnĠ": 4417,
      "model.": 4418,
      ");ĊĠĠĠĠ}ĊĠĠĠĠ": 4419,
      "39": 4420,
      "Store": 4421,
      "finalĠStringĠ": 4422,
      "?:Ġ": 4423,
      "adv": 4424,
      "dete": 4425,
      "Project": 4426,
      ".ĠYouĠ": 4427,
      "pose": 4428,
      "ifĠyouĠ": 4429,
      "jĠ": 4430,
      "Rule": 4431,
      "collection": 4432,
      "<code>": 4433,
      "0.5": 4434,
      "xx": 4435,
      "37": 4436,
      "ision": 4437,
      "Operation": 4438,
      "problem": 4439,
      "com.google.": 4440,
      "found": 4441,
      "Custom": 4442,
      "sizeof(": 4443,
      "Sw": 4444,
      "();ĊĊĠĠĠĠĠĠĠĠ": 4445,
      "Storage": 4446,
      "ey": 4447,
      "_,Ġ": 4448,
      ";ĊĠĠĠĠĠĠĠĠ}ĊĠĠĠĠĠĠĠĠ": 4449,
      "ä¸Ģ": 4450,
      "children": 4451,
      "};Ċ": 4452,
      "CS": 4453,
      "(P": 4454,
      "b{": 4455,
      "experi": 4456,
      "disc": 4457,
      "decl": 4458,
      "max_": 4459,
      "widget": 4460,
      "\\text": 4461,
      "ĊĠĠĠĠĠ*/ĊĠĠĠĠpublicĠfunctionĠ": 4462,
      "alle": 4463,
      "{ĊĠĠĠĠĠĠĠĠĠĠĠĠĠĠĠĠĠĠĠĠĠĠĠĠ": 4464,
      "omet": 4465,
      "ld": 4466,
      "+Ġ1": 4467,
      "(int": 4468,
      "tooĠ": 4469,
      "Az": 4470,
      "Categ": 4471,
      "_url": 4472,
      "havi": 4473,
      "(true": 4474,
      "ById": 4475,
      "Conver": 4476,
      "(e": 4477,
      "Ġ*/ĊĠĠ": 4478,
      "extension": 4479,
      "ted_": 4480,
      "<<Ġ\"": 4481,
      "Dialog": 4482,
      "stamp": 4483,
      "ql": 4484,
      "lap": 4485,
      "Lic": 4486,
      ";ĊĠĠ}ĊĊĠĠ": 4487,
      "small": 4488,
      "ĊĠ*/Ċ": 4489,
      "record": 4490,
      "ĊĉĠ*/Ċĉ": 4491,
      "ca": 4492,
      "Ob": 4493,
      "ViewĠ": 4494,
      "fewĠ": 4495,
      "tedĠtoĠ": 4496,
      "\\n\",Ġ": 4497,
      "lang.": 4498,
      "needĠ": 4499,
      "scriptĠ": 4500,
      "ativ": 4501,
      "ValueĠ": 4502,
      "Record": 4503,
      "#endif": 4504,
      "buttonĠ": 4505,
      ">Ġ0": 4506,
      "Intern": 4507,
      "errĠ:=Ġ": 4508,
      "ization": 4509,
      "cache": 4510,
      "Ð¹": 4511,
      ".Ġ'": 4512,
      "javax.": 4513,
      "builder": 4514,
      "Game": 4515,
      "charĠ": 4516,
      "brow": 4517,
      "(h": 4518,
      ">ĊĠĠĠĠĠĠĠĠ<": 4519,
      "NameĠ=Ġ": 4520,
      "Cache": 4521,
      "test.": 4522,
      "images": 4523,
      "enum": 4524,
      "psilon": 4525,
      "Application": 4526,
      "iaĠ": 4527,
      "estim": 4528,
      "Debug": 4529,
      "Multi": 4530,
      "entialĠ": 4531,
      "join": 4532,
      "definedĠ": 4533,
      ";;": 4534,
      "giveĠ": 4535,
      "just": 4536,
      "eĠandĠ": 4537,
      "profile": 4538,
      "package": 4539,
      "\"\"\"ĊĠĠĠĠĠĠĠĠ": 4540,
      "async": 4541,
      "bor": 4542,
      "});Ċ": 4543,
      "\\t": 4544,
      "from_": 4545,
      "ianĠ": 4546,
      "params": 4547,
      "Require": 4548,
      "divid": 4549,
      "},ĊĠĠ": 4550,
      "90": 4551,
      "Anim": 4552,
      "},ĊĠĠĠĠĠĠĠĠ": 4553,
      "pageĠ": 4554,
      "inste": 4555,
      ":ĊĊ\\begin{code}Ċ": 4556,
      "IM": 4557,
      "mapĠ": 4558,
      "(T": 4559,
      "AY": 4560,
      "-4": 4561,
      "sigma": 4562,
      "split": 4563,
      "å¼": 4564,
      ".ĠAĠ": 4565,
      "inĠthisĠ": 4566,
      "asyn": 4567,
      "screen": 4568,
      "();Ċĉ": 4569,
      "éĢ": 4570,
      "istic": 4571,
      "uint32": 4572,
      "Found": 4573,
      "ĊĠĠĠĠĠĠĠĠĠĠĠĠ//Ġ": 4574,
      "freeĠ": 4575,
      "Windows.": 4576,
      "sample": 4577,
      "drop": 4578,
      "writeĠ": 4579,
      "said": 4580,
      "v.": 4581,
      "*/Ċ": 4582,
      "hum": 4583,
      "SetĠ": 4584,
      "elementĠ": 4585,
      "types": 4586,
      "Title": 4587,
      "æĹ": 4588,
      "Map<": 4589,
      "hat": 4590,
      "::get": 4591,
      "ãĢģ": 4592,
      "åº": 4593,
      "ally,Ġ": 4594,
      "Stack": 4595,
      "topĠ": 4596,
      "{'": 4597,
      "86": 4598,
      ":Ġ[": 4599,
      "cast": 4600,
      ",ĠsoĠ": 4601,
      "LOC": 4602,
      "ipe": 4603,
      "mathbb{": 4604,
      "zz": 4605,
      "_size": 4606,
      "heal": 4607,
      "...Ġ": 4608,
      "separ": 4609,
      "ĠĠĠĠĠĠĠĠĠĠĠĠĠĠĠĠĠ": 4610,
      "VĠ": 4611,
      "possibleĠ": 4612,
      "integr": 4613,
      "LOG": 4614,
      "fai": 4615,
      "==Ġ0": 4616,
      "eĠtoĠ": 4617,
      "figure": 4618,
      "rup": 4619,
      "rain": 4620,
      "straint": 4621,
      "Account": 4622,
      "åĽ": 4623,
      "ErrorĠ": 4624,
      "iction": 4625,
      ";ĊusingĠSystem.": 4626,
      "yĠtoĠ": 4627,
      "returnĠnewĠ": 4628,
      "IS": 4629,
      "ĊĠĠĠĠĠĠĠĠĠĠĠĠ{ĊĠĠĠĠĠĠĠĠĠĠĠĠĠĠĠĠ": 4630,
      "Data.": 4631,
      "ture": 4632,
      "siveĠ": 4633,
      "',ĊĠĠĠĠĠĠĠĠĠĠĠĠĠĠĠĠ": 4634,
      "watch": 4635,
      "Remo": 4636,
      "'=>": 4637,
      "apache.": 4638,
      "errĠ!=ĠnilĠ": 4639,
      "HowĠ": 4640,
      "storage": 4641,
      "Route": 4642,
      "Font": 4643,
      ">ĊĠĠĠĠĠĠ": 4644,
      "pubĠ": 4645,
      ":Ġfalse": 4646,
      ",Ġ20": 4647,
      "labelĠ": 4648,
      "awĠ": 4649,
      "is.": 4650,
      "optim": 4651,
      "esĠ=Ġ": 4652,
      "{\\b": 4653,
      "thon": 4654,
      "æĺ¯": 4655,
      "js.": 4656,
      "]]": 4657,
      "esĠandĠ": 4658,
      "println": 4659,
      "lear": 4660,
      "Medi": 4661,
      "exit": 4662,
      "haveĠtoĠ": 4663,
      "');ĊĠĠĠĠĠĠĠĠ": 4664,
      "assert_": 4665,
      "UB": 4666,
      "relation": 4667,
      "75": 4668,
      "simil": 4669,
      ")$": 4670,
      "k.": 4671,
      "supportĠ": 4672,
      "NodeĠ": 4673,
      "\");ĊĠĠĠĠ": 4674,
      ")ĊĊĠĠĠĠdefĠ": 4675,
      "Ċ\\end{code}ĊĊ": 4676,
      "land": 4677,
      "erĠandĠ": 4678,
      "_h": 4679,
      "acc": 4680,
      "d-": 4681,
      "left.": 4682,
      "sci": 4683,
      "fill": 4684,
      "iĠ=Ġ": 4685,
      "agg": 4686,
      "Show": 4687,
      "grad": 4688,
      "Math.": 4689,
      "controlĠ": 4690,
      "whetherĠ": 4691,
      "complete": 4692,
      "ĉĉĉĉĉĉĉĉ": 4693,
      "(3": 4694,
      "_key": 4695,
      "));ĊĠĠĠĠĠĠĠĠ": 4696,
      "Sk": 4697,
      "Grid": 4698,
      "real": 4699,
      "ical": 4700,
      "it.": 4701,
      "\",ĊĠĠ": 4702,
      "Ele": 4703,
      "LIN": 4704,
      "ĠĠĠĠĠĠĠĠĠĠĠĠĠĠĠĠĠĠ": 4705,
      "parser": 4706,
      ":Ġ0": 4707,
      "holder": 4708,
      "ency": 4709,
      "ise": 4710,
      "trig": 4711,
      "instanceĠ": 4712,
      "global": 4713,
      "greatĠ": 4714,
      "daĠ": 4715,
      "f,Ġ": 4716,
      "Bind": 4717,
      "Float": 4718,
      "{Ġget": 4719,
      ".ĠThe": 4720,
      "state.": 4721,
      "encode": 4722,
      "</td>": 4723,
      "Constant": 4724,
      "_d": 4725,
      "coder": 4726,
      "sort": 4727,
      "problemĠ": 4728,
      "Height": 4729,
      "ris": 4730,
      "First": 4731,
      "Changed": 4732,
      "prefix": 4733,
      "fut": 4734,
      "<?php": 4735,
      "ementĠ": 4736,
      "();ĊĠĠĠĠĠĠ": 4737,
      "Handle": 4738,
      "size_tĠ": 4739,
      ")Ġ{ĊĠĠĠĠĠĠĠĠĠĠ": 4740,
      ",ĊĠĠĠĠĠĠĠĠĠĠ": 4741,
      "buil": 4742,
      "Template": 4743,
      "ĠÐ½": 4744,
      "publish": 4745,
      "R_": 4746,
      "assertEquals(": 4747,
      "}{\\": 4748,
      "edĠ=Ġ": 4749,
      "addition": 4750,
      "specificĠ": 4751,
      "umin": 4752,
      "ouch": 4753,
      "(a": 4754,
      "sĊĠĠĠĠĠĠĠĠ": 4755,
      "Long": 4756,
      "IdĠ=Ġ": 4757,
      "('/": 4758,
      "\"/": 4759,
      "returnĠ0": 4760,
      ")ĊĠĠĠĠĠĠĠĠĠĠĠĠĠĠĠĠĠĠĠĠ": 4761,
      ",Ġh": 4762,
      "Glob": 4763,
      "ible": 4764,
      "ablyĠ": 4765,
      "Star": 4766,
      "serverĠ": 4767,
      "talĠ": 4768,
      ",ĠitĠ": 4769,
      "padd": 4770,
      "arrow": 4771,
      "mayĠbeĠ": 4772,
      "=-=-": 4773,
      "ib": 4774,
      "nbsp": 4775,
      "Transaction": 4776,
      "ÐµÑĤ": 4777,
      "),ĊĠĠĠĠĠĠĠĠĠĠĠĠĠĠĠĠ": 4778,
      "lambda": 4779,
      "(M": 4780,
      "0x0": 4781,
      "requestĠ": 4782,
      ")]": 4783,
      "enci": 4784,
      "betterĠ": 4785,
      "stract": 4786,
      "positionĠ": 4787,
      "correspon": 4788,
      "KĠ": 4789,
      "more": 4790,
      "ĊĠĠĠĠdefĠ": 4791,
      "t-": 4792,
      "),ĊĠĠĠĠĠĠĠĠĠĠĠĠ": 4793,
      "ofĠthisĠ": 4794,
      "@OverrideĊĠĠĠĠpublicĠ": 4795,
      "à¸": 4796,
      "_CON": 4797,
      "oughĠ": 4798,
      "FL": 4799,
      "0,Ġ0,Ġ": 4800,
      "&nbsp": 4801,
      ".png": 4802,
      "tr>": 4803,
      "Job": 4804,
      "ed.": 4805,
      "ãģĻ": 4806,
      "isĠanĠ": 4807,
      "()Ċĉ": 4808,
      "report": 4809,
      "availableĠ": 4810,
      "ences": 4811,
      "commandĠ": 4812,
      "transaction": 4813,
      "th>": 4814,
      "ode": 4815,
      "'))": 4816,
      "issu": 4817,
      "()Ġ{ĊĠĠĠĠĠĠĠĠreturnĠ": 4818,
      "transl": 4819,
      "IĠamĠ": 4820,
      "a/": 4821,
      "}ĠelseĠifĠ(": 4822,
      "none": 4823,
      "Te": 4824,
      "HeĠ": 4825,
      "vest": 4826,
      "ketĠ": 4827,
      "kw": 4828,
      "returnĠ$": 4829,
      ",ĠM": 4830,
      "ationĠofĠtheĠ": 4831,
      ".ĠE": 4832,
      "SD": 4833,
      "current_": 4834,
      "undefined": 4835,
      "fit": 4836,
      "#defineĠ": 4837,
      "æī": 4838,
      "highĠ": 4839,
      "dar": 4840,
      "soc": 4841,
      "(Ġ'": 4842,
      "bitĠ": 4843,
      "'Ġ=>Ġ$": 4844,
      "requiredĠ": 4845,
      "won": 4846,
      "Ġ=Ġ$": 4847,
      "prec": 4848,
      "phys": 4849,
      "req.": 4850,
      "doĠnotĠ": 4851,
      "IG": 4852,
      "ane": 4853,
      "Player": 4854,
      "Var": 4855,
      "WH": 4856,
      "PH": 4857,
      "Tags:Ġ": 4858,
      "imumĠ": 4859,
      "SH": 4860,
      "sav": 4861,
      "gt": 4862,
      "ZE": 4863,
      "Ċms.": 4864,
      "fullĠ": 4865,
      "mor": 4866,
      "\\\\Ċ": 4867,
      "sever": 4868,
      "leastĠ": 4869,
      "utor": 4870,
      "{Ċĉĉĉĉĉ": 4871,
      "undle": 4872,
      "scale": 4873,
      "anc": 4874,
      "()Ċ": 4875,
      "aj": 4876,
      "<<": 4877,
      "Database": 4878,
      "printf(\"": 4879,
      "ĊĠĠĠĠ//Ġ": 4880,
      "sup": 4881,
      "(:": 4882,
      "TestĠ": 4883,
      "tau": 4884,
      "address": 4885,
      "exceptĠ": 4886,
      "ThereĠ": 4887,
      "Provider": 4888,
      "metric": 4889,
      "ticle": 4890,
      "ity.": 4891,
      "();ĊĊĠĠĠĠ": 4892,
      "consider": 4893,
      "esĠofĠ": 4894,
      "ik": 4895,
      "Schema": 4896,
      "ignĠ": 4897,
      "20Ġ": 4898,
      "apping": 4899,
      "Boolean": 4900,
      "mach": 4901,
      "agment": 4902,
      "Active": 4903,
      ",Ċĉĉĉĉ": 4904,
      "å°": 4905,
      "Address": 4906,
      "student": 4907,
      "ingĠofĠ": 4908,
      "pap": 4909,
      ".ĠL": 4910,
      "70": 4911,
      "untilĠ": 4912,
      "Registr": 4913,
      "bed": 4914,
      "Ag": 4915,
      ");ĊĠĠĠĠĠĠĠĠĠĠĠĠĠĠĠĠĠĠĠĠĠĠĠĠ": 4916,
      "foreachĠ": 4917,
      "Nav": 4918,
      "presentĠ": 4919,
      "Print": 4920,
      "Rect": 4921,
      "ze": 4922,
      "\");ĊĠĠĠĠĠĠĠĠĠĠĠĠ": 4923,
      "nel": 4924,
      "leĠ=Ġ": 4925,
      ",ĠasĠ": 4926,
      "repe": 4927,
      "------------------------": 4928,
      "algorith": 4929,
      "</a": 4930,
      ">Ċ<": 4931,
      "sĠtoĠtheĠ": 4932,
      "agr": 4933,
      "selectĠ": 4934,
      "key,Ġ": 4935,
      "Callback": 4936,
      "-3": 4937,
      "PC": 4938,
      ".ĠAndĠ": 4939,
      "log.": 4940,
      "ternĠ": 4941,
      ",ĠyouĠ": 4942,
      "(false": 4943,
      "Logger": 4944,
      "ansĠ": 4945,
      "nes": 4946,
      "44": 4947,
      "type:Ġ": 4948,
      "provideĠ": 4949,
      "FOR": 4950,
      "combin": 4951,
      "was": 4952,
      "56": 4953,
      "tt": 4954,
      "_v": 4955,
      "polic": 4956,
      "âĪ": 4957,
      "RequestĠ": 4958,
      "receiv": 4959,
      "VI": 4960,
      "indu": 4961,
      "+\\": 4962,
      "operation": 4963,
      "Widget": 4964,
      ")->": 4965,
      "protobuf.": 4966,
      "?ĊĊ": 4967,
      "0/": 4968,
      "fier": 4969,
      "aboveĠ": 4970,
      "dict": 4971,
      "execute": 4972,
      "asyncĠ": 4973,
      ")(": 4974,
      "before": 4975,
      "ENT_": 4976,
      "UĠ": 4977,
      "counter": 4978,
      "numer": 4979,
      "expl": 4980,
      "Product": 4981,
      "issue": 4982,
      "sd": 4983,
      ",\"": 4984,
      "expectedĠ": 4985,
      "Has": 4986,
      "aboutĠtheĠ": 4987,
      ",Ġ0": 4988,
      "ate(": 4989,
      "java.lang.": 4990,
      "Note": 4991,
      "199": 4992,
      "+Ġ(": 4993,
      "shipĠ": 4994,
      "install": 4995,
      "ake": 4996,
      "usingĠtheĠ": 4997,
      "BuilderĠ": 4998,
      "configur": 4999,
      "00000000": 5000,
      "commit": 5001,
      "app.": 5002,
      "ĠtheĠ": 5003,
      "btn-": 5004,
      "eitherĠ": 5005,
      "x-": 5006,
      "Expression": 5007,
      "tree": 5008,
      "largeĠ": 5009,
      "extern": 5010,
      "Tw": 5011,
      "oneĠofĠtheĠ": 5012,
      "\"Ġname=\"": 5013,
      "FAUL": 5014,
      "Question:Ġ": 5015,
      "rad": 5016,
      "lead": 5017,
      "squ": 5018,
      ",Ġ1": 5019,
      "category": 5020,
      "Card": 5021,
      "alseĠ": 5022,
      "Device": 5023,
      "analy": 5024,
      "username": 5025,
      "aver": 5026,
      "assert.": 5027,
      "endĊ": 5028,
      "thatĠisĠ": 5029,
      "quote": 5030,
      "{ĊĊĠĠĠĠ": 5031,
      ",ĠandĠtheĠ": 5032,
      "88": 5033,
      "only": 5034,
      "gest": 5035,
      "EQ": 5036,
      "ectorĠ": 5037,
      "interface": 5038,
      "_to_": 5039,
      "ifĠnotĠ": 5040,
      "Offset": 5041,
      "{Ġget;Ġ": 5042,
      "</h": 5043,
      "16Ġ": 5044,
      "(ĊĠĠĠĠ": 5045,
      "theta": 5046,
      "recor": 5047,
      "ECT_": 5048,
      "}]": 5049,
      "{Ċ": 5050,
      "-Ġ(": 5051,
      "ĠĠĠĠĠĠĠĠĠĠĠ": 5052,
      "sat": 5053,
      ">ĊĠĠĠĠ<": 5054,
      "[$": 5055,
      ".h\"Ċ#includeĠ\"": 5056,
      "db.": 5057,
      "suchĠasĠ": 5058,
      "yi": 5059,
      "cp": 5060,
      "jav": 5061,
      "templateĠ": 5062,
      "ÐµÑĢ": 5063,
      "Â»": 5064,
      "support": 5065,
      "Ñħ": 5066,
      "Drawing.": 5067,
      "sayĠ": 5068,
      "ingĠforĠ": 5069,
      "Serializ": 5070,
      "alsĠ": 5071,
      "APIĠ": 5072,
      "umb": 5073,
      "Ċ*Ġ": 5074,
      "material": 5075,
      "}ĊĠĠĠĠĠĠĠĠĠĠĠĠĠĠĠĠĠĠĠĠ": 5076,
      "Id,Ġ": 5077,
      "/v": 5078,
      "Script": 5079,
      ".get_": 5080,
      "ATH": 5081,
      "neg": 5082,
      "_tĠ*": 5083,
      "owever,Ġ": 5084,
      "sterĠ": 5085,
      "Network": 5086,
      "ee": 5087,
      ".Ġ$": 5088,
      "anti": 5089,
      "\"),Ġ": 5090,
      "(err": 5091,
      "AU": 5092,
      "handl": 5093,
      "Variable": 5094,
      "ause": 5095,
      "interest": 5096,
      "View.": 5097,
      ");čĊĠĠĠĠĠĠĠĠ": 5098,
      "sheet": 5099,
      "wareĠ": 5100,
      "55": 5101,
      "transp": 5102,
      "world": 5103,
      "ination": 5104,
      "bal": 5105,
      "wasĠaĠ": 5106,
      "ply": 5107,
      "System.Drawing.": 5108,
      "nore": 5109,
      "Direct": 5110,
      "exampleĠ": 5111,
      "clientĠ": 5112,
      "rm{": 5113,
      "structure": 5114,
      ")Ġ(": 5115,
      "istĠ=Ġ": 5116,
      "dimension": 5117,
      "turn": 5118,
      "user.": 5119,
      "employ": 5120,
      "ListĠ": 5121,
      "Non": 5122,
      "_get_": 5123,
      "Ċ\\begin{equation": 5124,
      "ãĤĴ": 5125,
      "doesn'tĠ": 5126,
      "Range": 5127,
      "{ĊĉĉreturnĠ": 5128,
      "regist": 5129,
      "user_": 5130,
      "againstĠ": 5131,
      "listĠofĠ": 5132,
      "paramĠname=\"": 5133,
      "Big": 5134,
      "Pay": 5135,
      "::Ġ": 5136,
      "Handl": 5137,
      "oodĠ": 5138,
      "null,Ġ": 5139,
      "boolean": 5140,
      "\\r": 5141,
      "()Ġ{Ċĉĉ": 5142,
      "ä¸ª": 5143,
      "Polic": 5144,
      "');Ċ": 5145,
      "right.Ġ": 5146,
      "ify": 5147,
      "Xml": 5148,
      "Sel": 5149,
      "funĠ": 5150,
      "Pe": 5151,
      "cd": 5152,
      "ilyĠ": 5153,
      "({": 5154,
      "ABLE": 5155,
      "Channel": 5156,
      "Fol": 5157,
      "Host": 5158,
      ";čĊĠĠĠĠ": 5159,
      "summary>": 5160,
      "whenĠtheĠ": 5161,
      "internalĠ": 5162,
      "-->": 5163,
      "mus": 5164,
      "|Ċ|Ġ": 5165,
      "pair": 5166,
      "team": 5167,
      ".jo": 5168,
      "')ĊĠĠĠĠ": 5169,
      "after": 5170,
      "analys": 5171,
      "Pat": 5172,
      ".class": 5173,
      "updateĠ": 5174,
      "singĠ": 5175,
      "esh": 5176,
      ";ĊĠĠĠĠĠĠĠĠĠĠĠĠthis.": 5177,
      "Ã§": 5178,
      "args.": 5179,
      "submit": 5180,
      "o_": 5181,
      "Ð¾Ð»": 5182,
      "vas": 5183,
      "necess": 5184,
      "o-": 5185,
      "Lang": 5186,
      "ates": 5187,
      "modeĠ": 5188,
      "Utils.": 5189,
      "TODO": 5190,
      "ning": 5191,
      "Reference": 5192,
      "\">ĊĠĠĠĠĠĠĠĠ": 5193,
      "videdĠ": 5194,
      "plot": 5195,
      "Right": 5196,
      "ĠĠ\"": 5197,
      "It": 5198,
      "Ter": 5199,
      "times": 5200,
      "tax": 5201,
      "className=\"": 5202,
      "cb": 5203,
      "mask": 5204,
      "čĊĉĉĉĉĉ": 5205,
      "s,ĠtheĠ": 5206,
      "rangeĠ": 5207,
      "left(\\": 5208,
      "});ĊĠĠĠĠ": 5209,
      "firm": 5210,
      "RAM": 5211,
      "^\\": 5212,
      "ipp": 5213,
      "Av": 5214,
      "provide": 5215,
      "edu": 5216,
      "nee": 5217,
      "effic": 5218,
      "PAR": 5219,
      "nu": 5220,
      "AND": 5221,
      "48": 5222,
      "izedĠ": 5223,
      "ape": 5224,
      "+Ġ'": 5225,
      "System.Windows.": 5226,
      "GET": 5227,
      "&nbsp;": 5228,
      "One": 5229,
      "ationĠandĠ": 5230,
      "serviceĠ": 5231,
      "=>Ġ'": 5232,
      "Values": 5233,
      "gramĠ": 5234,
      "cook": 5235,
      "logger.": 5236,
      "XX": 5237,
      "1]": 5238,
      "setup": 5239,
      "ContextĠ": 5240,
      "grow": 5241,
      "GĠ": 5242,
      "Last": 5243,
      "_RE": 5244,
      "txt": 5245,
      "-8": 5246,
      "END": 5247,
      "questionĠ": 5248,
      "elseĠifĠ(": 5249,
      "privateĠvoidĠ": 5250,
      "$data": 5251,
      "s\"Ġ": 5252,
      "le_": 5253,
      "ingĠinĠ": 5254,
      "ofĠ$": 5255,
      "Descript": 5256,
      "jec": 5257,
      "sectionĠ": 5258,
      "Fix": 5259,
      "ryĠ": 5260,
      "mac": 5261,
      "headĠ": 5262,
      "desĠ": 5263,
      "echoĠ\"": 5264,
      "force": 5265,
      "v-": 5266,
      "DEFAUL": 5267,
      "Parser": 5268,
      "iment": 5269,
      "Admin": 5270,
      "',ĊĠĠ": 5271,
      "mix": 5272,
      "1)Ġ": 5273,
      "reason": 5274,
      "lightĠ": 5275,
      ";ĊĊĉĉ": 5276,
      "layer": 5277,
      "Main": 5278,
      "Body": 5279,
      "2}": 5280,
      "',ĊĠĠĠĠĠĠ": 5281,
      ",Ġ0,Ġ": 5282,
      "modifi": 5283,
      "agent": 5284,
      "Conn": 5285,
      "ally": 5286,
      "Plugin": 5287,
      "toĠre": 5288,
      "clean": 5289,
      "fetch": 5290,
      "moreĠthanĠ": 5291,
      "IĠhaveĠ": 5292,
      "\"><": 5293,
      "CodeĠ": 5294,
      "batch": 5295,
      "onceĠ": 5296,
      "AddĠ": 5297,
      "[:": 5298,
      "Matrix": 5299,
      "ditionĠ": 5300,
      "keepĠ": 5301,
      "Ġê": 5302,
      "known": 5303,
      "38": 5304,
      "med": 5305,
      ";ĊĠĠĠĠprivateĠ": 5306,
      "spac": 5307,
      "FileĠ": 5308,
      "ared": 5309,
      "statusĠ": 5310,
      "typeĠ=Ġ": 5311,
      "scho": 5312,
      "uint8": 5313,
      "fon": 5314,
      "chain": 5315,
      "å¯": 5316,
      "to-": 5317,
      "contr": 5318,
      "siteĠ": 5319,
      "evalu": 5320,
      "ĠÐ¸": 5321,
      "es/": 5322,
      "scen": 5323,
      "wide": 5324,
      "Ċĉĉĉĉĉĉĉĉĉ": 5325,
      "($this->": 5326,
      "raiseĠ": 5327,
      "apĠ": 5328,
      "in_": 5329,
      "response.": 5330,
      "mitĠ": 5331,
      "id_": 5332,
      "toĠgetĠ": 5333,
      "Forms.": 5334,
      "Display": 5335,
      "importantĠ": 5336,
      ",Ġd": 5337,
      "</p>": 5338,
      "\"ĊĠĠĠĠĠĠĠĠĠĠĠĠĠĠĠĠ": 5339,
      "discus": 5340,
      "vector<": 5341,
      "))ĊĠĠĠĠ": 5342,
      "âĢ¦": 5343,
      "specifiedĠ": 5344,
      "left.\\right": 5345,
      "cou": 5346,
      "1:": 5347,
      "Member": 5348,
      "TYPE": 5349,
      "centr": 5350,
      "driver": 5351,
      "com.google.protobuf.": 5352,
      "theĠsameĠ": 5353,
      "Ow": 5354,
      "lip": 5355,
      "al,Ġ": 5356,
      "\")ĊĠĠĠĠĠĠĠĠ": 5357,
      "resourceĠ": 5358,
      "Addres": 5359,
      "gamma": 5360,
      "SQL": 5361,
      ".D": 5362,
      ");Ċĉ}ĊĊĉ": 5363,
      "Ð¾Ð´": 5364,
      "Head": 5365,
      "sym": 5366,
      "ower": 5367,
      "W_": 5368,
      "pool": 5369,
      "logĠ": 5370,
      "ricĠ": 5371,
      "*/ĊĠĠĠĠ": 5372,
      "ìĹ": 5373,
      "Gre": 5374,
      "âĶĢ": 5375,
      "director": 5376,
      "soft.": 5377,
      ",ĠinĠ": 5378,
      "ä¸Ń": 5379,
      "gress": 5380,
      "design": 5381,
      ".join": 5382,
      ";ĊĊĠĠĠĠĠĠĠĠĠĠĠĠ": 5383,
      "graphic": 5384,
      "ih": 5385,
      "',ĊĠĠĠĠ'": 5386,
      ".ĠTheyĠ": 5387,
      "hidden": 5388,
      "unch": 5389,
      "9.": 5390,
      ",ĠT": 5391,
      "$-": 5392,
      "(id": 5393,
      "meric": 5394,
      "s['": 5395,
      "ado": 5396,
      "</div>ĊĠĠĠĠĠĠĠĠĠĠĠĠĠĠĠĠ": 5397,
      "_value": 5398,
      "inner": 5399,
      "Cr": 5400,
      "\"Ġid=\"": 5401,
      "Identi": 5402,
      "Any": 5403,
      "Promise": 5404,
      "font-": 5405,
      "Parse": 5406,
      "ĠĠ//Ġ": 5407,
      "validate": 5408,
      "Suc": 5409,
      "atelyĠ": 5410,
      "andid": 5411,
      "realĠ": 5412,
      "moduleĠ": 5413,
      "classe": 5414,
      "Queue": 5415,
      "rodu": 5416,
      "N_": 5417,
      "åľ¨": 5418,
      "release": 5419,
      "That": 5420,
      "<divĠclass=\"col-": 5421,
      ".h>Ċ#includeĠ<": 5422,
      "/**ĊĉĠ*Ġ": 5423,
      "modu": 5424,
      "boot": 5425,
      "fire": 5426,
      "Ð°Ð½": 5427,
      "Sol": 5428,
      "$ĠisĠ": 5429,
      "500": 5430,
      "B_": 5431,
      "ĊĊ#Ġ": 5432,
      "android/": 5433,
      "ĊĊ##Ġ": 5434,
      "ipel": 5435,
      "Tran": 5436,
      "schema": 5437,
      "12Ġ": 5438,
      "æł": 5439,
      "white": 5440,
      "KEY": 5441,
      "Vol": 5442,
      "ĊĉĠ*Ġ@": 5443,
      "ExceptionĠe": 5444,
      "hop": 5445,
      "ic_": 5446,
      "Hol": 5447,
      "2018": 5448,
      "edĠandĠ": 5449,
      "aĠnewĠ": 5450,
      "beg": 5451,
      "alt": 5452,
      "CreateĠ": 5453,
      "poly": 5454,
      "2}Ġ": 5455,
      "handler": 5456,
      "\"]Ġ=Ġ": 5457,
      "System.Windows.Forms.": 5458,
      "RES": 5459,
      "props.": 5460,
      "who": 5461,
      "ght": 5462,
      "ba": 5463,
      "compo": 5464,
      "icture": 5465,
      "'ĊĠĠĠĠ": 5466,
      "Ċĉ}Ċĉ": 5467,
      "publicĠvoidĠset": 5468,
      "shape": 5469,
      "thereĠareĠ": 5470,
      "arti": 5471,
      "FILE": 5472,
      "alongĠ": 5473,
      "enameĠ": 5474,
      "(k": 5475,
      "Panel": 5476,
      "accord": 5477,
      "sug": 5478,
      "Americ": 5479,
      "umnĠ": 5480,
      "hour": 5481,
      "&&Ġ!": 5482,
      "ĊĊQuestion:Ġ": 5483,
      "event.": 5484,
      ";ĊĠĠĠĠĠĠĠĠĠĠ": 5485,
      "oleĠ": 5486,
      "private": 5487,
      "ggle": 5488,
      "tributeĠ": 5489,
      "res.": 5490,
      "@Test": 5491,
      "ment.": 5492,
      "):ĊĠĠĠĠĠĠĠĠĠĠĠĠ": 5493,
      "disable": 5494,
      "trace": 5495,
      "umeĠ": 5496,
      "returnĠthis.": 5497,
      "matrix": 5498,
      "ins": 5499,
      "tdĠ": 5500,
      "66": 5501,
      "bottom": 5502,
      "AGE": 5503,
      "mathrm{": 5504,
      "uct": 5505,
      "week": 5506,
      "2)": 5507,
      "Gam": 5508,
      "ĊĊimportĠ": 5509,
      "2017": 5510,
      "\"Ċĉ\"": 5511,
      "CheckĠ": 5512,
      "roy": 5513,
      "cred": 5514,
      "activeĠ": 5515,
      "Options": 5516,
      "<spanĠclass=\"": 5517,
      "fullyĠ": 5518,
      "Transform": 5519,
      "attach": 5520,
      "st_": 5521,
      "ation_": 5522,
      "ESS": 5523,
      "er-": 5524,
      "SET": 5525,
      "Msg": 5526,
      "3,": 5527,
      "frac{\\": 5528,
      "doneĠ": 5529,
      "viaĠ": 5530,
      "edĠaĠ": 5531,
      ");ĊĠĠĠĠĠĠĠĠĠĠĠĠ}ĊĠĠĠĠĠĠĠĠ": 5532,
      "2019": 5533,
      "effect": 5534,
      "')ĊĠĠĠĠĠĠĠĠ": 5535,
      "HE": 5536,
      "///Ġ</summary>ĊĠĠĠĠĠĠĠĠ": 5537,
      "WOR": 5538,
      ",ĠconstĠ": 5539,
      "offer": 5540,
      ";Ċĉĉĉĉĉ": 5541,
      "comput": 5542,
      "*/Ċĉ": 5543,
      "cket": 5544,
      "///Ġ<paramĠname=\"": 5545,
      "metadata": 5546,
      "chron": 5547,
      "direction": 5548,
      "ï¼ļ": 5549,
      "onom": 5550,
      "lotĠ": 5551,
      "wom": 5552,
      ":Ġ{": 5553,
      "imag": 5554,
      "Ð³": 5555,
      "is,Ġ": 5556,
      "internal": 5557,
      "youĠareĠ": 5558,
      "i>": 5559,
      "yearĠ": 5560,
      "1}{": 5561,
      "///Ġ<summary>ĊĠĠĠĠĠĠĠĠ": 5562,
      "eĠ=ĠnewĠ": 5563,
      "(Ġ$": 5564,
      ".ĠSheĠ": 5565,
      "SELE": 5566,
      "OneĠ": 5567,
      "\"Ġ<<Ġ": 5568,
      "Left": 5569,
      "styleĠ": 5570,
      "toge": 5571,
      "\"\"\"ĊĠĠĠĠ": 5572,
      "lect": 5573,
      "globalĠ": 5574,
      "Tri": 5575,
      "OĠ": 5576,
      ",ĊĠĠĠĠĠĠĠĠĠĠĠĠĠĠĠĠĠĠĠĠĠĠĠĠĠĠĠĠ": 5577,
      "noti": 5578,
      "asp": 5579,
      "memberĠ": 5580,
      ",Ġs": 5581,
      "encyĠ": 5582,
      ",ĠB": 5583,
      "(G": 5584,
      "mathbf{": 5585,
      "ĊĠĠĠĠĠĠĠĠĠĠĠĠĠĠĠĠĠĠĠĠĠĠ": 5586,
      "poseĠ": 5587,
      "pick": 5588,
      "fur": 5589,
      "¿½": 5590,
      "77": 5591,
      "Copy": 5592,
      ")Ġ:Ġ": 5593,
      "NotĠ": 5594,
      "ĊĊ#includeĠ": 5595,
      "Resol": 5596,
      ");Ċĉĉĉĉĉ": 5597,
      "type=\"text": 5598,
      "meta": 5599,
      "createdĠ": 5600,
      "DIR": 5601,
      "PL": 5602,
      "hy": 5603,
      "Sing": 5604,
      "whyĠ": 5605,
      "groundĠ": 5606,
      "clus": 5607,
      "serial": 5608,
      "DS": 5609,
      "falseĠ": 5610,
      "solution": 5611,
      "set;Ġ": 5612,
      "alert": 5613,
      "inceĠ": 5614,
      "saf": 5615,
      "scope.": 5616,
      "Repository": 5617,
      "permission": 5618,
      "type.": 5619,
      ",ĠC": 5620,
      ");čĊĠĠĠĠĠĠĠĠĠĠĠĠ": 5621,
      "elifĠ": 5622,
      "Dist": 5623,
      "#[": 5624,
      "bri": 5625,
      "individ": 5626,
      "thereĠisĠ": 5627,
      "worldĠ": 5628,
      "Look": 5629,
      "string,Ġ": 5630,
      "ëĭ¤": 5631,
      ".d": 5632,
      "impro": 5633,
      "({Ġ": 5634,
      "topic": 5635,
      "upload": 5636,
      "electr": 5637,
      "Init": 5638,
      ");ĊĠĠĠĠĠĠĠĠ}ĊĠĠĠĠĠĠĠĠ": 5639,
      "nolog": 5640,
      "http://www.": 5641,
      "&&Ġ(": 5642,
      ")Ċ}ĊĊ": 5643,
      "/p": 5644,
      "_time": 5645,
      "verse": 5646,
      "projectĠ": 5647,
      "maj": 5648,
      "[[": 5649,
      ";ĊĠĠĠĠĠĠĠĠĠĠĠĠĠĠĠĠĠĠĠĠĠĠĠĠ": 5650,
      "ï¿½": 5651,
      "](https://github.com/": 5652,
      "Ill": 5653,
      "sĠforĠtheĠ": 5654,
      "deli": 5655,
      "UID": 5656,
      "(void": 5657,
      "useĠtheĠ": 5658,
      "matri": 5659,
      "CI": 5660,
      "proce": 5661,
      "ĉĉĉĉĉ": 5662,
      "()Ġ==Ġ": 5663,
      "Properties": 5664,
      "sĠtoĠbeĠ": 5665,
      "=Ġ$": 5666,
      ";čĊĉ": 5667,
      "blockĠ": 5668,
      "Bin": 5669,
      "org.j": 5670,
      "Goog": 5671,
      "pix": 5672,
      "Ð°ÑĤ": 5673,
      "Double": 5674,
      "section{": 5675,
      "RA": 5676,
      "enseĠ": 5677,
      "(4": 5678,
      "{@linkĠ": 5679,
      ":Ċĉĉ": 5680,
      "Email": 5681,
      "constant": 5682,
      "inline": 5683,
      "panel": 5684,
      "signĠ": 5685,
      ".html": 5686,
      "random": 5687,
      "buildĠ": 5688,
      "denĠ": 5689,
      "it('": 5690,
      "sqrt": 5691,
      "fic": 5692,
      "coordin": 5693,
      "Register": 5694,
      "vent": 5695,
      "'dĠ": 5696,
      "ç½": 5697,
      "String()": 5698,
      "models.": 5699,
      "add(": 5700,
      "theyĠareĠ": 5701,
      "factor": 5702,
      "es_": 5703,
      "cach": 5704,
      "textĠ=Ġ": 5705,
      "tun": 5706,
      "course": 5707,
      "ian": 5708,
      "\"></a>": 5709,
      "framework.": 5710,
      "abl": 5711,
      "ness": 5712,
      "Dr": 5713,
      "multipleĠ": 5714,
      "bookĠ": 5715,
      "ations": 5716,
      "Bas": 5717,
      ",Ġre": 5718,
      "Send": 5719,
      "scroll": 5720,
      "pattern": 5721,
      "Anal": 5722,
      "staticĠvoidĠ": 5723,
      "correct": 5724,
      "ouslyĠ": 5725,
      "ouseĠ": 5726,
      "override": 5727,
      "dialog": 5728,
      "Part": 5729,
      "sĠatĠ": 5730,
      ".C": 5731,
      "cas": 5732,
      "aim": 5733,
      "overĠtheĠ": 5734,
      "Value(": 5735,
      "TEX": 5736,
      "gover": 5737,
      "`,Ġ": 5738,
      "variableĠ": 5739,
      "';ĊimportĠ{Ġ": 5740,
      "behavi": 5741,
      "liĠ": 5742,
      "ĠÐº": 5743,
      "Role": 5744,
      "happen": 5745,
      "cluster": 5746,
      "(structĠ": 5747,
      "System.out.": 5748,
      "Metadata": 5749,
      "ĠĠĠĠĠĠĠĠĠĠĠĠĠ": 5750,
      "configuration": 5751,
      "1.Ġ": 5752,
      "ter.": 5753,
      "baseĠ": 5754,
      "/**ĊĠĠĠ*Ġ": 5755,
      "ismĠ": 5756,
      "();Ċĉĉĉ": 5757,
      "in-": 5758,
      "ascript": 5759,
      "6,Ġ": 5760,
      "dim": 5761,
      "<aĠname=\"": 5762,
      "ple": 5763,
      "returnĠ\"": 5764,
      "width:Ġ": 5765,
      "'ĊĠĠĠĠĠĠĠĠ": 5766,
      "underst": 5767,
      "ĠÐ´": 5768,
      "Service.": 5769,
      "inlineĠ": 5770,
      "LD": 5771,
      "erĠ=ĠnewĠ": 5772,
      "May": 5773,
      "FRO": 5774,
      "WĠ": 5775,
      "prep": 5776,
      "~\\ref{": 5777,
      "fromĠaĠ": 5778,
      "finish": 5779,
      "_back": 5780,
      "}ĊĠĠĠĠĠĠĠĠĠĠ": 5781,
      "=Ġ'": 5782,
      "_PO": 5783,
      ");ĊĠĠĠĠĠĠĠĠĠĠĠĠthis.": 5784,
      "[0].": 5785,
      "ACK": 5786,
      "didn'tĠ": 5787,
      "âĢĻĠ": 5788,
      "Impl": 5789,
      "mt": 5790,
      "throughĠtheĠ": 5791,
      "StringĠget": 5792,
      "totalĠ": 5793,
      "platform": 5794,
      "esĠtoĠ": 5795,
      "\\left(\\": 5796,
      "eq:": 5797,
      "=$": 5798,
      "Ċĉ//Ġ": 5799,
      "black": 5800,
      "power": 5801,
      "apsh": 5802,
      "åĨ": 5803,
      "rout": 5804,
      "Vir": 5805,
      "nd": 5806,
      "aren": 5807,
      "providedĠ": 5808,
      "Rece": 5809,
      "æľī": 5810,
      "expression": 5811,
      "Activity": 5812,
      "Func": 5813,
      "item.": 5814,
      "hasĠaĠ": 5815,
      "Wrap": 5816,
      "taĠ": 5817,
      "closeĠ": 5818,
      "matchĠ": 5819,
      "}}Ġ": 5820,
      "addedĠ": 5821,
      "returnsĠ": 5822,
      "Close": 5823,
      "spring": 5824,
      "TEST": 5825,
      ")Ġ*Ġ": 5826,
      "sĠlikeĠ": 5827,
      "asonĠ": 5828,
      "includingĠ": 5829,
      "Struct": 5830,
      "ux": 5831,
      "blue": 5832,
      "</a>": 5833,
      ".,Ġ": 5834,
      "actuallyĠ": 5835,
      "Hist": 5836,
      "initializ": 5837,
      "caseĠ'": 5838,
      "Sl": 5839,
      ";Ċĉ}Ċĉ": 5840,
      ".Ġ.Ġ": 5841,
      "</div>Ċ": 5842,
      "Priv": 5843,
      "Generic": 5844,
      ":ĊĠĠĠĠĠĠĠĠĠĠĠĠĠĠĠĠĠĠĠĠ": 5845,
      "_SI": 5846,
      "resolve": 5847,
      "Ġ$": 5848,
      "();ĊĠĠĠĠ}ĊĊĠĠĠĠ": 5849,
      "')Ċ": 5850,
      "1-": 5851,
      ")Ċĉ{Ċĉĉ": 5852,
      "goingĠtoĠ": 5853,
      "edĠwithĠ": 5854,
      "Meta": 5855,
      "Selected": 5856,
      "thir": 5857,
      "life": 5858,
      "io/": 5859,
      "ifĠerrĠ!=ĠnilĠ": 5860,
      "',ĊĠĠĠĠĠĠĠĠĠĠĠĠ'": 5861,
      "q.": 5862,
      "describ": 5863,
      "ServiceĠ": 5864,
      "ä¿": 5865,
      "__init": 5866,
      "std::stringĠ": 5867,
      "çĽ": 5868,
      "on_": 5869,
      "Ð¸ÑĤ": 5870,
      "referenceĠ": 5871,
      "parameterĠ": 5872,
      "\\end{code}ĊĊ": 5873,
      ":0": 5874,
      "IF": 5875,
      "pas": 5876,
      "åĩ": 5877,
      "manage": 5878,
      "energyĠ": 5879,
      "dam": 5880,
      "\"`": 5881,
      "2/": 5882,
      "struction": 5883,
      "sr": 5884,
      "'llĠ": 5885,
      "1000": 5886,
      "ism": 5887,
      "clearĠ": 5888,
      "fixĠ": 5889,
      "isset": 5890,
      "photo": 5891,
      "Manager.": 5892,
      "dt": 5893,
      "];ĊĠĠĠĠ": 5894,
      "construct": 5895,
      "\",ĊĠĠ\"": 5896,
      "isĠtoĠ": 5897,
      "replace": 5898,
      "deleteĠ": 5899,
      "used": 5900,
      "åį": 5901,
      "google": 5902,
      ")/": 5903,
      "');ĊĠĠĠĠ": 5904,
      "atures": 5905,
      "ĊĠĠĠĠ#Ġ": 5906,
      ";ĊimportĠandroid.": 5907,
      "Ã©Ġ": 5908,
      "howĠtoĠ": 5909,
      "_g": 5910,
      "(name": 5911,
      "ALL": 5912,
      "Univers": 5913,
      "context,Ġ": 5914,
      "[3": 5915,
      "OB": 5916,
      "ERĠ": 5917,
      "DE_": 5918,
      "Ġ=Ġ1": 5919,
      "if($": 5920,
      "===Ġ'": 5921,
      "es.Ċ": 5922,
      "atten": 5923,
      "\",ĊĠĠĠĠĠĠĠĠ\"": 5924,
      "Mark": 5925,
      ">ĊĠĠ": 5926,
      "ä¸į": 5927,
      "ÂłÂł": 5928,
      "targetĠ": 5929,
      "od": 5930,
      "Secur": 5931,
      "equals(": 5932,
      "atĠleastĠ": 5933,
      "can'tĠ": 5934,
      "CR": 5935,
      "Types": 5936,
      "10.": 5937,
      "Editor": 5938,
      "ÑĨ": 5939,
      "';ĊĊ": 5940,
      "appli": 5941,
      "frequ": 5942,
      "contextĠ": 5943,
      "Sum": 5944,
      "returnĠ$this->": 5945,
      "(file": 5946,
      "consist": 5947,
      "switchĠ(": 5948,
      "insteadĠ": 5949,
      "}.": 5950,
      "',ĊĠĠĠĠĠĠĠĠĠĠĠĠ": 5951,
      "modif": 5952,
      "æį": 5953,
      "_{1": 5954,
      "\\x": 5955,
      "relatedĠ": 5956,
      "ìĿ´": 5957,
      "coding": 5958,
      "mutĠ": 5959,
      "shop": 5960,
      "remain": 5961,
      "EventĠ": 5962,
      "DateTime": 5963,
      ".find": 5964,
      "sem": 5965,
      "Password": 5966,
      "cn": 5967,
      "DEBU": 5968,
      "outĠofĠ": 5969,
      "waterĠ": 5970,
      "Ð±": 5971,
      "Reader": 5972,
      "Vec": 5973,
      "rat": 5974,
      "15Ġ": 5975,
      "Invalid": 5976,
      "registr": 5977,
      "__init__": 5978,
      "u.": 5979,
      "Common": 5980,
      "path.": 5981,
      "cmd": 5982,
      ".js": 5983,
      "workingĠ": 5984,
      "enoughĠ": 5985,
      "editor": 5986,
      "solutionĠ": 5987,
      "Sequ": 5988,
      "entic": 5989,
      "]{": 5990,
      "acros": 5991,
      "cost": 5992,
      "ANG": 5993,
      ");čĊĉĉ": 5994,
      "ĠĠĠĠĠĠĠĠĠĠĠĠĠĠĠĠĠĠĠ": 5995,
      "simpleĠ": 5996,
      "zero": 5997,
      "_dir": 5998,
      "=Ġtrue": 5999,
      "tionĠofĠ": 6000,
      "ather": 6001,
      "bul": 6002,
      "stantĠ": 6003,
      ".get(": 6004,
      "smo": 6005,
      "Abstract": 6006,
      "){": 6007,
      "lifeĠ": 6008,
      "#includeĠ": 6009,
      "andĠaĠ": 6010,
      "Sty": 6011,
      "Lock": 6012,
      "[i].": 6013,
      "ectiv": 6014,
      "mov": 6015,
      "///Ġ<summary>ĊĠĠĠĠĠĠĠĠ///Ġ": 6016,
      "theme": 6017,
      "partialĠ": 6018,
      "js": 6019,
      "signific": 6020,
      "oneĠofĠ": 6021,
      "ä¹": 6022,
      "if(!": 6023,
      "\"Ġdata-": 6024,
      ".ĠP": 6025,
      "ãģĹ": 6026,
      "pul": 6027,
      "InfoĠ": 6028,
      "setĠofĠ": 6029,
      "è¦": 6030,
      "iver": 6031,
      "pan": 6032,
      "uri": 6033,
      "nâĢĻtĠ": 6034,
      "scr": 6035,
      "åı¯": 6036,
      "css": 6037,
      "fiel": 6038,
      "_Ġ=Ġ": 6039,
      "tick": 6040,
      ",ĠthenĠ": 6041,
      "Ñİ": 6042,
      "Ãł": 6043,
      "Ð¾ÑĢ": 6044,
      "})Ġ": 6045,
      "Syn": 6046,
      "severalĠ": 6047,
      "properties": 6048,
      "IR": 6049,
      "posedĠ": 6050,
      "net.": 6051,
      "infty": 6052,
      "Descriptor": 6053,
      "meanĠ": 6054,
      "Ð¾Ð¼": 6055,
      "Equal(": 6056,
      "ifdefĠ": 6057,
      "yy": 6058,
      "(B": 6059,
      "Clust": 6060,
      "pĠ=Ġ": 6061,
      "{$": 6062,
      "TS": 6063,
      "Track": 6064,
      "hyp": 6065,
      "diĠ": 6066,
      ";Ċ}Ċ": 6067,
      "imgĠ": 6068,
      ")Ġ{ĊĠĠĠĠĠĠĠĠthis.": 6069,
      "language": 6070,
      "49": 6071,
      "skip": 6072,
      "}Ċĉĉĉĉ": 6073,
      "AL_": 6074,
      "formatĠ": 6075,
      "vision": 6076,
      ")Ċĉĉĉĉ": 6077,
      "(g": 6078,
      "Clas": 6079,
      "\",Ċĉĉ": 6080,
      "contact": 6081,
      "escap": 6082,
      "ingsĠ": 6083,
      ".proto": 6084,
      "simul": 6085,
      ")Ġ{ĊĠĠĠĠĠĠĠĠĠĠĠĠĠĠĠĠĠĠĠĠĠĠĠĠ": 6086,
      "dispatch": 6087,
      ",Ġn": 6088,
      "Pool": 6089,
      "wan": 6090,
      "compar": 6091,
      "å®ļ": 6092,
      "INFO": 6093,
      "String>Ġ": 6094,
      "master": 6095,
      "æŀ": 6096,
      "regionĠ": 6097,
      "=Ġfalse": 6098,
      "Sn": 6099,
      "entedĠ": 6100,
      "ult.": 6101,
      "78": 6102,
      ";Ġ//Ġ": 6103,
      "serializ": 6104,
      "@\"": 6105,
      "sent": 6106,
      "ĊĠĠĠĠĠĠĠ": 6107,
      "_ptr": 6108,
      "éĩ": 6109,
      "\";ĊĠĠĠĠ": 6110,
      "helper": 6111,
      ".ĊS": 6112,
      "\":\"": 6113,
      "occur": 6114,
      "EM": 6115,
      "Each": 6116,
      "python": 6117,
      "serĠ": 6118,
      "ãĥ³": 6119,
      "h\"": 6120,
      "NumberĠ": 6121,
      ").ĊĊ": 6122,
      "invoke": 6123,
      "ASSER": 6124,
      "76": 6125,
      "enceĠofĠ": 6126,
      "åĢ": 6127,
      "ing:Ġ": 6128,
      "structureĠ": 6129,
      "iddle": 6130,
      "Joh": 6131,
      ")Ġ{ĊĠĠĠĠĠĠĠĠreturnĠ": 6132,
      "authorĠ": 6133,
      "underĠtheĠ": 6134,
      "choo": 6135,
      "rist": 6136,
      "(l": 6137,
      "))Ċ": 6138,
      "che": 6139,
      "ditĠ": 6140,
      "minute": 6141,
      "http.": 6142,
      "whereĠtheĠ": 6143,
      ")ĊĠĠĠĠĠĠĠĠĠĠ": 6144,
      "Fai": 6145,
      "()ĊĠĠĠĠĠĠĠĠĠĠĠĠ": 6146,
      "similarĠ": 6147,
      "ario": 6148,
      "tilde": 6149,
      "Ã£": 6150,
      ".Ġ(": 6151,
      "tsĠ": 6152,
      "ĊĠĠĠĠĠĠĠĠĠĠĠĠĠĠĠĠĠĠĠĠ<": 6153,
      "\"Ġ+": 6154,
      "',ĊĠĠĠĠĠĠĠĠ'": 6155,
      "print(\"": 6156,
      "mlĠ": 6157,
      "request.": 6158,
      "));ĊĠĠĠĠ": 6159,
      "HTML": 6160,
      "utils.": 6161,
      "value:Ġ": 6162,
      "TimeĠ": 6163,
      "App\\": 6164,
      "friend": 6165,
      "ectiveĠ": 6166,
      "barĠ": 6167,
      "Adapter": 6168,
      "Fail": 6169,
      "schem": 6170,
      "$('#": 6171,
      "ightĠ=Ġ": 6172,
      "bb": 6173,
      "segment": 6174,
      "Selector": 6175,
      ".ĊĠ*": 6176,
      "allowĠ": 6177,
      "s.push": 6178,
      ")Ċ{ĊĠĠ": 6179,
      "color:Ġ": 6180,
      "price": 6181,
      "uple": 6182,
      "fn": 6183,
      "fa-": 6184,
      "\"ĊĠĠĠĠĠĠĠĠĠĠĠĠ": 6185,
      "ëĬ": 6186,
      "{Ġget;Ġset;Ġ": 6187,
      "Bound": 6188,
      "ResponseĠ": 6189,
      "\");Ċ": 6190,
      "IĠwasĠ": 6191,
      "(\\ref{": 6192,
      "()ĊĠĠĠĠĠĠĠĠ{ĊĠĠĠĠĠĠĠĠĠĠĠĠ": 6193,
      "pxĠ": 6194,
      "veĠtheĠ": 6195,
      "ä¼": 6196,
      "tl": 6197,
      "Profile": 6198,
      "æİ": 6199,
      "æ³": 6200,
      ".ĠN": 6201,
      ")ĠthrowsĠ": 6202,
      "\\,": 6203,
      "flex": 6204,
      ")ĊĊĉ": 6205,
      "Inform": 6206,
      "Eff": 6207,
      ".ĠW": 6208,
      "moment": 6209,
      "ä»¶": 6210,
      "ts": 6211,
      "kindĠ": 6212,
      "invest": 6213,
      "u_": 6214,
      "âĢĺ": 6215,
      "UseĠ": 6216,
      "instanceofĠ": 6217,
      "CA": 6218,
      "Symbol": 6219,
      "rect": 6220,
      ".ĠThereĠ": 6221,
      "-9": 6222,
      "Enabled": 6223,
      "è¡Į": 6224,
      "round": 6225,
      "{\\bfĠ": 6226,
      "List.": 6227,
      "=Ġ0": 6228,
      "(in": 6229,
      "Use": 6230,
      ");ĊĠĠĠĠĠĠĠĠĠĠ": 6231,
      "7,Ġ": 6232,
      "originalĠ": 6233,
      "temper": 6234,
      "oftenĠ": 6235,
      "Dri": 6236,
      "s.Add": 6237,
      "čĊĠĠĠĠĠĠĠĠĠĠĠĠĠĠĠĠĠĠĠĠĠĠĠĠ": 6238,
      "AnĠ": 6239,
      "primary": 6240,
      "ator.": 6241,
      "environment": 6242,
      ":ĠString": 6243,
      "ĠĠ#Ġ": 6244,
      "ĊĠĠĠĠ@": 6245,
      "(\"#": 6246,
      "\";Ċ": 6247,
      "FAL": 6248,
      "params.": 6249,
      "unique": 6250,
      "folder": 6251,
      "request->": 6252,
      "Category": 6253,
      "subject": 6254,
      "definition": 6255,
      "(get": 6256,
      "popul": 6257,
      "tryingĠtoĠ": 6258,
      "entryĠ": 6259,
      "strateg": 6260,
      ";čĊĠĠĠĠĠĠĠĠĠĠĠĠ": 6261,
      "renĠ": 6262,
      "ĊĠĠ//Ġ": 6263,
      "Report": 6264,
      "$$": 6265,
      "fmt.": 6266,
      "deriv": 6267,
      "data,Ġ": 6268,
      "TypeĠ=Ġ": 6269,
      "array(": 6270,
      "INĠ": 6271,
      ")Ġ?Ġ": 6272,
      "Illumin": 6273,
      "put(\"": 6274,
      "OS": 6275,
      "Libr": 6276,
      "self,Ġ": 6277,
      ".g": 6278,
      "ait": 6279,
      "airĠ": 6280,
      "homeĠ": 6281,
      "aa": 6282,
      "ability": 6283,
      "entri": 6284,
      "seem": 6285,
      "weĠcanĠ": 6286,
      "whileĠ(": 6287,
      "govern": 6288,
      "vm": 6289,
      "\\right)": 6290,
      ")ĊĊĊ": 6291,
      "OnĠ": 6292,
      "iĠclass=\"": 6293,
      "æĿ": 6294,
      "']['": 6295,
      "out_": 6296,
      "yingĠ": 6297,
      "weĠhaveĠ": 6298,
      "Parent": 6299,
      "I_": 6300,
      "usĠ=Ġ": 6301,
      "sĠ$": 6302,
      "article": 6303,
      "duringĠ": 6304,
      "####Ġ": 6305,
      ";->": 6306,
      "urnĠ": 6307,
      "</td": 6308,
      "bra": 6309,
      "Types.": 6310,
      "')->": 6311,
      "ate\\": 6312,
      "sle": 6313,
      "boxĠ": 6314,
      "sequence": 6315,
      "{\\rmĠ": 6316,
      "ä¸º": 6317,
      "navig": 6318,
      "ĊĊ\\begin{code}Ċ": 6319,
      "Lim": 6320,
      "Ð¾ÑĤ": 6321,
      "seenĠ": 6322,
      "directory": 6323,
      "ä»¥": 6324,
      "\"Ġvalue=\"": 6325,
      "},Ċĉ": 6326,
      "Langu": 6327,
      "ki": 6328,
      "available": 6329,
      "betweenĠtheĠ": 6330,
      "$ĠandĠ$": 6331,
      "ID_": 6332,
      "finalĠintĠ": 6333,
      "gotoĠ": 6334,
      "tu": 6335,
      "ATE": 6336,
      "ulĠ": 6337,
      "\\Ġ": 6338,
      "b,Ġ": 6339,
      ";čĊĠĠĠĠĠĠĠĠ": 6340,
      "kg": 6341,
      "Java": 6342,
      "000Ġ": 6343,
      "ouldn'tĠ": 6344,
      "tip": 6345,
      "view.": 6346,
      "Subscri": 6347,
      "answerĠ": 6348,
      "q_": 6349,
      "If": 6350,
      "it,Ġ": 6351,
      "eqn": 6352,
      "59": 6353,
      "WAR": 6354,
      "-m": 6355,
      "ung": 6356,
      "(Ġ\"": 6357,
      "Norm": 6358,
      "define": 6359,
      "hard": 6360,
      "powerĠ": 6361,
      "ĊĉĠ*": 6362,
      "sil": 6363,
      "}`": 6364,
      "ìĦ": 6365,
      "2)Ġ": 6366,
      "create_": 6367,
      "{Ġ\"": 6368,
      "å½": 6369,
      "atter": 6370,
      "YourĠ": 6371,
      ".0": 6372,
      "());ĊĠĠĠĠ": 6373,
      "believ": 6374,
      "placeholder": 6375,
      "=None": 6376,
      "obtain": 6377,
      "REQ": 6378,
      "</label": 6379,
      "->Get": 6380,
      "],": 6381,
      "Domain": 6382,
      "Import": 6383,
      "ÑĢÐµ": 6384,
      "'=>'": 6385,
      "emptyĠ": 6386,
      "thisĠisĠ": 6387,
      "answer": 6388,
      "perf": 6389,
      "\")Ċ": 6390,
      "market": 6391,
      "Ä±": 6392,
      "sibleĠ": 6393,
      "BOO": 6394,
      "LL": 6395,
      "CM": 6396,
      "storeĠ": 6397,
      "ÐµÐ½Ð¸": 6398,
      "5,": 6399,
      "256": 6400,
      "El": 6401,
      "2.0": 6402,
      "viol": 6403,
      "\"ĊĠĠ": 6404,
      "(\"/": 6405,
      "shownĠ": 6406,
      "(A": 6407,
      "cameĠ": 6408,
      "aster": 6409,
      "etc": 6410,
      "ĠĠĠĠĠĠĠĠĠĠĠĠĠĠ": 6411,
      "</span>": 6412,
      "(I": 6413,
      "tili": 6414,
      "adedĠ": 6415,
      "atedĠbyĠ": 6416,
      "Illuminate\\": 6417,
      "';Ċ": 6418,
      ".push": 6419,
      "returnĠnull": 6420,
      "ics": 6421,
      "act.": 6422,
      "stric": 6423,
      "Root": 6424,
      "bon": 6425,
      "}\\right": 6426,
      "java.io.": 6427,
      "btnĠ": 6428,
      "standardĠ": 6429,
      "adow": 6430,
      "widthĠ": 6431,
      "columnĠ": 6432,
      "pen": 6433,
      "reco": 6434,
      "Dy": 6435,
      "|\\": 6436,
      "ĊĠĠĠ*/ĊĠĠ": 6437,
      "åĮ": 6438,
      "artĠ": 6439,
      "requireĠ": 6440,
      "awayĠ": 6441,
      "vertex": 6442,
      "uro": 6443,
      "Foo": 6444,
      "trim": 6445,
      "formul": 6446,
      "}ĠfromĠ\"": 6447,
      "param>ĊĠĠĠĠĠĠĠĠ": 6448,
      "as_": 6449,
      "EV": 6450,
      "edge": 6451,
      "Db": 6452,
      "abaseĠ": 6453,
      "runtime.": 6454,
      "nov": 6455,
      "ONE": 6456,
      "ãģ¾": 6457,
      ";ĊĠĠĠ": 6458,
      "Tra": 6459,
      "ross": 6460,
      "verseĠ": 6461,
      "2-": 6462,
      "s;Ġ": 6463,
      "rateĠ": 6464,
      "ĠĠĠĠĠĠĠĠĠĠĠĠĠĠĠĠĠĠĠĠĠĠ": 6465,
      "ĊĉĠ*Ġ@paramĠ": 6466,
      "cursor": 6467,
      "Definition": 6468,
      "align*": 6469,
      "and_": 6470,
      "your": 6471,
      "constructor": 6472,
      "}Ċ\\label{": 6473,
      "insideĠ": 6474,
      ".ĊInĠ": 6475,
      "continu": 6476,
      "stepĠ": 6477,
      "trigger": 6478,
      "ident": 6479,
      "ingĠthatĠ": 6480,
      "ledĠtoĠ": 6481,
      "}ĠelseĠ{ĊĠĠĠĠĠĠĠĠĠĠĠĠ": 6482,
      "(ĊĠĠĠĠĠĠ": 6483,
      "WithĠ": 6484,
      "java/": 6485,
      "TRUE": 6486,
      "ĊĠĠĠĠĠ*ĊĠĠĠĠĠ*Ġ@paramĠ": 6487,
      ",Ġfalse": 6488,
      "Ñĸ": 6489,
      "ĊĠĠĠĠĠĠĠĠĠĠ<": 6490,
      "ãĤĭ": 6491,
      "izeĠ": 6492,
      "(1,Ġ": 6493,
      ";ĊĠĠĠĠĠĠĠĠĠĠĠĠ}ĊĠĠĠĠĠĠĠĠĠĠĠĠ": 6494,
      "Enable": 6495,
      "avo": 6496,
      "Section": 6497,
      "wayĠtoĠ": 6498,
      "Ð½Ñĭ": 6499,
      "associatedĠ": 6500,
      "Bundle": 6501,
      "networkĠ": 6502,
      "ratherĠ": 6503,
      "ĊĠĠĠĠĠĠĠĠ//Ġ": 6504,
      "Uri": 6505,
      "cessĠ": 6506,
      "download": 6507,
      "Dest": 6508,
      "System.out.println": 6509,
      "Mis": 6510,
      "Ġ=Ġnull": 6511,
      "Buff": 6512,
      "(['": 6513,
      "authentic": 6514,
      "Me.": 6515,
      "POST": 6516,
      "&Ġ\\": 6517,
      "ĊĠĠĠĠĠĠĠĠ#Ġ": 6518,
      "generate": 6519,
      "intoĠaĠ": 6520,
      "Simple": 6521,
      ",Ġ\\": 6522,
      "Assert": 6523,
      "dump": 6524,
      "Exception(\"": 6525,
      "ending": 6526,
      "Ð½Ð¾": 6527,
      ",Ġtrue": 6528,
      "farĠ": 6529,
      "memory": 6530,
      "sĠonĠtheĠ": 6531,
      "s('": 6532,
      "æĸĩ": 6533,
      "Directory": 6534,
      ".on": 6535,
      "migr": 6536,
      "xim": 6537,
      "absol": 6538,
      "equalĠ": 6539,
      "ds": 6540,
      "library": 6541,
      "pag": 6542,
      "italĠ": 6543,
      "\")Ċĉ": 6544,
      "whichĠisĠ": 6545,
      "map(": 6546,
      "charg": 6547,
      "asĠ$": 6548,
      "bad": 6549,
      "strict": 6550,
      "sĠ=Ġ[]": 6551,
      "inten": 6552,
      ":Ġ1": 6553,
      "strap": 6554,
      "izationĠ": 6555,
      "node.": 6556,
      "_cast": 6557,
      "_un": 6558,
      "yearsĠ": 6559,
      "_.": 6560,
      "Exist": 6561,
      "experiment": 6562,
      "(`": 6563,
      "programĠ": 6564,
      "Att": 6565,
      "video": 6566,
      "æĢ": 6567,
      "},ĊĠĠĠĠĠĠĠĠĠĠĠĠ": 6568,
      "ely": 6569,
      "SeeĠ": 6570,
      "when": 6571,
      "Day": 6572,
      "har": 6573,
      "formedĠ": 6574,
      "merge": 6575,
      "uneĠ": 6576,
      "])": 6577,
      "[0]Ġ": 6578,
      "resources": 6579,
      "common.": 6580,
      ";ĊĠĠĠĠ}ĊĊĠĠĠĠ/**ĊĠĠĠĠĠ*Ġ": 6581,
      "![": 6582,
      "Timeout": 6583,
      "ival": 6584,
      "ãģ«": 6585,
      "-Ġ[": 6586,
      "cannotĠ": 6587,
      "es(": 6588,
      "æĹ¶": 6589,
      ".com": 6590,
      "sizeĠ=Ġ": 6591,
      "cpu": 6592,
      "introdu": 6593,
      "}(\\": 6594,
      "},Ċĉĉ": 6595,
      "sĠ=Ġ[": 6596,
      "VM": 6597,
      "atial": 6598,
      "prior": 6599,
      "Sim": 6600,
      "appear": 6601,
      "logicalĠ": 6602,
      "Vide": 6603,
      "Clou": 6604,
      "hold": 6605,
      "ibil": 6606,
      "edĠinĠtheĠ": 6607,
      "sched": 6608,
      "returns": 6609,
      "ii": 6610,
      "minim": 6611,
      "strong{": 6612,
      "str(": 6613,
      "æĶ": 6614,
      "Ok": 6615,
      "list_": 6616,
      "ym": 6617,
      "Sync": 6618,
      "dash": 6619,
      "VERSION": 6620,
      ",âĢĿĠ": 6621,
      "?.": 6622,
      "PS": 6623,
      "Initializ": 6624,
      "wentĠ": 6625,
      "correctĠ": 6626,
      "queryĠ": 6627,
      "\\u": 6628,
      "invol": 6629,
      "}ĊĊĠĠĠĠĠĠ": 6630,
      "Ð½Ð°": 6631,
      "ungĠ": 6632,
      "U_": 6633,
      "ĊĠĠĠĠĠĠĠĠĠĠĠĠĠĠĠĠĠĠĠĠĠĠĠĠ<": 6634,
      "Ġí": 6635,
      "sĠanĠ": 6636,
      "{ĠreturnĠ": 6637,
      "Second": 6638,
      "isionĠ": 6639,
      "r/": 6640,
      ":Ġ%": 6641,
      "Invo": 6642,
      "aus": 6643,
      "fel": 6644,
      "CD": 6645,
      "Warn": 6646,
      "s\",Ġ": 6647,
      "netĠ": 6648,
      "areaĠ": 6649,
      "bir": 6650,
      "accoun": 6651,
      "v1": 6652,
      "ORĠ": 6653,
      "\">ĊĠĠĠĠ": 6654,
      "âĢĶĠ": 6655,
      "ustomĠ": 6656,
      "HĠ": 6657,
      "roomĠ": 6658,
      "96": 6659,
      "el-": 6660,
      "************************": 6661,
      "feed": 6662,
      "tookĠ": 6663,
      "cialĠ": 6664,
      "identifi": 6665,
      "ArrayList<": 6666,
      "Delta": 6667,
      "scope": 6668,
      "commonĠ": 6669,
      "Success": 6670,
      "value.": 6671,
      "setĠ=Ġ": 6672,
      "ëĬĶ": 6673,
      "accept": 6674,
      "Ġ=Ġfalse": 6675,
      "'>": 6676,
      "jang": 6677,
      "AGE_": 6678,
      "memoryĠ": 6679,
      "edĠbyĠtheĠ": 6680,
      "s($": 6681,
      "you'reĠ": 6682,
      "Some": 6683,
      "equation}Ċ": 6684,
      "read_": 6685,
      ")Ċĉĉ{Ċĉĉĉ": 6686,
      "Pointer": 6687,
      "kingĠ": 6688,
      "utf": 6689,
      "Global": 6690,
      "gate": 6691,
      "javascript": 6692,
      "phone": 6693,
      "Dim": 6694,
      "avor": 6695,
      "restĠ": 6696,
      "termĠ": 6697,
      "Wal": 6698,
      "NameĠ=Ġ\"": 6699,
      "runningĠ": 6700,
      "?ĊĊComment:Ġ": 6701,
      "makesĠ": 6702,
      "Align": 6703,
      "ĊĠĠĠĠĠĠĠĠĠĠĠĠĠĠĠĠĠĠ": 6704,
      "delay": 6705,
      "Condition": 6706,
      "Find": 6707,
      "!==Ġ": 6708,
      "accountĠ": 6709,
      "âĶĢâĶĢ": 6710,
      "OUT": 6711,
      "readonlyĠ": 6712,
      "</code>": 6713,
      ".\"Ċ": 6714,
      "46": 6715,
      "U0/": 6716,
      "retĠ=Ġ": 6717,
      "UserĠ": 6718,
      "Ax": 6719,
      "[]Ġ=Ġ": 6720,
      "toĠmakeĠ": 6721,
      "ĊĊĊdefĠ": 6722,
      "_set": 6723,
      "extend": 6724,
      "=False": 6725,
      "sim": 6726,
      "displayĠ": 6727,
      "ANDĠ": 6728,
      ".parse": 6729,
      "agno": 6730,
      "vare": 6731,
      "previousĠ": 6732,
      "forĠthisĠ": 6733,
      "ao": 6734,
      "Engine": 6735,
      "Scre": 6736,
      "large": 6737,
      "Ã¨": 6738,
      "function()Ġ{": 6739,
      "FromĠ": 6740,
      "å¾": 6741,
      "engine": 6742,
      "SY": 6743,
      "itemize": 6744,
      "Vertex": 6745,
      "ittenĠ": 6746,
      "fourĠ": 6747,
      "FALSE": 6748,
      "outĠtheĠ": 6749,
      "nom": 6750,
      "Mr": 6751,
      "Environ": 6752,
      "Media": 6753,
      "propertiesĠ": 6754,
      "orizont": 6755,
      "atĠaĠ": 6756,
      "module.": 6757,
      "engin": 6758,
      "}ĊĠĠĠĠ}ĊĠĠĠĠ": 6759,
      "_code": 6760,
      "upĠtoĠ": 6761,
      "(stringĠ": 6762,
      "^{-1": 6763,
      "errĠ=Ġ": 6764,
      "_T": 6765,
      "file.": 6766,
      "plyĠ": 6767,
      "LEN": 6768,
      "ä½¿": 6769,
      "ÐµĠ": 6770,
      "inher": 6771,
      "(path": 6772,
      "Feature": 6773,
      ":ĊĠĠĠĠĠĠ": 6774,
      "Mut": 6775,
      "GN": 6776,
      "GR": 6777,
      ";ĊĊ/**ĊĠ*Ġ": 6778,
      "è¡¨": 6779,
      "_i": 6780,
      "hic": 6781,
      "ADD": 6782,
      "_table": 6783,
      "TableĠ": 6784,
      ",Ġm": 6785,
      "assertTrue": 6786,
      "missionĠ": 6787,
      "thoughtĠ": 6788,
      "owner": 6789,
      "ClassĠ": 6790,
      "offic": 6791,
      "np": 6792,
      "amount": 6793,
      "__Ġ": 6794,
      "è§": 6795,
      "piec": 6796,
      "_index": 6797,
      "Scroll": 6798,
      "ÐµÐ»": 6799,
      "Throw": 6800,
      "png": 6801,
      "sĠimportĠ": 6802,
      "dem": 6803,
      "pointer": 6804,
      "Texture": 6805,
      "prof": 6806,
      "name:Ġ'": 6807,
      "PER": 6808,
      "Trace": 6809,
      "}Ċ\\end{code}ĊĊ": 6810,
      "Gen": 6811,
      "basedĠonĠ": 6812,
      "ties.": 6813,
      "j.": 6814,
      "reach": 6815,
      "endar": 6816,
      "youn": 6817,
      "IfĠyouĠ": 6818,
      "postĠ": 6819,
      "shortĠ": 6820,
      "less": 6821,
      "Memory": 6822,
      "axis": 6823,
      "Internal": 6824,
      "exact": 6825,
      "neĠ": 6826,
      "generalĠ": 6827,
      "cmp": 6828,
      "endi": 6829,
      "array('": 6830,
      "è¦ģ": 6831,
      "int32": 6832,
      "interval": 6833,
      "Save": 6834,
      "'),Ġ": 6835,
      "ns": 6836,
      "mentĠofĠ": 6837,
      "ĊĊĠĠĠĠĠĠĠĠĠĠĠĠ": 6838,
      "eqref{": 6839,
      "}\\label{": 6840,
      "'),": 6841,
      "Brow": 6842,
      "sole": 6843,
      "string.": 6844,
      "-1Ġ": 6845,
      "VE": 6846,
      "cĠ=Ġ": 6847,
      "ItemĠ": 6848,
      "IâĢĻ": 6849,
      "oom": 6850,
      "ĠĠ=Ġ": 6851,
      "2D": 6852,
      "éĹ": 6853,
      "\\strong{": 6854,
      "CTION": 6855,
      "FT": 6856,
      "String.": 6857,
      "names": 6858,
      "fre": 6859,
      "hadĠbeenĠ": 6860,
      "src/": 6861,
      "mone": 6862,
      "while": 6863,
      "Word": 6864,
      "-to-": 6865,
      "areĠtheĠ": 6866,
      "MyĠ": 6867,
      "sĠbyĠ": 6868,
      "```Ċ": 6869,
      "argv": 6870,
      "3_": 6871,
      "bg": 6872,
      "erg": 6873,
      "ffic": 6874,
      "Step": 6875,
      "endĊĊĠĠ": 6876,
      "considerĠ": 6877,
      "',Ġ()Ġ=>Ġ": 6878,
      "certainĠ": 6879,
      "think": 6880,
      ";ĊĠĠĠĠĠĠĠĠ$": 6881,
      "ibleĠ": 6882,
      "images/": 6883,
      "categor": 6884,
      "});ĊĊ": 6885,
      "lg": 6886,
      "or.": 6887,
      "Full": 6888,
      ");čĊĠĠĠĠ": 6889,
      "directĠ": 6890,
      "FROMĠ": 6891,
      ",Ġ(": 6892,
      ",ĠD": 6893,
      "æĮ": 6894,
      "_error": 6895,
      "wholeĠ": 6896,
      "URI": 6897,
      "natur": 6898,
      "ero": 6899,
      "comingĠ": 6900,
      "attemp": 6901,
      "applicationĠ": 6902,
      "cau": 6903,
      "Ø§": 6904,
      "(N": 6905,
      "ĊĉĠĠĠĠ": 6906,
      "text{": 6907,
      ");ĊĠĠĠĠĠĠĠĠĠĠĠĠ}ĊĠĠĠĠĠĠĠĠĠĠĠĠ": 6908,
      "ifĠ(this.": 6909,
      "æŃ": 6910,
      "erĠthanĠ": 6911,
      "sendĠ": 6912,
      "zip": 6913,
      "=\\\"": 6914,
      "naĠ": 6915,
      "implementsĠ": 6916,
      "mathcalĠ": 6917,
      "secret": 6918,
      "ger.": 6919,
      "íķĺ": 6920,
      "psi": 6921,
      "titleĠ": 6922,
      "Move": 6923,
      "parametersĠ": 6924,
      "raf": 6925,
      "pati": 6926,
      "insert": 6927,
      "e-": 6928,
      "CountĠ": 6929,
      "roĠ": 6930,
      "cep": 6931,
      "Serial": 6932,
      "foreach": 6933,
      "studi": 6934,
      "Raw": 6935,
      "30Ġ": 6936,
      "exportĠdefaultĠ": 6937,
      "lide": 6938,
      ",ĠP": 6939,
      "itude": 6940,
      "Rando": 6941,
      "()ĠthrowsĠ": 6942,
      "},ĊĠĠĠĠĠĠ": 6943,
      "furtherĠ": 6944,
      "Seg": 6945,
      "spo": 6946,
      "Program": 6947,
      "menĠ": 6948,
      "quick": 6949,
      "ãĥĪ": 6950,
      "heĠwasĠ": 6951,
      "IndexĠ": 6952,
      "():Ġ": 6953,
      "redirect": 6954,
      ".getElement": 6955,
      "maryĠ": 6956,
      "scan": 6957,
      "window.": 6958,
      "\",ĊĠĠĠĠĠĠ": 6959,
      "efĠ": 6960,
      "ORT": 6961,
      "_no": 6962,
      "_{j": 6963,
      "lookingĠ": 6964,
      "Remove": 6965,
      "score": 6966,
      "optional": 6967,
      "es.Ġ": 6968,
      "aphĠ": 6969,
      "controller": 6970,
      "11Ġ": 6971,
      "iallyĠ": 6972,
      ".ĠÐ": 6973,
      "Quer": 6974,
      "colorĠ": 6975,
      "completeĠ": 6976,
      "YouĠcanĠ": 6977,
      "mill": 6978,
      "s'Ġ": 6979,
      "EndĠ": 6980,
      "valuesĠ": 6981,
      "satis": 6982,
      "Kind": 6983,
      "rho": 6984,
      "incip": 6985,
      "oĠdeĠ": 6986,
      "dens": 6987,
      "Bus": 6988,
      "tĠ=ĠnewĠ": 6989,
      "reser": 6990,
      "deviceĠ": 6991,
      "feelĠ": 6992,
      "Runtime": 6993,
      "uint32_tĠ": 6994,
      "iousĠ": 6995,
      "2016": 6996,
      ":00": 6997,
      "Person": 6998,
      "house": 6999,
      "n,Ġ": 7000,
      "+Ġ\"Ġ": 7001,
      "eqnarray": 7002,
      "MAT": 7003,
      "GO": 7004,
      "remote": 7005,
      "dataset": 7006,
      "AzureĠ": 7007,
      "constraint": 7008,
      "ĥ½": 7009,
      "knowled": 7010,
      "))Ġ{ĊĠĠĠĠĠĠĠĠĠĠĠĠ": 7011,
      ":ĊĠĠ": 7012,
      "deploy": 7013,
      "ìĹĲ": 7014,
      "{čĊĠĠĠĠĠĠĠĠĠĠĠĠ": 7015,
      "progres": 7016,
      "productĠ": 7017,
      "candid": 7018,
      "colĠ": 7019,
      "Ġ=Ġtrue": 7020,
      "ĊĠĠĠĠpublicĠvoidĠ": 7021,
      "initialĠ": 7022,
      "api/": 7023,
      "aĠandĠ": 7024,
      "ÑĢÐ¸": 7025,
      ",ĠĠ": 7026,
      "sitionĠ": 7027,
      "Spe": 7028,
      "WE": 7029,
      "64Ġ": 7030,
      "oll": 7031,
      "Vo": 7032,
      "ÃŁ": 7033,
      ";ĊĠĠĠĠĠĠĠĠĠĠĠĠ}ĊĠĠĠĠĠĠĠĠ": 7034,
      "endl": 7035,
      "_CH": 7036,
      "reset": 7037,
      "DateĠ": 7038,
      "native": 7039,
      "ĠisĠ": 7040,
      "fron": 7041,
      "Region": 7042,
      "field_": 7043,
      "ben": 7044,
      "=Ġ(": 7045,
      "lower": 7046,
      "akeĠ": 7047,
      "trav": 7048,
      "DEFAULT_": 7049,
      ")}": 7050,
      "tellĠ": 7051,
      "heightĠ": 7052,
      "in.": 7053,
      "rem": 7054,
      "springframework.": 7055,
      "careĠ": 7056,
      "fast": 7057,
      "Object.": 7058,
      "accessĠ": 7059,
      "vectorĠ": 7060,
      "Selection": 7061,
      "'veĠ": 7062,
      "Fore": 7063,
      "acity": 7064,
      "check_": 7065,
      "ĊĊ###Ġ": 7066,
      "sumĠ": 7067,
      "data_": 7068,
      "std::string": 7069,
      "isset($": 7070,
      "normal": 7071,
      "79": 7072,
      "Book": 7073,
      "#{": 7074,
      ")Ġ&&Ġ": 7075,
      ",ĊĠĠĠĠĠĠĠĠĠĠĠĠ'": 7076,
      "ier": 7077,
      "=>Ġ$": 7078,
      ".ĠC": 7079,
      "esĠareĠ": 7080,
      "Login": 7081,
      "ARE": 7082,
      "tow": 7083,
      "s:Ġ[": 7084,
      "probablyĠ": 7085,
      "æĪĲ": 7086,
      "cut": 7087,
      "tru": 7088,
      "Ang": 7089,
      "89": 7090,
      "itchĠ": 7091,
      "ized": 7092,
      "if(Ġ": 7093,
      "æį®": 7094,
      "Red": 7095,
      "withinĠ": 7096,
      "node_": 7097,
      "AX": 7098,
      "(__": 7099,
      "\\Ċ": 7100,
      "TL": 7101,
      "almostĠ": 7102,
      "sive": 7103,
      "rĠ=Ġ": 7104,
      "s,ĠbutĠ": 7105,
      "MLĠ": 7106,
      "exc": 7107,
      "uralĠ": 7108,
      "shar": 7109,
      "ìł": 7110,
      "orderĠtoĠ": 7111,
      "las": 7112,
      "couldĠbeĠ": 7113,
      ":Ċĉĉĉ": 7114,
      "Html": 7115,
      "rg": 7116,
      "EXPECT_": 7117,
      "Stand": 7118,
      "brid": 7119,
      "(j": 7120,
      "\";ĊimportĠ": 7121,
      "rh": 7122,
      "hostĠ": 7123,
      "factory": 7124,
      "Diction": 7125,
      "ĊĠĠĠĠend": 7126,
      "loveĠ": 7127,
      "NoteĠ": 7128,
      "Total": 7129,
      "filterĠ": 7130,
      "caption": 7131,
      "ç½®": 7132,
      ".md": 7133,
      "zone": 7134,
      "lines": 7135,
      "DATA": 7136,
      "bene": 7137,
      "ĠÐ½Ð°": 7138,
      "start_": 7139,
      "\");Ċĉĉ": 7140,
      "Tx": 7141,
      "cv": 7142,
      "AW": 7143,
      "takenĠ": 7144,
      ",$": 7145,
      "_PRO": 7146,
      "»¿": 7147,
      "ingĠonĠ": 7148,
      "Fragment": 7149,
      "weĠareĠ": 7150,
      ".length": 7151,
      "mk": 7152,
      "icsĠ": 7153,
      "ResultĠ": 7154,
      ":ĠTheĠ": 7155,
      "compute": 7156,
      "c,Ġ": 7157,
      "ï»¿": 7158,
      "MAX": 7159,
      "hu": 7160,
      "unsignedĠintĠ": 7161,
      "Ġ'": 7162,
      "typeofĠ": 7163,
      "_source": 7164,
      ")Ġ{ĊĠĠĠĠĠĠĠĠifĠ(": 7165,
      "ãĤ¹": 7166,
      "fitĠ": 7167,
      "\"Ġhref=\"": 7168,
      ":Ċĉ": 7169,
      "contribu": 7170,
      "esĠinĠ": 7171,
      "Ð¶": 7172,
      "enumĠ": 7173,
      "moveĠ": 7174,
      "WI": 7175,
      "mathbbĠ": 7176,
      "single": 7177,
      "Permission": 7178,
      "bur": 7179,
      "std::vector<": 7180,
      "listen": 7181,
      "mid": 7182,
      "Ali": 7183,
      "lt": 7184,
      "becomeĠ": 7185,
      "IN_": 7186,
      "Enumer": 7187,
      ".ĠF": 7188,
      "compan": 7189,
      "Ð¾Ð±": 7190,
      "https://github.com/": 7191,
      "Model.": 7192,
      "factĠ": 7193,
      "want": 7194,
      "2]": 7195,
      "consum": 7196,
      "IT_": 7197,
      "it_": 7198,
      ")).": 7199,
      "actual": 7200,
      "\"Ġstyle=\"": 7201,
      "LetĠ": 7202,
      "nor": 7203,
      "*/ĊĠĠ": 7204,
      "ondĠ": 7205,
      "file_": 7206,
      "Layer": 7207,
      "chart": 7208,
      "asĠwellĠ": 7209,
      "ThisĠisĠ": 7210,
      "decode": 7211,
      "\"Ġ/>": 7212,
      "\"ĊĊ": 7213,
      "HTTP": 7214,
      "theĠfirstĠ": 7215,
      "_call": 7216,
      "Notification": 7217,
      "Package": 7218,
      "H_": 7219,
      "isĠthatĠ": 7220,
      "timestamp": 7221,
      "åıĸ": 7222,
      "Settings": 7223,
      "translation": 7224,
      "%sĠ": 7225,
      "js/": 7226,
      "sĠyouĠ": 7227,
      "Collections.": 7228,
      "Optional": 7229,
      "License": 7230,
      "fra": 7231,
      "front": 7232,
      "Configur": 7233,
      "ByĠ": 7234,
      "voidĠ*": 7235,
      "quiteĠ": 7236,
      "imal": 7237,
      "limitĠ": 7238,
      "</option": 7239,
      "fall": 7240,
      "imĠ": 7241,
      "gan": 7242,
      "makingĠ": 7243,
      ",ĠR": 7244,
      "ĊĠĠĠĠĠ*ĊĠĠĠĠĠ*Ġ@returnĠ": 7245,
      "Â«": 7246,
      "dotĠ": 7247,
      "SizeĠ": 7248,
      "_cast<": 7249,
      "%%%%%%%%": 7250,
      ".ĠWhenĠ": 7251,
      "Origin": 7252,
      "ctx.": 7253,
      "geomet": 7254,
      "_to": 7255,
      "_{n": 7256,
      "UD": 7257,
      "componentĠ": 7258,
      "Writ": 7259,
      "technolog": 7260,
      ">ĊĠĠĠĠĠĠĠĠĠĠĠĠ": 7261,
      "ä¾": 7262,
      "3D": 7263,
      "branch": 7264,
      "automat": 7265,
      "ModelĠ": 7266,
      "writtenĠ": 7267,
      "sz": 7268,
      "PathĠ": 7269,
      "noteĠ": 7270,
      "ElementĠ": 7271,
      "e.g": 7272,
      "Mach": 7273,
      ".name": 7274,
      "()ĊĠĠĠĠĠĠĠĠĠĠĠĠĠĠĠĠ": 7275,
      ");Ġ//Ġ": 7276,
      "Field(": 7277,
      ".ĠSoĠ": 7278,
      "2020": 7279,
      "forĠ(intĠiĠ=Ġ0;ĠiĠ<Ġ": 7280,
      "wise": 7281,
      "Comple": 7282,
      "linearĠ": 7283,
      "mapp": 7284,
      "uk": 7285,
      "ÃłĠ": 7286,
      "on.": 7287,
      "String(\"": 7288,
      "neededĠ": 7289,
      ")Ġ-Ġ": 7290,
      "Edge": 7291,
      "Ome": 7292,
      "diction": 7293,
      "mentsĠ": 7294,
      "'/": 7295,
      "Sur": 7296,
      "review": 7297,
      "))ĊĠĠĠĠĠĠĠĠĠĠĠĠ": 7298,
      "btnĠbtn-": 7299,
      "rel=\"": 7300,
      "Bro": 7301,
      ">Ċ</": 7302,
      "ĊTheĠ": 7303,
      "simplyĠ": 7304,
      "<li>": 7305,
      "ĊĠĠĠĠĠĠĠĠĠ": 7306,
      ")Ġ!=Ġ": 7307,
      "CG": 7308,
      "V_": 7309,
      "ä½¿çĶ¨": 7310,
      "varepsilon": 7311,
      "socket": 7312,
      ",Ġ_": 7313,
      "mal": 7314,
      "protocol": 7315,
      ".ĊĠ*/Ċ": 7316,
      "tify": 7317,
      "hor": 7318,
      "\\eqref{": 7319,
      "props": 7320,
      "BE": 7321,
      "s[0]": 7322,
      ",Ġt": 7323,
      "ushĠ": 7324,
      "ĊĠĠĠ*Ġ@": 7325,
      "tile": 7326,
      "identĠ": 7327,
      "ample.": 7328,
      "ExceptionĠ{ĊĠĠĠĠĠĠĠĠ": 7329,
      "2\\": 7330,
      "ein": 7331,
      "typedefĠ": 7332,
      "illi": 7333,
      "belowĠ": 7334,
      "ampl": 7335,
      "cancel": 7336,
      "may": 7337,
      "ov": 7338,
      "08": 7339,
      "existingĠ": 7340,
      "quan": 7341,
      "SoĠ": 7342,
      "ASE": 7343,
      "3/": 7344,
      "wiseĠ": 7345,
      "camer": 7346,
      "integer": 7347,
      "Constants.": 7348,
      "é¡": 7349,
      "provider": 7350,
      "gettingĠ": 7351,
      "nessĠ": 7352,
      "tedĠbyĠ": 7353,
      "unit.": 7354,
      "delĠ": 7355,
      "\\sub": 7356,
      "(u": 7357,
      "end_": 7358,
      "&Ġ0x": 7359,
      ";čĊimportĠ": 7360,
      "ationĠisĠ": 7361,
      "Ġ[": 7362,
      "ReturnĠ": 7363,
      "additionalĠ": 7364,
      "zuĠ": 7365,
      "},Ċ": 7366,
      "[2]": 7367,
      "isticĠ": 7368,
      "Bot": 7369,
      "ĊĠĠĠĠĠĠĠĠĠ*Ġ": 7370,
[...]
