{
  "version": "1.0",
  "truncation": null,
  "padding": null,
  "added_tokens": [
    {
      "id": 0,
      "content": "<|begin_of_text|>",
      "single_word": false,
      "lstrip": false,
      "rstrip": false,
      "normalized": false,
      "special": true
    },
    {
      "id": 1,
      "content": "<|end_of_text|>",
      "single_word": false,
      "lstrip": false,
      "rstrip": false,
      "normalized": false,
      "special": true
    },
    {
      "id": 2,
      "content": "<pad>",
      "single_word": false,
      "lstrip": false,
      "rstrip": false,
      "normalized": false,
      "special": true
    },
    {
      "id": 3,
      "content": "<|fim_prefix|>",
      "single_word": false,
      "lstrip": false,
      "rstrip": false,
      "normalized": false,
      "special": true
    },
    {
      "id": 4,
      "content": "<|fim_middle|>",
      "single_word": false,
      "lstrip": false,
      "rstrip": false,
      "normalized": false,
      "special": true
    },
    {
      "id": 5,
      "content": "<|fim_suffix|>",
      "single_word": false,
      "lstrip": false,
      "rstrip": false,
      "normalized": false,
      "special": true
    },
    {
      "id": 6,
      "content": "<0x00>",
      "single_word": false,
      "lstrip": false,
      "rstrip": false,
      "normalized": false,
      "special": true
    },
    {
      "id": 7,
      "content": "<0x01>",
      "single_word": false,
      "lstrip": false,
      "rstrip": false,
      "normalized": false,
      "special": true
    },
    {
      "id": 8,
      "content": "<0x02>",
      "single_word": false,
      "lstrip": false,
      "rstrip": false,
      "normalized": false,
      "special": true
    },
    {
      "id": 9,
      "content": "<0x03>",
      "single_word": false,
      "lstrip": false,
      "rstrip": false,
      "normalized": false,
      "special": true
    },
    {
      "id": 10,
      "content": "<0x04>",
      "single_word": false,
      "lstrip": false,
      "rstrip": false,
      "normalized": false,
      "special": true
    },
    {
      "id": 11,
      "content": "<0x05>",
      "single_word": false,
      "lstrip": false,
      "rstrip": false,
      "normalized": false,
      "special": true
    },
    {
      "id": 12,
      "content": "<0x06>",
      "single_word": false,
      "lstrip": false,
      "rstrip": false,
      "normalized": false,
      "special": true
    },
    {
      "id": 13,
      "content": "<0x07>",
      "single_word": false,
      "lstrip": false,
      "rstrip": false,
      "normalized": false,
      "special": true
    },
    {
      "id": 14,
      "content": "<0x08>",
      "single_word": false,
      "lstrip": false,
      "rstrip": false,
      "normalized": false,
      "special": true
    },
    {
      "id": 15,
      "content": "<0x09>",
      "single_word": false,
      "lstrip": false,
      "rstrip": false,
      "normalized": false,
      "special": true
    },
    {
      "id": 16,
      "content": "<0x0A>",
      "single_word": false,
      "lstrip": false,
      "rstrip": false,
      "normalized": false,
      "special": true
    },
    {
      "id": 17,
      "content": "<0x0B>",
      "single_word": false,
      "lstrip": false,
      "rstrip": false,
      "normalized": false,
      "special": true
    },
    {
      "id": 18,
      "content": "<0x0C>",
      "single_word": false,
      "lstrip": false,
      "rstrip": false,
      "normalized": false,
      "special": true
    },
    {
      "id": 19,
      "content": "<0x0D>",
      "single_word": false,
      "lstrip": false,
      "rstrip": false,
      "normalized": false,
      "special": true
    },
    {
      "id": 20,
      "content": "<0x0E>",
      "single_word": false,
      "lstrip": false,
      "rstrip": false,
      "normalized": false,
      "special": true
    },
    {
      "id": 21,
      "content": "<0x0F>",
      "single_word": false,
      "lstrip": false,
      "rstrip": false,
      "normalized": false,
      "special": true
    },
    {
      "id": 22,
      "content": "<0x10>",
      "single_word": false,
      "lstrip": false,
      "rstrip": false,
      "normalized": false,
      "special": true
    },
    {
      "id": 23,
      "content": "<0x11>",
      "single_word": false,
      "lstrip": false,
      "rstrip": false,
      "normalized": false,
      "special": true
    },
    {
      "id": 24,
      "content": "<0x12>",
      "single_word": false,
      "lstrip": false,
      "rstrip": false,
      "normalized": false,
      "special": true
    },
    {
      "id": 25,
      "content": "<0x13>",
      "single_word": false,
      "lstrip": false,
      "rstrip": false,
      "normalized": false,
      "special": true
    },
    {
      "id": 26,
      "content": "<0x14>",
      "single_word": false,
      "lstrip": false,
      "rstrip": false,
      "normalized": false,
      "special": true
    },
    {
      "id": 27,
      "content": "<0x15>",
      "single_word": false,
      "lstrip": false,
      "rstrip": false,
      "normalized": false,
      "special": true
    },
    {
      "id": 28,
      "content": "<0x16>",
      "single_word": false,
      "lstrip": false,
      "rstrip": false,
      "normalized": false,
      "special": true
    },
    {
      "id": 29,
      "content": "<0x17>",
      "single_word": false,
      "lstrip": false,
      "rstrip": false,
      "normalized": false,
      "special": true
    },
    {
      "id": 30,
      "content": "<0x18>",
      "single_word": false,
      "lstrip": false,
      "rstrip": false,
      "normalized": false,
      "special": true
    },
    {
      "id": 31,
      "content": "<0x19>",
      "single_word": false,
      "lstrip": false,
      "rstrip": false,
      "normalized": false,
      "special": true
    },
    {
      "id": 32,
      "content": "<0x1A>",
      "single_word": false,
      "lstrip": false,
      "rstrip": false,
      "normalized": false,
      "special": true
    },
    {
      "id": 33,
      "content": "<0x1B>",
      "single_word": false,
      "lstrip": false,
      "rstrip": false,
      "normalized": false,
      "special": true
    },
    {
      "id": 34,
      "content": "<0x1C>",
      "single_word": false,
      "lstrip": false,
      "rstrip": false,
      "normalized": false,
      "special": true
    },
    {
      "id": 35,
      "content": "<0x1D>",
      "single_word": false,
      "lstrip": false,
      "rstrip": false,
      "normalized": false,
      "special": true
    },
    {
      "id": 36,
      "content": "<0x1E>",
      "single_word": false,
      "lstrip": false,
      "rstrip": false,
      "normalized": false,
      "special": true
    },
    {
      "id": 37,
      "content": "<0x1F>",
      "single_word": false,
      "lstrip": false,
      "rstrip": false,
      "normalized": false,
      "special": true
    },
    {
      "id": 38,
      "content": "<0x20>",
      "single_word": false,
      "lstrip": false,
      "rstrip": false,
      "normalized": false,
      "special": true
    },
    {
      "id": 39,
      "content": "<0x21>",
      "single_word": false,
      "lstrip": false,
      "rstrip": false,
      "normalized": false,
      "special": true
    },
    {
      "id": 40,
      "content": "<0x22>",
      "single_word": false,
      "lstrip": false,
      "rstrip": false,
      "normalized": false,
      "special": true
    },
    {
      "id": 41,
      "content": "<0x23>",
      "single_word": false,
      "lstrip": false,
      "rstrip": false,
      "normalized": false,
      "special": true
    },
    {
      "id": 42,
      "content": "<0x24>",
      "single_word": false,
      "lstrip": false,
      "rstrip": false,
      "normalized": false,
      "special": true
    },
    {
      "id": 43,
      "content": "<0x25>",
      "single_word": false,
      "lstrip": false,
      "rstrip": false,
      "normalized": false,
      "special": true
    },
    {
      "id": 44,
      "content": "<0x26>",
      "single_word": false,
      "lstrip": false,
      "rstrip": false,
      "normalized": false,
      "special": true
    },
    {
      "id": 45,
      "content": "<0x27>",
      "single_word": false,
      "lstrip": false,
      "rstrip": false,
      "normalized": false,
      "special": true
    },
    {
      "id": 46,
      "content": "<0x28>",
      "single_word": false,
      "lstrip": false,
      "rstrip": false,
      "normalized": false,
      "special": true
    },
    {
      "id": 47,
      "content": "<0x29>",
      "single_word": false,
      "lstrip": false,
      "rstrip": false,
      "normalized": false,
      "special": true
    },
    {
      "id": 48,
      "content": "<0x2A>",
      "single_word": false,
      "lstrip": false,
      "rstrip": false,
      "normalized": false,
      "special": true
    },
    {
      "id": 49,
      "content": "<0x2B>",
      "single_word": false,
      "lstrip": false,
      "rstrip": false,
      "normalized": false,
      "special": true
    },
    {
      "id": 50,
      "content": "<0x2C>",
      "single_word": false,
      "lstrip": false,
      "rstrip": false,
      "normalized": false,
      "special": true
    },
    {
      "id": 51,
      "content": "<0x2D>",
      "single_word": false,
      "lstrip": false,
      "rstrip": false,
      "normalized": false,
      "special": true
    },
    {
      "id": 52,
      "content": "<0x2E>",
      "single_word": false,
      "lstrip": false,
      "rstrip": false,
      "normalized": false,
      "special": true
    },
    {
      "id": 53,
      "content": "<0x2F>",
      "single_word": false,
      "lstrip": false,
      "rstrip": false,
      "normalized": false,
      "special": true
    },
    {
      "id": 54,
      "content": "<0x30>",
      "single_word": false,
      "lstrip": false,
      "rstrip": false,
      "normalized": false,
      "special": true
    },
    {
      "id": 55,
      "content": "<0x31>",
      "single_word": false,
      "lstrip": false,
      "rstrip": false,
      "normalized": false,
      "special": true
    },
    {
      "id": 56,
      "content": "<0x32>",
      "single_word": false,
      "lstrip": false,
      "rstrip": false,
      "normalized": false,
      "special": true
    },
    {
      "id": 57,
      "content": "<0x33>",
      "single_word": false,
      "lstrip": false,
      "rstrip": false,
      "normalized": false,
      "special": true
    },
    {
      "id": 58,
      "content": "<0x34>",
      "single_word": false,
      "lstrip": false,
      "rstrip": false,
      "normalized": false,
      "special": true
    },
    {
      "id": 59,
      "content": "<0x35>",
      "single_word": false,
      "lstrip": false,
      "rstrip": false,
      "normalized": false,
      "special": true
    },
    {
      "id": 60,
      "content": "<0x36>",
      "single_word": false,
      "lstrip": false,
      "rstrip": false,
      "normalized": false,
      "special": true
    },
    {
      "id": 61,
      "content": "<0x37>",
      "single_word": false,
      "lstrip": false,
      "rstrip": false,
      "normalized": false,
      "special": true
    },
    {
      "id": 62,
      "content": "<0x38>",
      "single_word": false,
      "lstrip": false,
      "rstrip": false,
      "normalized": false,
      "special": true
    },
    {
      "id": 63,
      "content": "<0x39>",
      "single_word": false,
      "lstrip": false,
      "rstrip": false,
      "normalized": false,
      "special": true
    },
    {
      "id": 64,
      "content": "<0x3A>",
      "single_word": false,
      "lstrip": false,
      "rstrip": false,
      "normalized": false,
      "special": true
    },
    {
      "id": 65,
      "content": "<0x3B>",
      "single_word": false,
      "lstrip": false,
      "rstrip": false,
      "normalized": false,
      "special": true
    },
    {
      "id": 66,
      "content": "<0x3C>",
      "single_word": false,
      "lstrip": false,
      "rstrip": false,
      "normalized": false,
      "special": true
    },
    {
      "id": 67,
      "content": "<0x3D>",
      "single_word": false,
      "lstrip": false,
      "rstrip": false,
      "normalized": false,
      "special": true
    },
    {
      "id": 68,
      "content": "<0x3E>",
      "single_word": false,
      "lstrip": false,
      "rstrip": false,
      "normalized": false,
      "special": true
    },
    {
      "id": 69,
      "content": "<0x3F>",
      "single_word": false,
      "lstrip": false,
      "rstrip": false,
      "normalized": false,
      "special": true
    },
    {
      "id": 70,
      "content": "<0x40>",
      "single_word": false,
      "lstrip": false,
      "rstrip": false,
      "normalized": false,
      "special": true
    },
    {
      "id": 71,
      "content": "<0x41>",
      "single_word": false,
      "lstrip": false,
      "rstrip": false,
      "normalized": false,
      "special": true
    },
    {
      "id": 72,
      "content": "<0x42>",
      "single_word": false,
      "lstrip": false,
      "rstrip": false,
      "normalized": false,
      "special": true
    },
    {
      "id": 73,
      "content": "<0x43>",
      "single_word": false,
      "lstrip": false,
      "rstrip": false,
      "normalized": false,
      "special": true
    },
    {
      "id": 74,
      "content": "<0x44>",
      "single_word": false,
      "lstrip": false,
      "rstrip": false,
      "normalized": false,
      "special": true
    },
    {
      "id": 75,
      "content": "<0x45>",
      "single_word": false,
      "lstrip": false,
      "rstrip": false,
      "normalized": false,
      "special": true
    },
    {
      "id": 76,
      "content": "<0x46>",
      "single_word": false,
      "lstrip": false,
      "rstrip": false,
      "normalized": false,
      "special": true
    },
    {
      "id": 77,
      "content": "<0x47>",
      "single_word": false,
      "lstrip": false,
      "rstrip": false,
      "normalized": false,
      "special": true
    },
    {
      "id": 78,
      "content": "<0x48>",
      "single_word": false,
      "lstrip": false,
      "rstrip": false,
      "normalized": false,
      "special": true
    },
    {
      "id": 79,
      "content": "<0x49>",
      "single_word": false,
      "lstrip": false,
      "rstrip": false,
      "normalized": false,
      "special": true
    },
    {
      "id": 80,
      "content": "<0x4A>",
      "single_word": false,
      "lstrip": false,
      "rstrip": false,
      "normalized": false,
      "special": true
    },
    {
      "id": 81,
      "content": "<0x4B>",
      "single_word": false,
      "lstrip": false,
      "rstrip": false,
      "normalized": false,
      "special": true
    },
    {
      "id": 82,
      "content": "<0x4C>",
      "single_word": false,
      "lstrip": false,
      "rstrip": false,
      "normalized": false,
      "special": true
    },
    {
      "id": 83,
      "content": "<0x4D>",
      "single_word": false,
      "lstrip": false,
      "rstrip": false,
      "normalized": false,
      "special": true
    },
    {
      "id": 84,
      "content": "<0x4E>",
      "single_word": false,
      "lstrip": false,
      "rstrip": false,
      "normalized": false,
      "special": true
    },
    {
      "id": 85,
      "content": "<0x4F>",
      "single_word": false,
      "lstrip": false,
      "rstrip": false,
      "normalized": false,
      "special": true
    },
    {
      "id": 86,
      "content": "<0x50>",
      "single_word": false,
      "lstrip": false,
      "rstrip": false,
      "normalized": false,
      "special": true
    },
    {
      "id": 87,
      "content": "<0x51>",
      "single_word": false,
      "lstrip": false,
      "rstrip": false,
      "normalized": false,
      "special": true
    },
    {
      "id": 88,
      "content": "<0x52>",
      "single_word": false,
      "lstrip": false,
      "rstrip": false,
      "normalized": false,
      "special": true
    },
    {
      "id": 89,
      "content": "<0x53>",
      "single_word": false,
      "lstrip": false,
      "rstrip": false,
      "normalized": false,
      "special": true
    },
    {
      "id": 90,
      "content": "<0x54>",
      "single_word": false,
      "lstrip": false,
      "rstrip": false,
      "normalized": false,
      "special": true
    },
    {
      "id": 91,
      "content": "<0x55>",
      "single_word": false,
      "lstrip": false,
      "rstrip": false,
      "normalized": false,
      "special": true
    },
    {
      "id": 92,
      "content": "<0x56>",
      "single_word": false,
      "lstrip": false,
      "rstrip": false,
      "normalized": false,
      "special": true
    },
    {
      "id": 93,
      "content": "<0x57>",
      "single_word": false,
      "lstrip": false,
      "rstrip": false,
      "normalized": false,
      "special": true
    },
    {
      "id": 94,
      "content": "<0x58>",
      "single_word": false,
      "lstrip": false,
      "rstrip": false,
      "normalized": false,
      "special": true
    },
    {
      "id": 95,
      "content": "<0x59>",
      "single_word": false,
      "lstrip": false,
      "rstrip": false,
      "normalized": false,
      "special": true
    },
    {
      "id": 96,
      "content": "<0x5A>",
      "single_word": false,
      "lstrip": false,
      "rstrip": false,
      "normalized": false,
      "special": true
    },
    {
      "id": 97,
      "content": "<0x5B>",
      "single_word": false,
      "lstrip": false,
      "rstrip": false,
      "normalized": false,
      "special": true
    },
    {
      "id": 98,
      "content": "<0x5C>",
      "single_word": false,
      "lstrip": false,
      "rstrip": false,
      "normalized": false,
      "special": true
    },
    {
      "id": 99,
      "content": "<0x5D>",
      "single_word": false,
      "lstrip": false,
      "rstrip": false,
      "normalized": false,
      "special": true
    },
    {
      "id": 100,
      "content": "<0x5E>",
      "single_word": false,
      "lstrip": false,
      "rstrip": false,
      "normalized": false,
      "special": true
    },
    {
      "id": 101,
      "content": "<0x5F>",
      "single_word": false,
      "lstrip": false,
      "rstrip": false,
      "normalized": false,
      "special": true
    },
    {
      "id": 102,
      "content": "<0x60>",
      "single_word": false,
      "lstrip": false,
      "rstrip": false,
      "normalized": false,
      "special": true
    },
    {
      "id": 103,
      "content": "<0x61>",
      "single_word": false,
      "lstrip": false,
      "rstrip": false,
      "normalized": false,
      "special": true
    },
    {
      "id": 104,
      "content": "<0x62>",
      "single_word": false,
      "lstrip": false,
      "rstrip": false,
      "normalized": false,
      "special": true
    },
    {
      "id": 105,
      "content": "<0x63>",
      "single_word": false,
      "lstrip": false,
      "rstrip": false,
      "normalized": false,
      "special": true
    },
    {
      "id": 106,
      "content": "<0x64>",
      "single_word": false,
      "lstrip": false,
      "rstrip": false,
      "normalized": false,
      "special": true
    },
    {
      "id": 107,
      "content": "<0x65>",
      "single_word": false,
      "lstrip": false,
      "rstrip": false,
      "normalized": false,
      "special": true
    },
    {
      "id": 108,
      "content": "<0x66>",
      "single_word": false,
      "lstrip": false,
      "rstrip": false,
      "normalized": false,
      "special": true
    },
    {
      "id": 109,
      "content": "<0x67>",
      "single_word": false,
      "lstrip": false,
      "rstrip": false,
      "normalized": false,
      "special": true
    },
    {
      "id": 110,
      "content": "<0x68>",
      "single_word": false,
      "lstrip": false,
      "rstrip": false,
      "normalized": false,
      "special": true
    },
    {
      "id": 111,
      "content": "<0x69>",
      "single_word": false,
      "lstrip": false,
      "rstrip": false,
      "normalized": false,
      "special": true
    },
    {
      "id": 112,
      "content": "<0x6A>",
      "single_word": false,
      "lstrip": false,
      "rstrip": false,
      "normalized": false,
      "special": true
    },
    {
      "id": 113,
      "content": "<0x6B>",
      "single_word": false,
      "lstrip": false,
      "rstrip": false,
      "normalized": false,
      "special": true
    },
    {
      "id": 114,
      "content": "<0x6C>",
      "single_word": false,
      "lstrip": false,
      "rstrip": false,
      "normalized": false,
      "special": true
    },
    {
      "id": 115,
      "content": "<0x6D>",
      "single_word": false,
      "lstrip": false,
      "rstrip": false,
      "normalized": false,
      "special": true
    },
    {
      "id": 116,
      "content": "<0x6E>",
      "single_word": false,
      "lstrip": false,
      "rstrip": false,
      "normalized": false,
      "special": true
    },
    {
      "id": 117,
      "content": "<0x6F>",
      "single_word": false,
      "lstrip": false,
      "rstrip": false,
      "normalized": false,
      "special": true
    },
    {
      "id": 118,
      "content": "<0x70>",
      "single_word": false,
      "lstrip": false,
      "rstrip": false,
      "normalized": false,
      "special": true
    },
    {
      "id": 119,
      "content": "<0x71>",
      "single_word": false,
      "lstrip": false,
      "rstrip": false,
      "normalized": false,
      "special": true
    },
    {
      "id": 120,
      "content": "<0x72>",
      "single_word": false,
      "lstrip": false,
      "rstrip": false,
      "normalized": false,
      "special": true
    },
    {
      "id": 121,
      "content": "<0x73>",
      "single_word": false,
      "lstrip": false,
      "rstrip": false,
      "normalized": false,
      "special": true
    },
    {
      "id": 122,
      "content": "<0x74>",
      "single_word": false,
      "lstrip": false,
      "rstrip": false,
      "normalized": false,
      "special": true
    },
    {
      "id": 123,
      "content": "<0x75>",
      "single_word": false,
      "lstrip": false,
      "rstrip": false,
      "normalized": false,
      "special": true
    },
    {
      "id": 124,
      "content": "<0x76>",
      "single_word": false,
      "lstrip": false,
      "rstrip": false,
      "normalized": false,
      "special": true
    },
    {
      "id": 125,
      "content": "<0x77>",
      "single_word": false,
      "lstrip": false,
      "rstrip": false,
      "normalized": false,
      "special": true
    },
    {
      "id": 126,
      "content": "<0x78>",
      "single_word": false,
      "lstrip": false,
      "rstrip": false,
      "normalized": false,
      "special": true
    },
    {
      "id": 127,
      "content": "<0x79>",
      "single_word": false,
      "lstrip": false,
      "rstrip": false,
      "normalized": false,
      "special": true
    },
    {
      "id": 128,
      "content": "<0x7A>",
      "single_word": false,
      "lstrip": false,
      "rstrip": false,
      "normalized": false,
      "special": true
    },
    {
      "id": 129,
      "content": "<0x7B>",
      "single_word": false,
      "lstrip": false,
      "rstrip": false,
      "normalized": false,
      "special": true
    },
    {
      "id": 130,
      "content": "<0x7C>",
      "single_word": false,
      "lstrip": false,
      "rstrip": false,
      "normalized": false,
      "special": true
    },
    {
      "id": 131,
      "content": "<0x7D>",
      "single_word": false,
      "lstrip": false,
      "rstrip": false,
      "normalized": false,
      "special": true
    },
    {
      "id": 132,
      "content": "<0x7E>",
      "single_word": false,
      "lstrip": false,
      "rstrip": false,
      "normalized": false,
      "special": true
    },
    {
      "id": 133,
      "content": "<0x7F>",
      "single_word": false,
      "lstrip": false,
      "rstrip": false,
      "normalized": false,
      "special": true
    },
    {
      "id": 134,
      "content": "<0x80>",
      "single_word": false,
      "lstrip": false,
      "rstrip": false,
      "normalized": false,
      "special": true
    },
    {
      "id": 135,
      "content": "<0x81>",
      "single_word": false,
      "lstrip": false,
      "rstrip": false,
      "normalized": false,
      "special": true
    },
    {
      "id": 136,
      "content": "<0x82>",
      "single_word": false,
      "lstrip": false,
      "rstrip": false,
      "normalized": false,
      "special": true
    },
    {
      "id": 137,
      "content": "<0x83>",
      "single_word": false,
      "lstrip": false,
      "rstrip": false,
      "normalized": false,
      "special": true
    },
    {
      "id": 138,
      "content": "<0x84>",
      "single_word": false,
      "lstrip": false,
      "rstrip": false,
      "normalized": false,
      "special": true
    },
    {
      "id": 139,
      "content": "<0x85>",
      "single_word": false,
      "lstrip": false,
      "rstrip": false,
      "normalized": false,
      "special": true
    },
    {
      "id": 140,
      "content": "<0x86>",
      "single_word": false,
      "lstrip": false,
      "rstrip": false,
      "normalized": false,
      "special": true
    },
    {
      "id": 141,
      "content": "<0x87>",
      "single_word": false,
      "lstrip": false,
      "rstrip": false,
      "normalized": false,
      "special": true
    },
    {
      "id": 142,
      "content": "<0x88>",
      "single_word": false,
      "lstrip": false,
      "rstrip": false,
      "normalized": false,
      "special": true
    },
    {
      "id": 143,
      "content": "<0x89>",
      "single_word": false,
      "lstrip": false,
      "rstrip": false,
      "normalized": false,
      "special": true
    },
    {
      "id": 144,
      "content": "<0x8A>",
      "single_word": false,
      "lstrip": false,
      "rstrip": false,
      "normalized": false,
      "special": true
    },
    {
      "id": 145,
      "content": "<0x8B>",
      "single_word": false,
      "lstrip": false,
      "rstrip": false,
      "normalized": false,
      "special": true
    },
    {
      "id": 146,
      "content": "<0x8C>",
      "single_word": false,
      "lstrip": false,
      "rstrip": false,
      "normalized": false,
      "special": true
    },
    {
      "id": 147,
      "content": "<0x8D>",
      "single_word": false,
      "lstrip": false,
      "rstrip": false,
      "normalized": false,
      "special": true
    },
    {
      "id": 148,
      "content": "<0x8E>",
      "single_word": false,
      "lstrip": false,
      "rstrip": false,
      "normalized": false,
      "special": true
    },
    {
      "id": 149,
      "content": "<0x8F>",
      "single_word": false,
      "lstrip": false,
      "rstrip": false,
      "normalized": false,
      "special": true
    },
    {
      "id": 150,
      "content": "<0x90>",
      "single_word": false,
      "lstrip": false,
      "rstrip": false,
      "normalized": false,
      "special": true
    },
    {
      "id": 151,
      "content": "<0x91>",
      "single_word": false,
      "lstrip": false,
      "rstrip": false,
      "normalized": false,
      "special": true
    },
    {
      "id": 152,
      "content": "<0x92>",
      "single_word": false,
      "lstrip": false,
      "rstrip": false,
      "normalized": false,
      "special": true
    },
    {
      "id": 153,
      "content": "<0x93>",
      "single_word": false,
      "lstrip": false,
      "rstrip": false,
      "normalized": false,
      "special": true
    },
    {
      "id": 154,
      "content": "<0x94>",
      "single_word": false,
      "lstrip": false,
      "rstrip": false,
      "normalized": false,
      "special": true
    },
    {
      "id": 155,
      "content": "<0x95>",
      "single_word": false,
      "lstrip": false,
      "rstrip": false,
      "normalized": false,
      "special": true
    },
    {
      "id": 156,
      "content": "<0x96>",
      "single_word": false,
      "lstrip": false,
      "rstrip": false,
      "normalized": false,
      "special": true
    },
    {
      "id": 157,
      "content": "<0x97>",
      "single_word": false,
      "lstrip": false,
      "rstrip": false,
      "normalized": false,
      "special": true
    },
    {
      "id": 158,
      "content": "<0x98>",
      "single_word": false,
      "lstrip": false,
      "rstrip": false,
      "normalized": false,
      "special": true
    },
    {
      "id": 159,
      "content": "<0x99>",
      "single_word": false,
      "lstrip": false,
      "rstrip": false,
      "normalized": false,
      "special": true
    },
    {
      "id": 160,
      "content": "<0x9A>",
      "single_word": false,
      "lstrip": false,
      "rstrip": false,
      "normalized": false,
      "special": true
    },
    {
      "id": 161,
      "content": "<0x9B>",
      "single_word": false,
      "lstrip": false,
      "rstrip": false,
      "normalized": false,
      "special": true
    },
    {
      "id": 162,
      "content": "<0x9C>",
      "single_word": false,
      "lstrip": false,
      "rstrip": false,
      "normalized": false,
      "special": true
    },
    {
      "id": 163,
      "content": "<0x9D>",
      "single_word": false,
      "lstrip": false,
      "rstrip": false,
      "normalized": false,
      "special": true
    },
    {
      "id": 164,
      "content": "<0x9E>",
      "single_word": false,
      "lstrip": false,
      "rstrip": false,
      "normalized": false,
      "special": true
    },
    {
      "id": 165,
      "content": "<0x9F>",
      "single_word": false,
      "lstrip": false,
      "rstrip": false,
      "normalized": false,
      "special": true
    },
    {
      "id": 166,
      "content": "<0xA0>",
      "single_word": false,
      "lstrip": false,
      "rstrip": false,
      "normalized": false,
      "special": true
    },
    {
      "id": 167,
      "content": "<0xA1>",
      "single_word": false,
      "lstrip": false,
      "rstrip": false,
      "normalized": false,
      "special": true
    },
    {
      "id": 168,
      "content": "<0xA2>",
      "single_word": false,
      "lstrip": false,
      "rstrip": false,
      "normalized": false,
      "special": true
    },
    {
      "id": 169,
      "content": "<0xA3>",
      "single_word": false,
      "lstrip": false,
      "rstrip": false,
      "normalized": false,
      "special": true
    },
    {
      "id": 170,
      "content": "<0xA4>",
      "single_word": false,
      "lstrip": false,
      "rstrip": false,
      "normalized": false,
      "special": true
    },
    {
      "id": 171,
      "content": "<0xA5>",
      "single_word": false,
      "lstrip": false,
      "rstrip": false,
      "normalized": false,
      "special": true
    },
    {
      "id": 172,
      "content": "<0xA6>",
      "single_word": false,
      "lstrip": false,
      "rstrip": false,
      "normalized": false,
      "special": true
    },
    {
      "id": 173,
      "content": "<0xA7>",
      "single_word": false,
      "lstrip": false,
      "rstrip": false,
      "normalized": false,
      "special": true
    },
    {
      "id": 174,
      "content": "<0xA8>",
      "single_word": false,
      "lstrip": false,
      "rstrip": false,
      "normalized": false,
      "special": true
    },
    {
      "id": 175,
      "content": "<0xA9>",
      "single_word": false,
      "lstrip": false,
      "rstrip": false,
      "normalized": false,
      "special": true
    },
    {
      "id": 176,
      "content": "<0xAA>",
      "single_word": false,
      "lstrip": false,
      "rstrip": false,
      "normalized": false,
      "special": true
    },
    {
      "id": 177,
      "content": "<0xAB>",
      "single_word": false,
      "lstrip": false,
      "rstrip": false,
      "normalized": false,
      "special": true
    },
    {
      "id": 178,
      "content": "<0xAC>",
      "single_word": false,
      "lstrip": false,
      "rstrip": false,
      "normalized": false,
      "special": true
    },
    {
      "id": 179,
      "content": "<0xAD>",
      "single_word": false,
      "lstrip": false,
      "rstrip": false,
      "normalized": false,
      "special": true
    },
    {
      "id": 180,
      "content": "<0xAE>",
      "single_word": false,
      "lstrip": false,
      "rstrip": false,
      "normalized": false,
      "special": true
    },
    {
      "id": 181,
      "content": "<0xAF>",
      "single_word": false,
      "lstrip": false,
      "rstrip": false,
      "normalized": false,
      "special": true
    },
    {
      "id": 182,
      "content": "<0xB0>",
      "single_word": false,
      "lstrip": false,
      "rstrip": false,
      "normalized": false,
      "special": true
    },
    {
      "id": 183,
      "content": "<0xB1>",
      "single_word": false,
      "lstrip": false,
      "rstrip": false,
      "normalized": false,
      "special": true
    },
    {
      "id": 184,
      "content": "<0xB2>",
      "single_word": false,
      "lstrip": false,
      "rstrip": false,
      "normalized": false,
      "special": true
    },
    {
      "id": 185,
      "content": "<0xB3>",
      "single_word": false,
      "lstrip": false,
      "rstrip": false,
      "normalized": false,
      "special": true
    },
    {
      "id": 186,
      "content": "<0xB4>",
      "single_word": false,
      "lstrip": false,
      "rstrip": false,
      "normalized": false,
      "special": true
    },
    {
      "id": 187,
      "content": "<0xB5>",
      "single_word": false,
      "lstrip": false,
      "rstrip": false,
      "normalized": false,
      "special": true
    },
    {
      "id": 188,
      "content": "<0xB6>",
      "single_word": false,
      "lstrip": false,
      "rstrip": false,
      "normalized": false,
      "special": true
    },
    {
      "id": 189,
      "content": "<0xB7>",
      "single_word": false,
      "lstrip": false,
      "rstrip": false,
      "normalized": false,
      "special": true
    },
    {
      "id": 190,
      "content": "<0xB8>",
      "single_word": false,
      "lstrip": false,
      "rstrip": false,
      "normalized": false,
      "special": true
    },
    {
      "id": 191,
      "content": "<0xB9>",
      "single_word": false,
      "lstrip": false,
      "rstrip": false,
      "normalized": false,
      "special": true
    },
    {
      "id": 192,
      "content": "<0xBA>",
      "single_word": false,
      "lstrip": false,
      "rstrip": false,
      "normalized": false,
      "special": true
    },
    {
      "id": 193,
      "content": "<0xBB>",
      "single_word": false,
      "lstrip": false,
      "rstrip": false,
      "normalized": false,
      "special": true
    },
    {
      "id": 194,
      "content": "<0xBC>",
      "single_word": false,
      "lstrip": false,
      "rstrip": false,
      "normalized": false,
      "special": true
    },
    {
      "id": 195,
      "content": "<0xBD>",
      "single_word": false,
      "lstrip": false,
      "rstrip": false,
      "normalized": false,
      "special": true
    },
    {
      "id": 196,
      "content": "<0xBE>",
      "single_word": false,
      "lstrip": false,
      "rstrip": false,
      "normalized": false,
      "special": true
    },
    {
      "id": 197,
      "content": "<0xBF>",
      "single_word": false,
      "lstrip": false,
      "rstrip": false,
      "normalized": false,
      "special": true
    },
    {
      "id": 198,
      "content": "<0xC0>",
      "single_word": false,
      "lstrip": false,
      "rstrip": false,
      "normalized": false,
      "special": true
    },
    {
      "id": 199,
      "content": "<0xC1>",
      "single_word": false,
      "lstrip": false,
      "rstrip": false,
      "normalized": false,
      "special": true
    },
    {
      "id": 200,
      "content": "<0xC2>",
      "single_word": false,
      "lstrip": false,
      "rstrip": false,
      "normalized": false,
      "special": true
    },
    {
      "id": 201,
      "content": "<0xC3>",
      "single_word": false,
      "lstrip": false,
      "rstrip": false,
      "normalized": false,
      "special": true
    },
    {
      "id": 202,
      "content": "<0xC4>",
      "single_word": false,
      "lstrip": false,
      "rstrip": false,
      "normalized": false,
      "special": true
    },
    {
      "id": 203,
      "content": "<0xC5>",
      "single_word": false,
      "lstrip": false,
      "rstrip": false,
      "normalized": false,
      "special": true
    },
    {
      "id": 204,
      "content": "<0xC6>",
      "single_word": false,
      "lstrip": false,
      "rstrip": false,
      "normalized": false,
      "special": true
    },
    {
      "id": 205,
      "content": "<0xC7>",
      "single_word": false,
      "lstrip": false,
      "rstrip": false,
      "normalized": false,
      "special": true
    },
    {
      "id": 206,
      "content": "<0xC8>",
      "single_word": false,
      "lstrip": false,
      "rstrip": false,
      "normalized": false,
      "special": true
    },
    {
      "id": 207,
      "content": "<0xC9>",
      "single_word": false,
      "lstrip": false,
      "rstrip": false,
      "normalized": false,
      "special": true
    },
    {
      "id": 208,
      "content": "<0xCA>",
      "single_word": false,
      "lstrip": false,
      "rstrip": false,
      "normalized": false,
      "special": true
    },
    {
      "id": 209,
      "content": "<0xCB>",
      "single_word": false,
      "lstrip": false,
      "rstrip": false,
      "normalized": false,
      "special": true
    },
    {
      "id": 210,
      "content": "<0xCC>",
      "single_word": false,
      "lstrip": false,
      "rstrip": false,
      "normalized": false,
      "special": true
    },
    {
      "id": 211,
      "content": "<0xCD>",
      "single_word": false,
      "lstrip": false,
      "rstrip": false,
      "normalized": false,
      "special": true
    },
    {
      "id": 212,
      "content": "<0xCE>",
      "single_word": false,
      "lstrip": false,
      "rstrip": false,
      "normalized": false,
      "special": true
    },
    {
      "id": 213,
      "content": "<0xCF>",
      "single_word": false,
      "lstrip": false,
      "rstrip": false,
      "normalized": false,
      "special": true
    },
    {
      "id": 214,
      "content": "<0xD0>",
      "single_word": false,
      "lstrip": false,
      "rstrip": false,
      "normalized": false,
      "special": true
    },
    {
      "id": 215,
      "content": "<0xD1>",
      "single_word": false,
      "lstrip": false,
      "rstrip": false,
      "normalized": false,
      "special": true
    },
    {
      "id": 216,
      "content": "<0xD2>",
      "single_word": false,
      "lstrip": false,
      "rstrip": false,
      "normalized": false,
      "special": true
    },
    {
      "id": 217,
      "content": "<0xD3>",
      "single_word": false,
      "lstrip": false,
      "rstrip": false,
      "normalized": false,
      "special": true
    },
    {
      "id": 218,
      "content": "<0xD4>",
      "single_word": false,
      "lstrip": false,
      "rstrip": false,
      "normalized": false,
      "special": true
    },
    {
      "id": 219,
      "content": "<0xD5>",
      "single_word": false,
      "lstrip": false,
      "rstrip": false,
      "normalized": false,
      "special": true
    },
    {
      "id": 220,
      "content": "<0xD6>",
      "single_word": false,
      "lstrip": false,
      "rstrip": false,
      "normalized": false,
      "special": true
    },
    {
      "id": 221,
      "content": "<0xD7>",
      "single_word": false,
      "lstrip": false,
      "rstrip": false,
      "normalized": false,
      "special": true
    },
    {
      "id": 222,
      "content": "<0xD8>",
      "single_word": false,
      "lstrip": false,
      "rstrip": false,
      "normalized": false,
      "special": true
    },
    {
      "id": 223,
      "content": "<0xD9>",
      "single_word": false,
      "lstrip": false,
      "rstrip": false,
      "normalized": false,
      "special": true
    },
    {
      "id": 224,
      "content": "<0xDA>",
      "single_word": false,
      "lstrip": false,
      "rstrip": false,
      "normalized": false,
      "special": true
    },
    {
      "id": 225,
      "content": "<0xDB>",
      "single_word": false,
      "lstrip": false,
      "rstrip": false,
      "normalized": false,
      "special": true
    },
    {
      "id": 226,
      "content": "<0xDC>",
      "single_word": false,
      "lstrip": false,
      "rstrip": false,
      "normalized": false,
      "special": true
    },
    {
      "id": 227,
      "content": "<0xDD>",
      "single_word": false,
      "lstrip": false,
      "rstrip": false,
      "normalized": false,
      "special": true
    },
    {
      "id": 228,
      "content": "<0xDE>",
      "single_word": false,
      "lstrip": false,
      "rstrip": false,
      "normalized": false,
      "special": true
    },
    {
      "id": 229,
      "content": "<0xDF>",
      "single_word": false,
      "lstrip": false,
      "rstrip": false,
      "normalized": false,
      "special": true
    },
    {
      "id": 230,
      "content": "<0xE0>",
      "single_word": false,
      "lstrip": false,
      "rstrip": false,
      "normalized": false,
      "special": true
    },
    {
      "id": 231,
      "content": "<0xE1>",
      "single_word": false,
      "lstrip": false,
      "rstrip": false,
      "normalized": false,
      "special": true
    },
    {
      "id": 232,
      "content": "<0xE2>",
      "single_word": false,
      "lstrip": false,
      "rstrip": false,
      "normalized": false,
      "special": true
    },
    {
      "id": 233,
      "content": "<0xE3>",
      "single_word": false,
      "lstrip": false,
      "rstrip": false,
      "normalized": false,
      "special": true
    },
    {
      "id": 234,
      "content": "<0xE4>",
      "single_word": false,
      "lstrip": false,
      "rstrip": false,
      "normalized": false,
      "special": true
    },
    {
      "id": 235,
      "content": "<0xE5>",
      "single_word": false,
      "lstrip": false,
      "rstrip": false,
      "normalized": false,
      "special": true
    },
    {
      "id": 236,
      "content": "<0xE6>",
      "single_word": false,
      "lstrip": false,
      "rstrip": false,
      "normalized": false,
      "special": true
    },
    {
      "id": 237,
      "content": "<0xE7>",
      "single_word": false,
      "lstrip": false,
      "rstrip": false,
      "normalized": false,
      "special": true
    },
    {
      "id": 238,
      "content": "<0xE8>",
      "single_word": false,
      "lstrip": false,
      "rstrip": false,
      "normalized": false,
      "special": true
    },
    {
      "id": 239,
      "content": "<0xE9>",
      "single_word": false,
      "lstrip": false,
      "rstrip": false,
      "normalized": false,
      "special": true
    },
    {
      "id": 240,
      "content": "<0xEA>",
      "single_word": false,
      "lstrip": false,
      "rstrip": false,
      "normalized": false,
      "special": true
    },
    {
      "id": 241,
      "content": "<0xEB>",
      "single_word": false,
      "lstrip": false,
      "rstrip": false,
      "normalized": false,
      "special": true
    },
    {
      "id": 242,
      "content": "<0xEC>",
      "single_word": false,
      "lstrip": false,
      "rstrip": false,
      "normalized": false,
      "special": true
    },
    {
      "id": 243,
      "content": "<0xED>",
      "single_word": false,
      "lstrip": false,
      "rstrip": false,
      "normalized": false,
      "special": true
    },
    {
      "id": 244,
      "content": "<0xEE>",
      "single_word": false,
      "lstrip": false,
      "rstrip": false,
      "normalized": false,
      "special": true
    },
    {
      "id": 245,
      "content": "<0xEF>",
      "single_word": false,
      "lstrip": false,
      "rstrip": false,
      "normalized": false,
      "special": true
    },
    {
      "id": 246,
      "content": "<0xF0>",
      "single_word": false,
      "lstrip": false,
      "rstrip": false,
      "normalized": false,
      "special": true
    },
    {
      "id": 247,
      "content": "<0xF1>",
      "single_word": false,
      "lstrip": false,
      "rstrip": false,
      "normalized": false,
      "special": true
    },
    {
      "id": 248,
      "content": "<0xF2>",
      "single_word": false,
      "lstrip": false,
      "rstrip": false,
      "normalized": false,
      "special": true
    },
    {
      "id": 249,
      "content": "<0xF3>",
      "single_word": false,
      "lstrip": false,
      "rstrip": false,
      "normalized": false,
      "special": true
    },
    {
      "id": 250,
      "content": "<0xF4>",
      "single_word": false,
      "lstrip": false,
      "rstrip": false,
      "normalized": false,
      "special": true
    },
    {
      "id": 251,
      "content": "<0xF5>",
      "single_word": false,
      "lstrip": false,
      "rstrip": false,
      "normalized": false,
      "special": true
    },
    {
      "id": 252,
      "content": "<0xF6>",
      "single_word": false,
      "lstrip": false,
      "rstrip": false,
      "normalized": false,
      "special": true
    },
    {
      "id": 253,
      "content": "<0xF7>",
      "single_word": false,
      "lstrip": false,
      "rstrip": false,
      "normalized": false,
      "special": true
    },
    {
      "id": 254,
      "content": "<0xF8>",
      "single_word": false,
      "lstrip": false,
      "rstrip": false,
      "normalized": false,
      "special": true
    },
    {
      "id": 255,
      "content": "<0xF9>",
      "single_word": false,
      "lstrip": false,
      "rstrip": false,
      "normalized": false,
      "special": true
    },
    {
      "id": 256,
      "content": "<0xFA>",
      "single_word": false,
      "lstrip": false,
      "rstrip": false,
      "normalized": false,
      "special": true
    },
    {
      "id": 257,
      "content": "<0xFB>",
      "single_word": false,
      "lstrip": false,
      "rstrip": false,
      "normalized": false,
      "special": true
    },
    {
      "id": 258,
      "content": "<0xFC>",
      "single_word": false,
      "lstrip": false,
      "rstrip": false,
      "normalized": false,
      "special": true
    },
    {
      "id": 259,
      "content": "<0xFD>",
      "single_word": false,
      "lstrip": false,
      "rstrip": false,
      "normalized": false,
      "special": true
    },
    {
      "id": 260,
      "content": "<0xFE>",
      "single_word": false,
      "lstrip": false,
      "rstrip": false,
      "normalized": false,
      "special": true
    },
    {
      "id": 261,
      "content": "<0xFF>",
      "single_word": false,
      "lstrip": false,
      "rstrip": false,
      "normalized": false,
      "special": true
    }
  ],
  "normalizer": null,
  "pre_tokenizer": {
    "type": "Sequence",
    "pretokenizers": [
      {
        "type": "Split",
        "pattern": {
          "Regex": " ?\\p{L}+|\\p{N}{1,3}| ?[^\\s\\p{L}\\p{N}]+[\\r\\n]*|\\s*[\\r\\n]+|\\s+(?!\\S)|\\s+"
        },
        "behavior": "Isolated",
        "invert": false
      },
      {
        "type": "ByteLevel",
        "add_prefix_space": false,
        "trim_offsets": true,
        "use_regex": false
      }
    ]
  },
  "post_processor": null,
  "decoder": {
    "type": "Sequence",
    "decoders": [
      {
        "type": "ByteFallback"
      },
      {
        "type": "ByteLevel",
        "add_prefix_space": true,
        "trim_offsets": true,
        "use_regex": true
      }
    ]
  },
  "model": {
    "type": "BPE",
    "dropout": null,
    "unk_token": null,
    "continuing_subword_prefix": null,
    "end_of_word_suffix": null,
    "fuse_unk": false,
    "byte_fallback": true,
    "vocab": {
      "<|begin_of_text|>": 0,
      "<|end_of_text|>": 1,
      "<pad>": 2,
      "<|fim_prefix|>": 3,
      "<|fim_middle|>": 4,
      "<|fim_suffix|>": 5,
      "<0x00>": 6,
      "<0x01>": 7,
      "<0x02>": 8,
      "<0x03>": 9,
      "<0x04>": 10,
      "<0x05>": 11,
      "<0x06>": 12,
      "<0x07>": 13,
      "<0x08>": 14,
      "<0x09>": 15,
      "<0x0A>": 16,
      "<0x0B>": 17,
      "<0x0C>": 18,
      "<0x0D>": 19,
      "<0x0E>": 20,
      "<0x0F>": 21,
      "<0x10>": 22,
      "<0x11>": 23,
      "<0x12>": 24,
      "<0x13>": 25,
      "<0x14>": 26,
      "<0x15>": 27,
      "<0x16>": 28,
      "<0x17>": 29,
      "<0x18>": 30,
      "<0x19>": 31,
      "<0x1A>": 32,
      "<0x1B>": 33,
      "<0x1C>": 34,
      "<0x1D>": 35,
      "<0x1E>": 36,
      "<0x1F>": 37,
      "<0x20>": 38,
      "<0x21>": 39,
      "<0x22>": 40,
      "<0x23>": 41,
      "<0x24>": 42,
      "<0x25>": 43,
      "<0x26>": 44,
      "<0x27>": 45,
      "<0x28>": 46,
      "<0x29>": 47,
      "<0x2A>": 48,
      "<0x2B>": 49,
      "<0x2C>": 50,
      "<0x2D>": 51,
      "<0x2E>": 52,
      "<0x2F>": 53,
      "<0x30>": 54,
      "<0x31>": 55,
      "<0x32>": 56,
      "<0x33>": 57,
      "<0x34>": 58,
      "<0x35>": 59,
      "<0x36>": 60,
      "<0x37>": 61,
      "<0x38>": 62,
      "<0x39>": 63,
      "<0x3A>": 64,
      "<0x3B>": 65,
      "<0x3C>": 66,
      "<0x3D>": 67,
      "<0x3E>": 68,
      "<0x3F>": 69,
      "<0x40>": 70,
      "<0x41>": 71,
      "<0x42>": 72,
      "<0x43>": 73,
      "<0x44>": 74,
      "<0x45>": 75,
      "<0x46>": 76,
      "<0x47>": 77,
      "<0x48>": 78,
      "<0x49>": 79,
      "<0x4A>": 80,
      "<0x4B>": 81,
      "<0x4C>": 82,
      "<0x4D>": 83,
      "<0x4E>": 84,
      "<0x4F>": 85,
      "<0x50>": 86,
      "<0x51>": 87,
      "<0x52>": 88,
      "<0x53>": 89,
      "<0x54>": 90,
      "<0x55>": 91,
      "<0x56>": 92,
      "<0x57>": 93,
      "<0x58>": 94,
      "<0x59>": 95,
      "<0x5A>": 96,
      "<0x5B>": 97,
      "<0x5C>": 98,
      "<0x5D>": 99,
      "<0x5E>": 100,
      "<0x5F>": 101,
      "<0x60>": 102,
      "<0x61>": 103,
      "<0x62>": 104,
      "<0x63>": 105,
      "<0x64>": 106,
      "<0x65>": 107,
      "<0x66>": 108,
      "<0x67>": 109,
      "<0x68>": 110,
      "<0x69>": 111,
      "<0x6A>": 112,
      "<0x6B>": 113,
      "<0x6C>": 114,
      "<0x6D>": 115,
      "<0x6E>": 116,
      "<0x6F>": 117,
      "<0x70>": 118,
      "<0x71>": 119,
      "<0x72>": 120,
      "<0x73>": 121,
      "<0x74>": 122,
      "<0x75>": 123,
      "<0x76>": 124,
      "<0x77>": 125,
      "<0x78>": 126,
      "<0x79>": 127,
      "<0x7A>": 128,
      "<0x7B>": 129,
      "<0x7C>": 130,
      "<0x7D>": 131,
      "<0x7E>": 132,
      "<0x7F>": 133,
      "<0x80>": 134,
      "<0x81>": 135,
      "<0x82>": 136,
      "<0x83>": 137,
      "<0x84>": 138,
      "<0x85>": 139,
      "<0x86>": 140,
      "<0x87>": 141,
      "<0x88>": 142,
      "<0x89>": 143,
      "<0x8A>": 144,
      "<0x8B>": 145,
      "<0x8C>": 146,
      "<0x8D>": 147,
      "<0x8E>": 148,
      "<0x8F>": 149,
      "<0x90>": 150,
      "<0x91>": 151,
      "<0x92>": 152,
      "<0x93>": 153,
      "<0x94>": 154,
      "<0x95>": 155,
      "<0x96>": 156,
      "<0x97>": 157,
      "<0x98>": 158,
      "<0x99>": 159,
      "<0x9A>": 160,
      "<0x9B>": 161,
      "<0x9C>": 162,
      "<0x9D>": 163,
      "<0x9E>": 164,
      "<0x9F>": 165,
      "<0xA0>": 166,
      "<0xA1>": 167,
      "<0xA2>": 168,
      "<0xA3>": 169,
      "<0xA4>": 170,
      "<0xA5>": 171,
      "<0xA6>": 172,
      "<0xA7>": 173,
      "<0xA8>": 174,
      "<0xA9>": 175,
      "<0xAA>": 176,
      "<0xAB>": 177,
      "<0xAC>": 178,
      "<0xAD>": 179,
      "<0xAE>": 180,
      "<0xAF>": 181,
      "<0xB0>": 182,
      "<0xB1>": 183,
      "<0xB2>": 184,
      "<0xB3>": 185,
      "<0xB4>": 186,
      "<0xB5>": 187,
      "<0xB6>": 188,
      "<0xB7>": 189,
      "<0xB8>": 190,
      "<0xB9>": 191,
      "<0xBA>": 192,
      "<0xBB>": 193,
      "<0xBC>": 194,
      "<0xBD>": 195,
      "<0xBE>": 196,
      "<0xBF>": 197,
      "<0xC0>": 198,
      "<0xC1>": 199,
      "<0xC2>": 200,
      "<0xC3>": 201,
      "<0xC4>": 202,
      "<0xC5>": 203,
      "<0xC6>": 204,
      "<0xC7>": 205,
      "<0xC8>": 206,
      "<0xC9>": 207,
      "<0xCA>": 208,
      "<0xCB>": 209,
      "<0xCC>": 210,
      "<0xCD>": 211,
      "<0xCE>": 212,
      "<0xCF>": 213,
      "<0xD0>": 214,
      "<0xD1>": 215,
      "<0xD2>": 216,
      "<0xD3>": 217,
      "<0xD4>": 218,
      "<0xD5>": 219,
      "<0xD6>": 220,
      "<0xD7>": 221,
      "<0xD8>": 222,
      "<0xD9>": 223,
      "<0xDA>": 224,
      "<0xDB>": 225,
      "<0xDC>": 226,
      "<0xDD>": 227,
      "<0xDE>": 228,
      "<0xDF>": 229,
      "<0xE0>": 230,
      "<0xE1>": 231,
      "<0xE2>": 232,
      "<0xE3>": 233,
      "<0xE4>": 234,
      "<0xE5>": 235,
      "<0xE6>": 236,
      "<0xE7>": 237,
      "<0xE8>": 238,
      "<0xE9>": 239,
      "<0xEA>": 240,
      "<0xEB>": 241,
      "<0xEC>": 242,
      "<0xED>": 243,
      "<0xEE>": 244,
      "<0xEF>": 245,
      "<0xF0>": 246,
      "<0xF1>": 247,
      "<0xF2>": 248,
      "<0xF3>": 249,
      "<0xF4>": 250,
      "<0xF5>": 251,
      "<0xF6>": 252,
      "<0xF7>": 253,
      "<0xF8>": 254,
      "<0xF9>": 255,
      "<0xFA>": 256,
      "<0xFB>": 257,
      "<0xFC>": 258,
      "<0xFD>": 259,
      "<0xFE>": 260,
      "<0xFF>": 261,
      "!": 262,
      "\"": 263,
      "#": 264,
      "$": 265,
      "%": 266,
      "&": 267,
      "'": 268,
      "(": 269,
      ")": 270,
      "*": 271,
      "+": 272,
      ",": 273,
      "-": 274,
      ".": 275,
      "/": 276,
      "0": 277,
      "1": 278,
      "2": 279,
      "3": 280,
      "4": 281,
      "5": 282,
      "6": 283,
      "7": 284,
      "8": 285,
      "9": 286,
      ":": 287,
      ";": 288,
      "<": 289,
      "=": 290,
      ">": 291,
      "?": 292,
      "@": 293,
      "A": 294,
      "B": 295,
      "C": 296,
      "D": 297,
      "E": 298,
      "F": 299,
      "G": 300,
      "H": 301,
      "I": 302,
      "J": 303,
      "K": 304,
      "L": 305,
      "M": 306,
      "N": 307,
      "O": 308,
      "P": 309,
      "Q": 310,
      "R": 311,
      "S": 312,
      "T": 313,
      "U": 314,
      "V": 315,
      "W": 316,
      "X": 317,
      "Y": 318,
      "Z": 319,
      "[": 320,
      "\\": 321,
      "]": 322,
      "^": 323,
      "_": 324,
      "`": 325,
      "a": 326,
      "b": 327,
      "c": 328,
      "d": 329,
      "e": 330,
      "f": 331,
      "g": 332,
      "h": 333,
      "i": 334,
      "j": 335,
      "k": 336,
      "l": 337,
      "m": 338,
      "n": 339,
      "o": 340,
      "p": 341,
      "q": 342,
      "r": 343,
      "s": 344,
      "t": 345,
      "u": 346,
      "v": 347,
      "w": 348,
      "x": 349,
      "y": 350,
      "z": 351,
      "{": 352,
      "|": 353,
      "}": 354,
      "~": 355,
      "¡": 356,
      "¢": 357,
      "£": 358,
      "¤": 359,
      "¥": 360,
      "¦": 361,
      "§": 362,
      "¨": 363,
      "©": 364,
      "ª": 365,
      "«": 366,
      "¬": 367,
      "®": 368,
      "¯": 369,
      "°": 370,
      "±": 371,
      "²": 372,
      "³": 373,
      "´": 374,
      "µ": 375,
      "¶": 376,
      "·": 377,
      "¸": 378,
      "¹": 379,
      "º": 380,
      "»": 381,
      "¼": 382,
      "½": 383,
      "¾": 384,
      "¿": 385,
      "Â": 386,
      "Ã": 387,
      "Ä": 388,
      "Å": 389,
      "Æ": 390,
      "Ç": 391,
      "È": 392,
      "É": 393,
      "Ê": 394,
      "Ë": 395,
      "Ì": 396,
      "Í": 397,
      "Î": 398,
      "Ï": 399,
      "Ð": 400,
      "Ñ": 401,
      "Ò": 402,
      "Ó": 403,
      "Ô": 404,
      "Õ": 405,
      "Ö": 406,
      "×": 407,
      "Ø": 408,
      "Ù": 409,
      "Ú": 410,
      "Û": 411,
      "Ü": 412,
      "Ý": 413,
      "Þ": 414,
      "ß": 415,
      "à": 416,
      "á": 417,
      "â": 418,
      "ã": 419,
      "ä": 420,
      "å": 421,
      "æ": 422,
      "ç": 423,
      "è": 424,
      "é": 425,
      "ê": 426,
      "ë": 427,
      "ì": 428,
      "í": 429,
      "î": 430,
      "ï": 431,
      "ð": 432,
      "ñ": 433,
      "ò": 434,
      "ó": 435,
      "ô": 436,
      "Ā": 437,
      "ā": 438,
      "Ă": 439,
      "ă": 440,
      "Ą": 441,
      "ą": 442,
      "Ć": 443,
      "ć": 444,
      "Ĉ": 445,
      "ĉ": 446,
      "Ċ": 447,
      "ċ": 448,
      "Č": 449,
      "č": 450,
      "Ď": 451,
      "ď": 452,
      "Đ": 453,
      "đ": 454,
      "Ē": 455,
      "ē": 456,
      "Ĕ": 457,
      "ĕ": 458,
      "Ė": 459,
      "ė": 460,
      "Ę": 461,
      "ę": 462,
      "Ě": 463,
      "ě": 464,
      "Ĝ": 465,
      "ĝ": 466,
      "Ğ": 467,
      "ğ": 468,
      "Ġ": 469,
      "ġ": 470,
      "Ģ": 471,
      "ģ": 472,
      "Ĥ": 473,
      "ĥ": 474,
      "Ħ": 475,
      "ħ": 476,
      "Ĩ": 477,
      "ĩ": 478,
      "Ī": 479,
      "ī": 480,
      "Ĭ": 481,
      "ĭ": 482,
      "Į": 483,
      "į": 484,
      "İ": 485,
      "ı": 486,
      "Ĳ": 487,
      "ĳ": 488,
      "Ĵ": 489,
      "ĵ": 490,
      "Ķ": 491,
      "ķ": 492,
      "ĸ": 493,
      "Ĺ": 494,
      "ĺ": 495,
      "Ļ": 496,
      "ļ": 497,
      "Ľ": 498,
      "ľ": 499,
      "Ŀ": 500,
      "ŀ": 501,
      "Ł": 502,
      "ł": 503,
      "Ń": 504,
      "ĠĠ": 505,
      "ĠĠĠĠ": 506,
      "in": 507,
      "er": 508,
      "ĠĠĠ": 509,
      "ĠĠĠĠĠĠĠĠ": 510,
      "on": 511,
      "Ġt": 512,
      "re": 513,
      "at": 514,
      "st": 515,
      "en": 516,
      "Ġa": 517,
      "or": 518,
      "Ġth": 519,
      "le": 520,
      ";Ċ": 521,
      "se": 522,
      "Ġc": 523,
      "al": 524,
      "it": 525,
      "ar": 526,
      "ion": 527,
      "ĠĠĠĠĠĠĠ": 528,
      "an": 529,
      "Ġ=": 530,
      "de": 531,
      "Ġthe": 532,
      "Ġf": 533,
      "Ġp": 534,
      "ou": 535,
      "ct": 536,
      "is": 537,
      "ing": 538,
      "me": 539,
      "Ġs": 540,
      "ic": 541,
      "ro": 542,
      "ĉĉ": 543,
      "Ġw": 544,
      "es": 545,
      "Ġb": 546,
      "ĊĊ": 547,
      "ent": 548,
      ");Ċ": 549,
      "ed": 550,
      "Ġo": 551,
      "et": 552,
      "--": 553,
      "Ġ{": 554,
      "Ġin": 555,
      "Ġn": 556,
      "Ġre": 557,
      "as": 558,
      "ĠĠĠĠĠĠĠĠĠĠĠ": 559,
      "Ġ(": 560,
      "Ġm": 561,
      "nd": 562,
      "lo": 563,
      "id": 564,
      "Ġh": 565,
      "ur": 566,
      "Ġd": 567,
      "mp": 568,
      "Ġto": 569,
      "el": 570,
      "if": 571,
      "il": 572,
      "ut": 573,
      "//": 574,
      "ch": 575,
      "Ġ{Ċ": 576,
      "Ġ}": 577,
      "ex": 578,
      "Ġof": 579,
      ")Ċ": 580,
      "Ġ*": 581,
      "ra": 582,
      "ce": 583,
      "Ġ\"": 584,
      "ig": 585,
      "th": 586,
      ",Ċ": 587,
      "ate": 588,
      "ol": 589,
      "ad": 590,
      "ue": 591,
      "Ġand": 592,
      "ĠĠĠĠĠĠĠĠĠĠĠĠĠĠĠĠ": 593,
      "ag": 594,
      "ul": 595,
      "**": 596,
      "Ġv": 597,
      "un": 598,
      "iv": 599,
      "ame": 600,
      "Ġ$": 601,
      "pe": 602,
      "ation": 603,
      "ĠS": 604,
      "ot": 605,
      "Ġ'": 606,
      "Ġst": 607,
      "Ġg": 608,
      "ab": 609,
      "om": 610,
      "ck": 611,
      "Ġ<": 612,
      "()": 613,
      "ĠT": 614,
      "tr": 615,
      "ĠI": 616,
      "Ġl": 617,
      "ter": 618,
      "čĊ": 619,
      "us": 620,
      "ction": 621,
      "->": 622,
      "um": 623,
      "----": 624,
      "Ġis": 625,
      "ode": 626,
      "urn": 627,
      ".Ċ": 628,
      "ew": 629,
      "ist": 630,
      "ĠĠĠĠĠ": 631,
      "Ġde": 632,
      "ort": 633,
      "Ġse": 634,
      "ub": 635,
      "ĠC": 636,
      "pt": 637,
      "em": 638,
      "Ġcon": 639,
      "ĠA": 640,
      "Ġfor": 641,
      "turn": 642,
      ">Ċ": 643,
      "ss": 644,
      "end": 645,
      "he": 646,
      "ĠĠĠĠĠĠĠĠĠĠĠĠĠĠĠ": 647,
      "ass": 648,
      "ap": 649,
      "Ġe": 650,
      "ay": 651,
      "ri": 652,
      "ow": 653,
      "ver": 654,
      "am": 655,
      "ext": 656,
      "Ġif": 657,
      "get": 658,
      "im": 659,
      "nt": 660,
      "ly": 661,
      "ect": 662,
      "Ġbe": 663,
      "int": 664,
      "=\"": 665,
      "qu": 666,
      "ith": 667,
      "age": 668,
      "od": 669,
      "ht": 670,
      "ve": 671,
      "ata": 672,
      "con": 673,
      "lic": 674,
      "ir": 675,
      "Ġy": 676,
      "Ġon": 677,
      "==": 678,
      "ype": 679,
      "iz": 680,
      "ile": 681,
      "and": 682,
      "Ġ\\": 683,
      "imp": 684,
      "ĠP": 685,
      "our": 686,
      "out": 687,
      "ment": 688,
      "::": 689,
      "ĠM": 690,
      "Ġ//": 691,
      "able": 692,
      "ers": 693,
      "Ġthis": 694,
      "Ġreturn": 695,
      "lass": 696,
      "ke": 697,
      "ult": 698,
      "up": 699,
      "}Ċ": 700,
      "Ġ}Ċ": 701,
      "(\"": 702,
      "Ġwh": 703,
      "est": 704,
      "ase": 705,
      "ĉĉĉĉ": 706,
      "Ġthat": 707,
      "Re": 708,
      "In": 709,
      "Ġit": 710,
      "rom": 711,
      "ert": 712,
      "ĠD": 713,
      "res": 714,
      "Ġpro": 715,
      "ath": 716,
      "to": 717,
      "ine": 718,
      "set": 719,
      "Ġ-": 720,
      "ption": 721,
      "****": 722,
      "Ġal": 723,
      ":Ċ": 724,
      "Ġan": 725,
      "art": 726,
      "('": 727,
      "alue": 728,
      "Ġwith": 729,
      "ĠF": 730,
      "lf": 731,
      "Ġ+": 732,
      "ack": 733,
      "ore": 734,
      "Ġ[": 735,
      "ĠN": 736,
      "ess": 737,
      "os": 738,
      "Ġr": 739,
      "ĠB": 740,
      "Con": 741,
      "ity": 742,
      "00": 743,
      "ight": 744,
      "orm": 745,
      "Ġas": 746,
      "omp": 747,
      "ime": 748,
      "ang": 749,
      ";ĊĊ": 750,
      "Ġex": 751,
      "import": 752,
      "ublic": 753,
      "Ġ@": 754,
      "âĢ": 755,
      "\",": 756,
      "op": 757,
      "str": 758,
      "ĠL": 759,
      "li": 760,
      "ĠE": 761,
      "Ġor": 762,
      "--------": 763,
      "ain": 764,
      "();Ċ": 765,
      "ure": 766,
      "Ġme": 767,
      "##": 768,
      "ject": 769,
      "ere": 770,
      "}ĊĊ": 771,
      "Ġ}ĊĊ": 772,
      "ĠĠĠĠĠĠĠĠĠĠĠĠĠĠĠĠĠĠĠ": 773,
      "Ġ&": 774,
      "</": 775,
      "sp": 776,
      "',": 777,
      "ize": 778,
      "ff": 779,
      "tring": 780,
      "unction": 781,
      "te": 782,
      "Ġ:": 783,
      "use": 784,
      "ld": 785,
      "Ġnew": 786,
      "all": 787,
      "pp": 788,
      "ind": 789,
      "Ġlo": 790,
      "name": 791,
      "ial": 792,
      "que": 793,
      "ĠR": 794,
      "ĠG": 795,
      ").": 796,
      "St": 797,
      "err": 798,
      "ĠH": 799,
      "av": 800,
      "Ġ|": 801,
      "ive": 802,
      "{Ċ": 803,
      "put": 804,
      "Ġtr": 805,
      "Ġclass": 806,
      "fa": 807,
      "ĠW": 808,
      "oc": 809,
      "sc": 810,
      "Ġfrom": 811,
      "ire": 812,
      "ice": 813,
      "Ġ_": 814,
      ");ĊĊ": 815,
      "ant": 816,
      "Ġj": 817,
      "ord": 818,
      "ill": 819,
      "Ġnot": 820,
      "ĉĉĉ": 821,
      "ull": 822,
      "ph": 823,
      "rou": 824,
      "ib": 825,
      "Ġch": 826,
      "Ġyou": 827,
      "Ġle": 828,
      "lu": 829,
      "Ġ/": 830,
      "text": 831,
      "..": 832,
      "are": 833,
      "ĠO": 834,
      "cc": 835,
      "this": 836,
      "oo": 837,
      "ach": 838,
      "pro": 839,
      "\"Ċ": 840,
      "ome": 841,
      "ave": 842,
      "Ġare": 843,
      "Ġat": 844,
      "Ġpublic": 845,
      "ser": 846,
      "Ġ=>": 847,
      "Ġ*/": 848,
      "par": 849,
      "Name": 850,
      "ite": 851,
      "ies": 852,
      "Ġi": 853,
      "Ġsh": 854,
      "ost": 855,
      "ign": 856,
      "Ġstr": 857,
      "))": 858,
      "ĠThe": 859,
      "Ġby": 860,
      "act": 861,
      "ps": 862,
      "ast": 863,
      "oid": 864,
      "ER": 865,
      "bject": 866,
      "Ġget": 867,
      "form": 868,
      "Ġwe": 869,
      "row": 870,
      "ĠĠĠĠĠĠĠĠĠ": 871,
      "Ġ.": 872,
      "Ġ==": 873,
      "Ex": 874,
      "iew": 875,
      "one": 876,
      "gin": 877,
      "ard": 878,
      "return": 879,
      "====": 880,
      "dd": 881,
      "ray": 882,
      "pl": 883,
      "ft": 884,
      "quest": 885,
      "ount": 886,
      "ould": 887,
      ";čĊ": 888,
      "div": 889,
      "Ġself": 890,
      "fig": 891,
      "ory": 892,
      "ĠU": 893,
      "Ġ*/Ċ": 894,
      "ans": 895,
      "uct": 896,
      "ild": 897,
      "vent": 898,
      "ip": 899,
      "ition": 900,
      "ust": 901,
      "Ġfunction": 902,
      "IN": 903,
      "ary": 904,
      "per": 905,
      "omm": 906,
      "Ġres": 907,
      "Ġar": 908,
      "ated": 909,
      "Pro": 910,
      "data": 911,
      "ork": 912,
      "ance": 913,
      "ber": 914,
      "Ġint": 915,
      "ak": 916,
      "ace": 917,
      "ail": 918,
      "Ġcan": 919,
      "String": 920,
      "Id": 921,
      "ide": 922,
      "_{": 923,
      "sh": 924,
      "eld": 925,
      "20": 926,
      "Ġwas": 927,
      "ll": 928,
      "low": 929,
      "be": 930,
      "odel": 931,
      "Ġ!": 932,
      "ax": 933,
      "Ġun": 934,
      "riv": 935,
      "Ġk": 936,
      "Ġhe": 937,
      "port": 938,
      "ON": 939,
      "Ġel": 940,
      "Type": 941,
      "code": 942,
      "Ġdo": 943,
      "),": 944,
      "Ġ#": 945,
      "ong": 946,
      "Ġconst": 947,
      "Ġus": 948,
      "********": 949,
      "ref": 950,
      "ield": 951,
      "Ġ`": 952,
      ".ĊĊ": 953,
      "atic": 954,
      "ĠĠĠĠĠĠĠĠĠĠĠĠĠĠĠĠĠĠĠĠĠĠĠ": 955,
      "Ġset": 956,
      "Ġ</": 957,
      "dex": 958,
      "atch": 959,
      "Ġname": 960,
      "vice": 961,
      "__": 962,
      "alse": 963,
      "key": 964,
      "add": 965,
      "']": 966,
      "ress": 967,
      "ac": 968,
      "ens": 969,
      "val": 970,
      "ell": 971,
      "Ġhave": 972,
      "ge": 973,
      "ST": 974,
      "ĠV": 975,
      "ec": 976,
      ")ĊĊ": 977,
      "lement": 978,
      "Ġcomp": 979,
      "fo": 980,
      "lect": 981,
      "Ġvar": 982,
      "app": 983,
      "To": 984,
      "($": 985,
      "RE": 986,
      "ery": 987,
      "Ġen": 988,
      "',Ċ": 989,
      "self": 990,
      "yst": 991,
      "bo": 992,
      "og": 993,
      "\">": 994,
      "Ġuse": 995,
      "10": 996,
      "type": 997,
      "ource": 998,
      "bu": 999,
      "ence": 1000,
      "di": 1001,
      "Ġcont": 1002,
      "so": 1003,
      "List": 1004,
      "error": 1005,
      "ĠTh": 1006,
      "param": 1007,
      "def": 1008,
      "Ġdata": 1009,
      "clu": 1010,
      "reate": 1011,
      "amp": 1012,
      "ink": 1013,
      "log": 1014,
      "()Ċ": 1015,
      "['": 1016,
      "les": 1017,
      "\",Ċ": 1018,
      "ĠJ": 1019,
      "Res": 1020,
      "abel": 1021,
      "ator": 1022,
      "ther": 1023,
      "ich": 1024,
      "----------------": 1025,
      "ystem": 1026,
      "{\\": 1027,
      "AT": 1028,
      "ĠIn": 1029,
      "Ġvoid": 1030,
      "Ġelse": 1031,
      "Ġnull": 1032,
      "Ġvalue": 1033,
      "Data": 1034,
      "Ġout": 1035,
      "oint": 1036,
      "Ġu": 1037,
      "ener": 1038,
      "col": 1039,
      "////": 1040,
      "inal": 1041,
      "rivate": 1042,
      "ange": 1043,
      "own": 1044,
      "De": 1045,
      "Ġdef": 1046,
      "âĢĻ": 1047,
      "com": 1048,
      "cal": 1049,
      "Ġup": 1050,
      "fault": 1051,
      "pect": 1052,
      "pr": 1053,
      "ception": 1054,
      "ix": 1055,
      "file": 1056,
      "eng": 1057,
      "Ġwill": 1058,
      "Cont": 1059,
      "]Ċ": 1060,
      "cont": 1061,
      "scri": 1062,
      "ĠÐ": 1063,
      "ual": 1064,
      "lock": 1065,
      "ree": 1066,
      "ID": 1067,
      "')": 1068,
      "ie": 1069,
      "LE": 1070,
      "ations": 1071,
      "clude": 1072,
      "rr": 1073,
      "urre": 1074,
      "Ġall": 1075,
      "fer": 1076,
      "Ġne": 1077,
      "umber": 1078,
      "ake": 1079,
      "ound": 1080,
      "ble": 1081,
      "date": 1082,
      "Ġx": 1083,
      "Ġtrue": 1084,
      "Ch": 1085,
      "read": 1086,
      "old": 1087,
      "\");Ċ": 1088,
      "Ġpl": 1089,
      "ob": 1090,
      "Ġbut": 1091,
      "ms": 1092,
      "pert": 1093,
      "string": 1094,
      "onse": 1095,
      "ne": 1096,
      "**Ċ": 1097,
      "ical": 1098,
      "Ġtype": 1099,
      "Ġpar": 1100,
      "Ġ)": 1101,
      "Ġstring": 1102,
      "ton": 1103,
      "OR": 1104,
      "\">Ċ": 1105,
      "\")": 1106,
      "var": 1107,
      "://": 1108,
      "yn": 1109,
      "roup": 1110,
      "qual": 1111,
      "ument": 1112,
      "ãģ": 1113,
      "ty": 1114,
      "ger": 1115,
      "value": 1116,
      "math": 1117,
      "Ġhas": 1118,
      "Ġyour": 1119,
      "ĠĠĠĠĠĠĠĠĠĠĠĠĠĠĠĠĠĠĠĠĠĠĠĠĠĠĠĠĠĠĠĠ": 1120,
      "The": 1121,
      "Ġapp": 1122,
      "Ġ!=": 1123,
      "Ġtime": 1124,
      "\":": 1125,
      "lient": 1126,
      "Ser": 1127,
      "line": 1128,
      "Ġ>": 1129,
      "(Ċ": 1130,
      "EN": 1131,
      "ĠString": 1132,
      "ĠĊ": 1133,
      "min": 1134,
      "atus": 1135,
      "pec": 1136,
      "AL": 1137,
      "Ġso": 1138,
      "ĠRe": 1139,
      "Ġfalse": 1140,
      "ry": 1141,
      "tp": 1142,
      "Ð¾": 1143,
      "Ġcol": 1144,
      "led": 1145,
      "ml": 1146,
      "Ġass": 1147,
      "son": 1148,
      "Value": 1149,
      "}}": 1150,
      "urrent": 1151,
      "ded": 1152,
      "new": 1153,
      "uth": 1154,
      "ader": 1155,
      "class": 1156,
      "Th": 1157,
      "gs": 1158,
      "Col": 1159,
      "Ar": 1160,
      "ength": 1161,
      "Ġend": 1162,
      "ute": 1163,
      "Ġval": 1164,
      "tern": 1165,
      "ont": 1166,
      "time": 1167,
      "Ġ///": 1168,
      "ings": 1169,
      "right": 1170,
      "Ġwhich": 1171,
      "``": 1172,
      "we": 1173,
      "mo": 1174,
      "().": 1175,
      "ca": 1176,
      "Ġid": 1177,
      "rror": 1178,
      "ule": 1179,
      "irst": 1180,
      "12": 1181,
      "emp": 1182,
      "Se": 1183,
      "ĠĠĠĠĠĠ": 1184,
      "begin": 1185,
      "ces": 1186,
      "ions": 1187,
      "Ðµ": 1188,
      "sed": 1189,
      "ous": 1190,
      "SE": 1191,
      "ask": 1192,
      "####": 1193,
      "ey": 1194,
      "32": 1195,
      "AR": 1196,
      "Ġ$\\": 1197,
      "Ġsu": 1198,
      "Ġab": 1199,
      "ool": 1200,
      "fra": 1201,
      "Set": 1202,
      "Ġ&&": 1203,
      "Ġone": 1204,
      "En": 1205,
      "user": 1206,
      "ccess": 1207,
      "Ġdis": 1208,
      "ĠK": 1209,
      "Ġfile": 1210,
      "size": 1211,
      "Ġ%": 1212,
      "of": 1213,
      "It": 1214,
      "========": 1215,
      "Ġprivate": 1216,
      "Ð°": 1217,
      "Ġ?": 1218,
      "Ġresult": 1219,
      "io": 1220,
      "ash": 1221,
      "ia": 1222,
      "quire": 1223,
      "ann": 1224,
      "let": 1225,
      "item": 1226,
      "for": 1227,
      "ark": 1228,
      "Ġcase": 1229,
      "Ġno": 1230,
      "^{": 1231,
      "View": 1232,
      "Ġtest": 1233,
      "Ġcom": 1234,
      "Ġmy": 1235,
      "201": 1236,
      "Bu": 1237,
      "):Ċ": 1238,
      "test": 1239,
      "ãĥ": 1240,
      "Ġadd": 1241,
      "ptions": 1242,
      "arch": 1243,
      "ep": 1244,
      "Ġstatic": 1245,
      "gh": 1246,
      "ok": 1247,
      "Ġbu": 1248,
      "Ġser": 1249,
      "ava": 1250,
      "public": 1251,
      "IT": 1252,
      "idth": 1253,
      "DE": 1254,
      "Exception": 1255,
      "const": 1256,
      "Ġsome": 1257,
      "cre": 1258,
      "));Ċ": 1259,
      "Ġper": 1260,
      "ma": 1261,
      "over": 1262,
      "UL": 1263,
      "Par": 1264,
      "Get": 1265,
      "Error": 1266,
      "ook": 1267,
      "back": 1268,
      "Ġpre": 1269,
      "cl": 1270,
      "ues": 1271,
      "ish": 1272,
      "ates": 1273,
      "stance": 1274,
      "onent": 1275,
      "load": 1276,
      "ĠâĢ": 1277,
      "].": 1278,
      "ise": 1279,
      "left": 1280,
      "ific": 1281,
      "nder": 1282,
      "heck": 1283,
      "Ġany": 1284,
      "du": 1285,
      "ĠĠĠĠĠĠĠĠĠĠĠĠĠ": 1286,
      "Object": 1287,
      "ick": 1288,
      "yle": 1289,
      "itle": 1290,
      "File": 1291,
      "pos": 1292,
      "trib": 1293,
      "Ġqu": 1294,
      "))Ċ": 1295,
      "list": 1296,
      "include": 1297,
      "Ġ||": 1298,
      "thod": 1299,
      "label": 1300,
      "roll": 1301,
      "CT": 1302,
      "Ġwhen": 1303,
      "path": 1304,
      "ãĤ": 1305,
      "anag": 1306,
      "url": 1307,
      "16": 1308,
      "Ð¸": 1309,
      "ifi": 1310,
      "work": 1311,
      "utton": 1312,
      "rite": 1313,
      "Key": 1314,
      "ameter": 1315,
      "Text": 1316,
      "ponse": 1317,
      "ta": 1318,
      "ream": 1319,
      "sum": 1320,
      "ĠĠĠĠĠĠĠĠĠĠĠĠĠĠĠĠĠĠĠĠĠĠĠĠĠĠĠ": 1321,
      "struct": 1322,
      "Ġover": 1323,
      "arget": 1324,
      "ssage": 1325,
      "ud": 1326,
      "Ġsp": 1327,
      "Ġwork": 1328,
      "gra": 1329,
      "unc": 1330,
      "ÑĤ": 1331,
      "cri": 1332,
      "ĠY": 1333,
      "\")Ċ": 1334,
      "perty": 1335,
      "play": 1336,
      "Ġhis": 1337,
      "indow": 1338,
      "ys": 1339,
      "ME": 1340,
      "Ã©": 1341,
      "****************": 1342,
      "Tr": 1343,
      "Ġlet": 1344,
      "Ġmore": 1345,
      "sub": 1346,
      "Ġpart": 1347,
      "comp": 1348,
      "Comp": 1349,
      "];Ċ": 1350,
      "rit": 1351,
      "Time": 1352,
      "cess": 1353,
      "Ġorg": 1354,
      "Ġro": 1355,
      "Item": 1356,
      "Ġinter": 1357,
      "'Ċ": 1358,
      "tps": 1359,
      "AN": 1360,
      "19": 1361,
      "lean": 1362,
      "(\\": 1363,
      "ĠSt": 1364,
      "Ġ,": 1365,
      "ilter": 1366,
      "\";Ċ": 1367,
      "ken": 1368,
      "vel": 1369,
      "Test": 1370,
      "Ġgo": 1371,
      "Ġ->": 1372,
      "ock": 1373,
      "ä¸": 1374,
      "](": 1375,
      "By": 1376,
      "Ġpr": 1377,
      "iss": 1378,
      "++": 1379,
      "ear": 1380,
      "irect": 1381,
      "der": 1382,
      "lete": 1383,
      "Ġerror": 1384,
      "Ġli": 1385,
      "');Ċ": 1386,
      "sw": 1387,
      "ages": 1388,
      "An": 1389,
      "ommand": 1390,
      "Ġfinal": 1391,
      "Ġsup": 1392,
      "}$": 1393,
      "ors": 1394,
      "SS": 1395,
      "),Ċ": 1396,
      "State": 1397,
      "Ġother": 1398,
      "Ġthey": 1399,
      "lay": 1400,
      "}\\": 1401,
      "view": 1402,
      "util": 1403,
      "umn": 1404,
      "At": 1405,
      "ffer": 1406,
      "void": 1407,
      "ody": 1408,
      "Ġ},Ċ": 1409,
      "reak": 1410,
      "lection": 1411,
      "ics": 1412,
      "/*": 1413,
      "ater": 1414,
      "Ġ/**Ċ": 1415,
      "Ġthere": 1416,
      "md": 1417,
      "Ġ*Ċ": 1418,
      "raw": 1419,
      "11": 1420,
      "Ġad": 1421,
      "._": 1422,
      "ample": 1423,
      "Ġsub": 1424,
      "Ġext": 1425,
      "mb": 1426,
      "pen": 1427,
      "],": 1428,
      "ses": 1429,
      "Ġlist": 1430,
      "Ġchar": 1431,
      "rc": 1432,
      "td": 1433,
      "function": 1434,
      "ĉĉĉĉĉ": 1435,
      "fore": 1436,
      "mary": 1437,
      "late": 1438,
      "rol": 1439,
      "Ð½": 1440,
      "Ġhad": 1441,
      "Ġim": 1442,
      "ĠThis": 1443,
      "cond": 1444,
      "Ġthen": 1445,
      "not": 1446,
      "reg": 1447,
      "ride": 1448,
      "map": 1449,
      "';Ċ": 1450,
      "loc": 1451,
      "oin": 1452,
      "loat": 1453,
      "aw": 1454,
      "ider": 1455,
      "enc": 1456,
      "Ġform": 1457,
      "ler": 1458,
      "oun": 1459,
      "wh": 1460,
      "},": 1461,
      "from": 1462,
      "its": 1463,
      "Info": 1464,
      "RO": 1465,
      "try": 1466,
      "index": 1467,
      "':": 1468,
      "Ġ:=": 1469,
      "action": 1470,
      "Ġkey": 1471,
      "any": 1472,
      "());Ċ": 1473,
      "Ġonly": 1474,
      "Un": 1475,
      "Ġtra": 1476,
      "input": 1477,
      "pre": 1478,
      "Ġtheir": 1479,
      "ose": 1480,
      "word": 1481,
      "Ġ--": 1482,
      "igh": 1483,
      "pi": 1484,
      "Add": 1485,
      "Ġimp": 1486,
      "round": 1487,
      "ative": 1488,
      "til": 1489,
      "face": 1490,
      "Int": 1491,
      "Path": 1492,
      "100": 1493,
      "ract": 1494,
      "Event": 1495,
      "wo": 1496,
      "[]": 1497,
      "ĠIt": 1498,
      "ices": 1499,
      "Ġwould": 1500,
      "ible": 1501,
      "print": 1502,
      "ution": 1503,
      "eth": 1504,
      "Request": 1505,
      "Ġshould": 1506,
      "ify": 1507,
      "Ġsc": 1508,
      "Ġreg": 1509,
      "Ġz": 1510,
      "ION": 1511,
      "Ġob": 1512,
      "ache": 1513,
      "Sh": 1514,
      "sign": 1515,
      "ov": 1516,
      "64": 1517,
      "Config": 1518,
      "Ġher": 1519,
      "ÑĢ": 1520,
      "////////": 1521,
      "space": 1522,
      "ait": 1523,
      "Ġuser": 1524,
      "ector": 1525,
      "ents": 1526,
      "ĠQ": 1527,
      "arent": 1528,
      "Ġassert": 1529,
      "Form": 1530,
      "ocument": 1531,
      "Ġsize": 1532,
      "čĊčĊ": 1533,
      "Ġerr": 1534,
      "Com": 1535,
      "dis": 1536,
      "Ġarray": 1537,
      "ï¼": 1538,
      "essage": 1539,
      "Ġabout": 1540,
      "Ġent": 1541,
      "Ġimport": 1542,
      "ely": 1543,
      "ync": 1544,
      "Ġrec": 1545,
      "yp": 1546,
      "ng": 1547,
      "result": 1548,
      "(),": 1549,
      "ank": 1550,
      "mod": 1551,
      "ags": 1552,
      "gg": 1553,
      "ĠCon": 1554,
      "ĠCh": 1555,
      "Ġobject": 1556,
      "fter": 1557,
      "ush": 1558,
      "25": 1559,
      "ĠSystem": 1560,
      "ĠPro": 1561,
      "config": 1562,
      "ĠEx": 1563,
      "Node": 1564,
      "Map": 1565,
      "ULL": 1566,
      "Ġinto": 1567,
      "Ġwere": 1568,
      "He": 1569,
      "eta": 1570,
      "che": 1571,
      "php": 1572,
      "ouble": 1573,
      "ays": 1574,
      "duct": 1575,
      "Ġ(!": 1576,
      "by": 1577,
      "ined": 1578,
      "CE": 1579,
      "ning": 1580,
      "length": 1581,
      "Ġfirst": 1582,
      "Service": 1583,
      "Size": 1584,
      "Ġmodel": 1585,
      "anager": 1586,
      "ateg": 1587,
      "ner": 1588,
      "15": 1589,
      "Ġnumber": 1590,
      "='": 1591,
      "TE": 1592,
      "Ñģ": 1593,
      "Ġalso": 1594,
      "Field": 1595,
      "Ġ/*": 1596,
      "Ġact": 1597,
      "Ġmethod": 1598,
      "Ġstart": 1599,
      "now": 1600,
      "../": 1601,
      "200": 1602,
      "Ġspec": 1603,
      "model": 1604,
      "ature": 1605,
      "https": 1606,
      "Ġdif": 1607,
      "...": 1608,
      "PI": 1609,
      "Ġbo": 1610,
      "Ġbeen": 1611,
      "Ġ<<": 1612,
      "red": 1613,
      "Ð¾Ð": 1614,
      "Ġour": 1615,
      "pack": 1616,
      "thing": 1617,
      "Context": 1618,
      ");čĊ": 1619,
      "info": 1620,
      "Ġexpect": 1621,
      "')Ċ": 1622,
      "Ġlike": 1623,
      "Ġ);Ċ": 1624,
      "Ġsa": 1625,
      ");": 1626,
      "Index": 1627,
      "PE": 1628,
      "Ġag": 1629,
      "ote": 1630,
      "Model": 1631,
      "((": 1632,
      "User": 1633,
      "Ġusing": 1634,
      "br": 1635,
      "ating": 1636,
      "ular": 1637,
      "MA": 1638,
      "LO": 1639,
      "ĠWe": 1640,
      "ĠĠĠĠĊ": 1641,
      "oolean": 1642,
      "Ġ__": 1643,
      "create": 1644,
      "Ġoff": 1645,
      "Ġdefault": 1646,
      "();ĊĊ": 1647,
      "state": 1648,
      "Ġra": 1649,
      "assert": 1650,
      "table": 1651,
      "lob": 1652,
      "ven": 1653,
      "ersion": 1654,
      "CO": 1655,
      "000": 1656,
      "Ġcall": 1657,
      "temp": 1658,
      "Equal": 1659,
      "Message": 1660,
      "Ġrequire": 1661,
      "Comment": 1662,
      "Ġresp": 1663,
      "Array": 1664,
      "uration": 1665,
      "Ġread": 1666,
      "Ġback": 1667,
      "Ġwhat": 1668,
      "ting": 1669,
      "order": 1670,
      "UR": 1671,
      "array": 1672,
      "Ġthem": 1673,
      "Ġexp": 1674,
      "Ġwhere": 1675,
      ">ĊĊ": 1676,
      "GE": 1677,
      "ĠIf": 1678,
      "CH": 1679,
      "Ġneed": 1680,
      "Ġstate": 1681,
      "Ġthan": 1682,
      "--------------------------------": 1683,
      "Ġthrow": 1684,
      "lick": 1685,
      "no": 1686,
      "node": 1687,
      "Ġ\"\"": 1688,
      "Ġacc": 1689,
      "ilder": 1690,
      "Ġ{čĊ": 1691,
      "Class": 1692,
      "ally": 1693,
      "Ġtext": 1694,
      "Ġused": 1695,
      "cent": 1696,
      "ustom": 1697,
      "init": 1698,
      "cript": 1699,
      "cho": 1700,
      "Element": 1701,
      "ility": 1702,
      "valid": 1703,
      "osition": 1704,
      "Ġhand": 1705,
      "}{": 1706,
      "roid": 1707,
      "Ġtrans": 1708,
      "net": 1709,
      "start": 1710,
      "ĠĠĊ": 1711,
      "js": 1712,
      "ĠX": 1713,
      "ollow": 1714,
      "db": 1715,
      "cept": 1716,
      "ttp": 1717,
      "arg": 1718,
      "Code": 1719,
      "Ġrun": 1720,
      "Ġbet": 1721,
      "Ġwho": 1722,
      "Ġstd": 1723,
      "box": 1724,
      "Ġcl": 1725,
      "Ġjust": 1726,
      "object": 1727,
      "Or": 1728,
      "span": 1729,
      "We": 1730,
      "Ġtry": 1731,
      "Âł": 1732,
      "Ġfe": 1733,
      "FI": 1734,
      "AD": 1735,
      "enu": 1736,
      "App": 1737,
      "lose": 1738,
      "UT": 1739,
      "frac": 1740,
      "Ġlong": 1741,
      "Ġjava": 1742,
      "ious": 1743,
      "ved": 1744,
      "Ġnil": 1745,
      "ized": 1746,
      "For": 1747,
      "link": 1748,
      "using": 1749,
      "18": 1750,
      "roller": 1751,
      "elp": 1752,
      "Ġfield": 1753,
      "ainer": 1754,
      "bar": 1755,
      "ãĢ": 1756,
      "ected": 1757,
      "Val": 1758,
      "Ġtwo": 1759,
      "Ġrel": 1760,
      "Ġph": 1761,
      "ends": 1762,
      "},Ċ": 1763,
      "Ġrequest": 1764,
      ")$": 1765,
      "request": 1766,
      "vers": 1767,
      "the": 1768,
      "Ġcurrent": 1769,
      "ĠĠĠĠĠĠĠĠĠĠĠĠĠĠĠĠĠĠĠĠĠĠĠĠĠĠĠĠĠĠĠ": 1770,
      "lication": 1771,
      "Ġmod": 1772,
      "={": 1773,
      "Ġevent": 1774,
      "static": 1775,
      "Ġmay": 1776,
      "ww": 1777,
      "As": 1778,
      "field": 1779,
      "ql": 1780,
      "gr": 1781,
      "air": 1782,
      "Qu": 1783,
      "ternal": 1784,
      "ures": 1785,
      "rame": 1786,
      "Ġhow": 1787,
      "raph": 1788,
      "Ġline": 1789,
      "ĠDe": 1790,
      "resent": 1791,
      "fl": 1792,
      "uto": 1793,
      "Over": 1794,
      "fe": 1795,
      "ian": 1796,
      "Ġcode": 1797,
      "Ġits": 1798,
      "Ġì": 1799,
      "Ġbase": 1800,
      "Ġsee": 1801,
      "Hand": 1802,
      "çļ": 1803,
      "anc": 1804,
      "move": 1805,
      "Result": 1806,
      "gle": 1807,
      "Of": 1808,
      "Im": 1809,
      "Ġaw": 1810,
      "çļĦ": 1811,
      "ons": 1812,
      "http": 1813,
      "Ġ+=": 1814,
      "13": 1815,
      "With": 1816,
      "Ġprov": 1817,
      "Ġcheck": 1818,
      "Ġgener": 1819,
      "Ġbreak": 1820,
      "ĠWh": 1821,
      "Ġ)Ċ": 1822,
      "[\"": 1823,
      "api": 1824,
      "14": 1825,
      "Ġmake": 1826,
      "ĠNULL": 1827,
      "Ġpe": 1828,
      "Ġconfig": 1829,
      "ities": 1830,
      "Ġcor": 1831,
      "tribute": 1832,
      "Ġte": 1833,
      "nection": 1834,
      "opy": 1835,
      "count": 1836,
      "script": 1837,
      "ĠAr": 1838,
      "Up": 1839,
      "Ġmin": 1840,
      "Ġpath": 1841,
      "ĠGet": 1842,
      "max": 1843,
      "On": 1844,
      "Ġstruct": 1845,
      "erm": 1846,
      "title": 1847,
      "Ġcreate": 1848,
      "ization": 1849,
      "Ġam": 1850,
      "ins": 1851,
      "Log": 1852,
      "ments": 1853,
      "iable": 1854,
      "Ġ{ĊĊ": 1855,
      "\\\\": 1856,
      "ts": 1857,
      "Al": 1858,
      "base": 1859,
      "ful": 1860,
      "ĠSe": 1861,
      "Ġcal": 1862,
      "lang": 1863,
      "âĢĿ": 1864,
      "lear": 1865,
      "Ġcomm": 1866,
      "define": 1867,
      "ade": 1868,
      "Ġ});Ċ": 1869,
      "ister": 1870,
      "):": 1871,
      "summary": 1872,
      "Response": 1873,
      "da": 1874,
      "Not": 1875,
      "json": 1876,
      "Ġshow": 1877,
      "Ġpoint": 1878,
      "Ġ]": 1879,
      "num": 1880,
      "></": 1881,
      "Ġinst": 1882,
      "\"]": 1883,
      "UN": 1884,
      "Ġunder": 1885,
      "group": 1886,
      "func": 1887,
      "Ġlog": 1888,
      "Ġwant": 1889,
      "<?": 1890,
      "ox": 1891,
      "Ġshe": 1892,
      "tings": 1893,
      "Ġdiffer": 1894,
      "ient": 1895,
      "_{\\": 1896,
      "scription": 1897,
      "Ġprint": 1898,
      "Ġ**": 1899,
      "Ġinput": 1900,
      "Ġ()": 1901,
      "Ġitem": 1902,
      "/**Ċ": 1903,
      "lease": 1904,
      "case": 1905,
      "az": 1906,
      "30": 1907,
      "Ġnode": 1908,
      "Ġfollow": 1909,
      "Ġdoes": 1910,
      "(&": 1911,
      "px": 1912,
      "message": 1913,
      "uthor": 1914,
      "vert": 1915,
      "query": 1916,
      "point": 1917,
      "Ġcould": 1918,
      "annel": 1919,
      "status": 1920,
      "```": 1921,
      "event": 1922,
      "Manager": 1923,
      "Le": 1924,
      "ified": 1925,
      "char": 1926,
      "Ġeach": 1927,
      "LA": 1928,
      "org": 1929,
      "part": 1930,
      "formation": 1931,
      "Ġever": 1932,
      "================": 1933,
      "ope": 1934,
      "itor": 1935,
      "select": 1936,
      "rm": 1937,
      "ams": 1938,
      "tra": 1939,
      "content": 1940,
      "DI": 1941,
      "Count": 1942,
      "ĠUn": 1943,
      "Ġem": 1944,
      "ared": 1945,
      "ĠHe": 1946,
      "ru": 1947,
      "html": 1948,
      "len": 1949,
      "Ġ($": 1950,
      "rop": 1951,
      "Ġfind": 1952,
      "au": 1953,
      "mit": 1954,
      "åı": 1955,
      "itch": 1956,
      "########": 1957,
      "Be": 1958,
      "50": 1959,
      "off": 1960,
      "Lo": 1961,
      "Ġinit": 1962,
      "pend": 1963,
      "Client": 1964,
      "check": 1965,
      "Ġgiv": 1966,
      "ond": 1967,
      "\"></": 1968,
      "Ġtemp": 1969,
      "Ġlook": 1970,
      "assword": 1971,
      "Des": 1972,
      "top": 1973,
      "eq": 1974,
      "ines": 1975,
      "Color": 1976,
      "dev": 1977,
      "swer": 1978,
      "inter": 1979,
      "MP": 1980,
      "Loc": 1981,
      "ume": 1982,
      "width": 1983,
      "Ġdist": 1984,
      "post": 1985,
      "bl": 1986,
      "ĉĉĉĉĉĉ": 1987,
      "Ġarg": 1988,
      "ove": 1989,
      "Out": 1990,
      "Ġknow": 1991,
      "Ġwhile": 1992,
      "bug": 1993,
      "Ġsol": 1994,
      "export": 1995,
      "TR": 1996,
      "ren": 1997,
      "trans": 1998,
      "Ġmax": 1999,
      "rough": 2000,
      "Ġindex": 2001,
      "())": 2002,
      "tx": 2003,
      "Date": 2004,
      "Ġrep": 2005,
      "default": 2006,
      "ĠĠĠĠĠĠĠĠĠĠĠĠ": 2007,
      "cur": 2008,
      "tn": 2009,
      "ains": 2010,
      "current": 2011,
      "ik": 2012,
      "Ġyear": 2013,
      "CK": 2014,
      "Ġbool": 2015,
      "args": 2016,
      "true": 2017,
      "Ġsame": 2018,
      "else": 2019,
      "button": 2020,
      "place": 2021,
      "ffect": 2022,
      "ough": 2023,
      "ween": 2024,
      "Ġed": 2025,
      "Mod": 2026,
      "Ġthese": 2027,
      "ĊĊĊ": 2028,
      "Is": 2029,
      "lex": 2030,
      "Ġcons": 2031,
      "Override": 2032,
      "append": 2033,
      "Wh": 2034,
      "ĠĠĠĠĠĠĠĠĠĠĠĠĠĠĠĠĠ": 2035,
      "ï¼Į": 2036,
      "Ġresponse": 2037,
      "Ġafter": 2038,
      "Button": 2039,
      "mpty": 2040,
      "older": 2041,
      "Input": 2042,
      "SI": 2043,
      "ender": 2044,
      "Status": 2045,
      "lot": 2046,
      "Ġright": 2047,
      "Table": 2048,
      "client": 2049,
      "ower": 2050,
      "tes": 2051,
      "lobal": 2052,
      "ameters": 2053,
      "mathb": 2054,
      "ale": 2055,
      "ension": 2056,
      ":ĊĊ": 2057,
      "dir": 2058,
      "ING": 2059,
      "ern": 2060,
      "Ġsuch": 2061,
      "Ġoper": 2062,
      "Ġla": 2063,
      "Ġ===": 2064,
      "other": 2065,
      "Ġhim": 2066,
      "Ð»": 2067,
      "ypes": 2068,
      "Ġelement": 2069,
      "amb": 2070,
      "Ġfl": 2071,
      "core": 2072,
      "Group": 2073,
      "Ġsystem": 2074,
      "Inter": 2075,
      "comm": 2076,
      "ĠĠĠĠĠĠĠĠĠĠ": 2077,
      "imit": 2078,
      "idd": 2079,
      "LI": 2080,
      "oogle": 2081,
      "ists": 2082,
      "Ġmessage": 2083,
      "ince": 2084,
      "Ġsign": 2085,
      "pha": 2086,
      "ression": 2087,
      "Ġnum": 2088,
      "atab": 2089,
      "format": 2090,
      "Ġnow": 2091,
      "ward": 2092,
      "Ġsaid": 2093,
      "search": 2094,
      "ouse": 2095,
      "40": 2096,
      "mer": 2097,
      "})": 2098,
      "ithub": 2099,
      "17": 2100,
      "std": 2101,
      "orld": 2102,
      "body": 2103,
      "abled": 2104,
      "ten": 2105,
      "Ġtable": 2106,
      "Ġpo": 2107,
      "ĠList": 2108,
      "\"ĊĊ": 2109,
      "ene": 2110,
      "eturn": 2111,
      "Ġsm": 2112,
      "FF": 2113,
      "ED": 2114,
      "Ġco": 2115,
      "Dis": 2116,
      "atri": 2117,
      "quation": 2118,
      "){Ċ": 2119,
      "Ġway": 2120,
      "package": 2121,
      "rid": 2122,
      "Action": 2123,
      "Ġcontext": 2124,
      "Reg": 2125,
      "uch": 2126,
      "po": 2127,
      "Lay": 2128,
      "ENT": 2129,
      "Ġhref": 2130,
      "Image": 2131,
      "Ġdi": 2132,
      "perties": 2133,
      "image": 2134,
      "my": 2135,
      "ĠSet": 2136,
      "ĠAn": 2137,
      "Ġ((": 2138,
      "vir": 2139,
      "Ġcre": 2140,
      "From": 2141,
      "Util": 2142,
      "ood": 2143,
      "TY": 2144,
      "hand": 2145,
      ",\"": 2146,
      "Property": 2147,
      "ense": 2148,
      "Ġhigh": 2149,
      "Ġhere": 2150,
      "Ġthrough": 2151,
      "ui": 2152,
      "atabase": 2153,
      "ethod": 2154,
      "Ġbefore": 2155,
      "Ġlast": 2156,
      "ails": 2157,
      "ĠNone": 2158,
      "lugin": 2159,
      "py": 2160,
      "iled": 2161,
      "find": 2162,
      "DO": 2163,
      "ĠâĢľ": 2164,
      "ats": 2165,
      "block": 2166,
      "ptr": 2167,
      "sole": 2168,
      "Query": 2169,
      "Ġview": 2170,
      "US": 2171,
      "').": 2172,
      "ily": 2173,
      "signed": 2174,
      "rl": 2175,
      "Ġdon": 2176,
      "cause": 2177,
      "ential": 2178,
      "Ġvalues": 2179,
      "iter": 2180,
      "ä»": 2181,
      "ape": 2182,
      "Ġevery": 2183,
      "ification": 2184,
      "context": 2185,
      "tot": 2186,
      "Ġbetween": 2187,
      "Sub": 2188,
      "ingle": 2189,
      "tected": 2190,
      "erson": 2191,
      "run": 2192,
      "ster": 2193,
      "Ġdid": 2194,
      "atrix": 2195,
      "section": 2196,
      "chem": 2197,
      "ivity": 2198,
      "buf": 2199,
      "Ġmust": 2200,
      "><": 2201,
      "utes": 2202,
      "Ġoutput": 2203,
      "NA": 2204,
      "Str": 2205,
      "ĠFor": 2206,
      "][": 2207,
      "Ġpol": 2208,
      "lish": 2209,
      "github": 2210,
      "ek": 2211,
      "Component": 2212,
      "color": 2213,
      "gram": 2214,
      "dition": 2215,
      "ret": 2216,
      "call": 2217,
      "ference": 2218,
      "ĠTr": 2219,
      "write": 2220,
      "wn": 2221,
      "with": 2222,
      "Builder": 2223,
      "Ad": 2224,
      "Ġorder": 2225,
      "Ġdown": 2226,
      "ced": 2227,
      "Ġprocess": 2228,
      "åĪ": 2229,
      "Ġfound": 2230,
      "24": 2231,
      ".,": 2232,
      "Ġet": 2233,
      "page": 2234,
      "TH": 2235,
      "Trans": 2236,
      "UE": 2237,
      "ĠSh": 2238,
      "idget": 2239,
      "sg": 2240,
      "Act": 2241,
      "ategory": 2242,
      "mem": 2243,
      "sm": 2244,
      "Ġmost": 2245,
      "su": 2246,
      "Ġstyle": 2247,
      "ground": 2248,
      "ML": 2249,
      "ople": 2250,
      "Window": 2251,
      "vis": 2252,
      "Select": 2253,
      "cord": 2254,
      "ssion": 2255,
      "vo": 2256,
      "als": 2257,
      "Ġbecause": 2258,
      "ĠYou": 2259,
      "Ġhelp": 2260,
      "bs": 2261,
      "ãĢĤ": 2262,
      "SC": 2263,
      "main": 2264,
      "oute": 2265,
      "Ġtarget": 2266,
      "vices": 2267,
      "Ġinstance": 2268,
      "option": 2269,
      "mt": 2270,
      "All": 2271,
      "AB": 2272,
      "${": 2273,
      "frame": 2274,
      "Ġlocal": 2275,
      "ement": 2276,
      "Stream": 2277,
      "velo": 2278,
      "Ġmap": 2279,
      "PO": 2280,
      "ants": 2281,
      "Box": 2282,
      "TO": 2283,
      "Ġac": 2284,
      "Ġprovide": 2285,
      "Fact": 2286,
      "ATE": 2287,
      "null": 2288,
      "This": 2289,
      "style": 2290,
      "Ġnext": 2291,
      "Ġwell": 2292,
      "ci": 2293,
      "Instance": 2294,
      "Ġplay": 2295,
      "update": 2296,
      "Ġselect": 2297,
      "ssert": 2298,
      "Controller": 2299,
      "Ġgre": 2300,
      "img": 2301,
      ">čĊ": 2302,
      "orage": 2303,
      "Line": 2304,
      "Ġgiven": 2305,
      "Ġopen": 2306,
      "Ġman": 2307,
      "True": 2308,
      "rag": 2309,
      "CON": 2310,
      "###": 2311,
      "\").": 2312,
      "Ġaction": 2313,
      "{{": 2314,
      "dio": 2315,
      "Ġimage": 2316,
      "ĉĉĉĉĉĉĉĉ": 2317,
      "Token": 2318,
      "icon": 2319,
      "cite": 2320,
      "has": 2321,
      "ĠAs": 2322,
      "New": 2323,
      "NO": 2324,
      "local": 2325,
      "Ġboolean": 2326,
      "Sc": 2327,
      "Call": 2328,
      ")čĊ": 2329,
      "oot": 2330,
      "ĉĊ": 2331,
      "Ġdifferent": 2332,
      "And": 2333,
      "ĠInt": 2334,
      "Ġ[Ċ": 2335,
      "ĠApp": 2336,
      "ane": 2337,
      ".\"Ċ": 2338,
      "Null": 2339,
      "Ġ[]": 2340,
      "ĠAl": 2341,
      "Ġeven": 2342,
      "Ġins": 2343,
      "ift": 2344,
      "head": 2345,
      "equal": 2346,
      "obj": 2347,
      "andom": 2348,
      "eger": 2349,
      "?Ċ": 2350,
      "ĠZ": 2351,
      "Base": 2352,
      ">(": 2353,
      "cd": 2354,
      "server": 2355,
      "riter": 2356,
      "Ġref": 2357,
      "Ed": 2358,
      "ency": 2359,
      "Content": 2360,
      "********************************": 2361,
      "UI": 2362,
      "down": 2363,
      "arn": 2364,
      "private": 2365,
      "less": 2366,
      "response": 2367,
      "open": 2368,
      "æľ": 2369,
      "Ġdirect": 2370,
      "mark": 2371,
      "Point": 2372,
      "ĠRes": 2373,
      "doc": 2374,
      "Handler": 2375,
      "ymb": 2376,
      ".\"": 2377,
      "next": 2378,
      "Ġvery": 2379,
      "nect": 2380,
      "Ġoptions": 2381,
      "etwork": 2382,
      "ormal": 2383,
      "co": 2384,
      "./": 2385,
      "Ġchild": 2386,
      "med": 2387,
      "options": 2388,
      "sl": 2389,
      "imple": 2390,
      "Ġecho": 2391,
      "Ġvalid": 2392,
      "ambda": 2393,
      "22": 2394,
      "ĠĠĠĠĠĠĠĠĠĠĠĠĠĠĠĠĠĠĠĠĠĠĠĠĠĠĠĠĠĠĠĠĠĠĠ": 2395,
      "Ġnon": 2396,
      "alpha": 2397,
      "filter": 2398,
      "source": 2399,
      "ym": 2400,
      "ĠĠĠĠĠĠĠĠĠĠĠĠĠĠ": 2401,
      "rap": 2402,
      "mathcal": 2403,
      "lib": 2404,
      "leg": 2405,
      "loy": 2406,
      "sk": 2407,
      "60": 2408,
      "false": 2409,
      "())Ċ": 2410,
      "Ã¡": 2411,
      "ron": 2412,
      "Ġsupport": 2413,
      "ero": 2414,
      "Ġfa": 2415,
      "ump": 2416,
      "do": 2417,
      "Ġque": 2418,
      "version": 2419,
      "SP": 2420,
      "ymbol": 2421,
      "Ġbl": 2422,
      "Ġmatch": 2423,
      "Ġht": 2424,
      "Ñĥ": 2425,
      "ntity": 2426,
      "ars": 2427,
      "Ġpost": 2428,
      "ause": 2429,
      "vol": 2430,
      "Ġest": 2431,
      "ever": 2432,
      "ifier": 2433,
      "ET": 2434,
      "System": 2435,
      "Ġsur": 2436,
      "ename": 2437,
      "Ġpage": 2438,
      "////////////////": 2439,
      "Number": 2440,
      "Ġrange": 2441,
      "=\\": 2442,
      "Ġclient": 2443,
      "Ġinclude": 2444,
      "rows": 2445,
      "80": 2446,
      "ccount": 2447,
      "$,": 2448,
      "Ġinformation": 2449,
      "Ġsrc": 2450,
      "çĶ": 2451,
      "EX": 2452,
      "endif": 2453,
      "ware": 2454,
      "FA": 2455,
      "push": 2456,
      "Ð°Ð": 2457,
      "ott": 2458,
      "Ġret": 2459,
      "ched": 2460,
      "pri": 2461,
      "Method": 2462,
      ",\\": 2463,
      "No": 2464,
      "Ġagain": 2465,
      "chema": 2466,
      "Ġsource": 2467,
      "Label": 2468,
      "Ġgroup": 2469,
      "Ġfact": 2470,
      "target": 2471,
      "nown": 2472,
      "Ġextends": 2473,
      "ources": 2474,
      "Create": 2475,
      "Ġpeople": 2476,
      "anel": 2477,
      "ier": 2478,
      "Ġav": 2479,
      "Ġfloat": 2480,
      "java": 2481,
      "Ġmem": 2482,
      "IP": 2483,
      "Ġcount": 2484,
      "cket": 2485,
      "Ġë": 2486,
      "ĠSer": 2487,
      "Ġsw": 2488,
      "Ġallow": 2489,
      "Que": 2490,
      "align": 2491,
      "ather": 2492,
      "att": 2493,
      "INT": 2494,
      "icro": 2495,
      "Ġdouble": 2496,
      "atter": 2497,
      "}(": 2498,
      "Sp": 2499,
      "irc": 2500,
      "SON": 2501,
      "sup": 2502,
      "her": 2503,
      "*/": 2504,
      "exp": 2505,
      "RA": 2506,
      "ission": 2507,
      "equation": 2508,
      "cale": 2509,
      "Ġsecond": 2510,
      "ultip": 2511,
      "df": 2512,
      "aster": 2513,
      "Default": 2514,
      "};Ċ": 2515,
      "Tra": 2516,
      "åĲ": 2517,
      ">>": 2518,
      "uint": 2519,
      "Ġuint": 2520,
      "Imp": 2521,
      "resh": 2522,
      "Ġquest": 2523,
      "Ġvis": 2524,
      "Ġdocument": 2525,
      "ailable": 2526,
      "icle": 2527,
      "rib": 2528,
      "ually": 2529,
      "Ġbuild": 2530,
      "alk": 2531,
      "ĠĠĠĠĠĠĠĠĊ": 2532,
      "rect": 2533,
      "MO": 2534,
      ".$": 2535,
      "omain": 2536,
      "Source": 2537,
      "cs": 2538,
      "Ġproble": 2539,
      "Page": 2540,
      "where": 2541,
      "Ġmany": 2542,
      "ialog": 2543,
      "Ġstud": 2544,
      "ĠâĢĵ": 2545,
      "Options": 2546,
      "Ġsuper": 2547,
      "Ġdec": 2548,
      "params": 2549,
      "Ġes": 2550,
      "Ġcontent": 2551,
      "come": 2552,
      "Ġlen": 2553,
      "ĠComp": 2554,
      "fin": 2555,
      "Ġwidth": 2556,
      "output": 2557,
      "Ġmon": 2558,
      "Ġ},": 2559,
      "([": 2560,
      "anged": 2561,
      "uring": 2562,
      "Check": 2563,
      "Buffer": 2564,
      "ga": 2565,
      "TI": 2566,
      "Ġversion": 2567,
      "und": 2568,
      "ason": 2569,
      "vider": 2570,
      "Ġproject": 2571,
      "ght": 2572,
      "Ġupdate": 2573,
      "day": 2574,
      ")\\": 2575,
      "last": 2576,
      "å®": 2577,
      "ational": 2578,
      "ìĿ": 2579,
      "ĠAnd": 2580,
      "flow": 2581,
      "Ġatt": 2582,
      "Ġcolor": 2583,
      "ERR": 2584,
      "ctx": 2585,
      "bin": 2586,
      "HT": 2587,
      "Ġblock": 2588,
      "Ġcur": 2589,
      "man": 2590,
      "Ġthink": 2591,
      "Start": 2592,
      "ĠCol": 2593,
      "Ġtop": 2594,
      "erg": 2595,
      "Ġ['": 2596,
      "Ġurl": 2597,
      "method": 2598,
      "Command": 2599,
      "End": 2600,
      "rel": 2601,
      "show": 2602,
      "require": 2603,
      "ah": 2604,
      "Ġcontin": 2605,
      "tual": 2606,
      "Ġgood": 2607,
      "Ġexample": 2608,
      "Ref": 2609,
      "host": 2610,
      "///": 2611,
      "float": 2612,
      "TYPE": 2613,
      "Ġreal": 2614,
      "01": 2615,
      "ules": 2616,
      "Ġfollowing": 2617,
      "Ġbeing": 2618,
      "ession": 2619,
      "del": 2620,
      "pc": 2621,
      "ä½": 2622,
      "posit": 2623,
      "23": 2624,
      "Ġlabel": 2625,
      "oci": 2626,
      "ique": 2627,
      "adata": 2628,
      "Ġboth": 2629,
      "Ġcommand": 2630,
      "({": 2631,
      "sets": 2632,
      "oto": 2633,
      "ife": 2634,
      "oud": 2635,
      "ĠTest": 2636,
      "ready": 2637,
      "}^": 2638,
      "}_": 2639,
      "Ġsk": 2640,
      "mu": 2641,
      "Block": 2642,
      "âĢĶ": 2643,
      "itu": 2644,
      "Ġimplement": 2645,
      "Ġ};Ċ": 2646,
      "src": 2647,
      "first": 2648,
      "icy": 2649,
      "Layout": 2650,
      "Ġleft": 2651,
      "};ĊĊ": 2652,
      "Ġmain": 2653,
      "!--": 2654,
      "itt": 2655,
      "Ġind": 2656,
      "Ġgu": 2657,
      "aj": 2658,
      "parse": 2659,
      "EL": 2660,
      "Ġmuch": 2661,
      "refer": 2662,
      "cul": 2663,
      "ability": 2664,
      "$\\": 2665,
      "Mode": 2666,
      "msg": 2667,
      "entity": 2668,
      "Url": 2669,
      "Var": 2670,
      "Ġcatch": 2671,
      "Factory": 2672,
      "\\Ċ": 2673,
      "namespace": 2674,
      "pm": 2675,
      ").Ċ": 2676,
      "unk": 2677,
      "Ġposition": 2678,
      "Ġpri": 2679,
      "mon": 2680,
      "VER": 2681,
      "ĠÃ": 2682,
      "ences": 2683,
      "Ġtri": 2684,
      "Ġq": 2685,
      "AP": 2686,
      "Ġloc": 2687,
      "Run": 2688,
      "(_": 2689,
      "ialize": 2690,
      "uage": 2691,
      "vious": 2692,
      "enter": 2693,
      "If": 2694,
      "DB": 2695,
      "Row": 2696,
      "layer": 2697,
      "Column": 2698,
      "åħ": 2699,
      "ÐµÐ": 2700,
      "ĠOn": 2701,
      "ĠIN": 2702,
      "Ġ\\Ċ": 2703,
      "Ġchange": 2704,
      "ole": 2705,
      "center": 2706,
      "medi": 2707,
      "board": 2708,
      "Ġresults": 2709,
      "refix": 2710,
      "Ġawait": 2711,
      "serv": 2712,
      ".\\": 2713,
      "defined": 2714,
      "viron": 2715,
      "Exp": 2716,
      "velop": 2717,
      "ĠNew": 2718,
      "Ñı": 2719,
      "attr": 2720,
      "ict": 2721,
      "ceiv": 2722,
      "Entity": 2723,
      "Ġbr": 2724,
      "acter": 2725,
      "||": 2726,
      "();": 2727,
      "aint": 2728,
      "ross": 2729,
      "Ġplace": 2730,
      "Ã³": 2731,
      "cy": 2732,
      "NAME": 2733,
      "Read": 2734,
      "Ġmark": 2735,
      "tal": 2736,
      "module": 2737,
      "Ġhead": 2738,
      "Ġposs": 2739,
      "template": 2740,
      "SH": 2741,
      "ĠObject": 2742,
      "light": 2743,
      "Listener": 2744,
      "rt": 2745,
      "apter": 2746,
      "bit": 2747,
      "expect": 2748,
      "IO": 2749,
      "ling": 2750,
      "ness": 2751,
      "attern": 2752,
      "Filter": 2753,
      "Ġown": 2754,
      "Attribute": 2755,
      "---": 2756,
      "ric": 2757,
      "Frame": 2758,
      "ways": 2759,
      "number": 2760,
      "ÃŃ": 2761,
      "google": 2762,
      "elper": 2763,
      "()->": 2764,
      "Ġold": 2765,
      "Ġ(Ċ": 2766,
      "Ġlow": 2767,
      "=>": 2768,
      "Ġprotected": 2769,
      "pper": 2770,
      "Ġvariable": 2771,
      "æĸ": 2772,
      "Ġpack": 2773,
      "({Ċ": 2774,
      "Ġâ": 2775,
      "store": 2776,
      "ee": 2777,
      "fs": 2778,
      "Ġlevel": 2779,
      "ilename": 2780,
      "izer": 2781,
      "Ġstatus": 2782,
      "aking": 2783,
      "Resource": 2784,
      "opt": 2785,
      "','": 2786,
      "parent": 2787,
      "IG": 2788,
      "req": 2789,
      "www": 2790,
      "Ġquery": 2791,
      "cast": 2792,
      "Ġcomponent": 2793,
      "Ġsim": 2794,
      "stream": 2795,
      "])": 2796,
      "Ġandroid": 2797,
      "uc": 2798,
      "%%": 2799,
      "è¯": 2800,
      "xy": 2801,
      "resp": 2802,
      "Task": 2803,
      "Ġargs": 2804,
      "IL": 2805,
      "99": 2806,
      "Ġdet": 2807,
      "ounter": 2808,
      "ctions": 2809,
      "Ġthose": 2810,
      "remove": 2811,
      "ically": 2812,
      "Ġtitle": 2813,
      "ffic": 2814,
      "IS": 2815,
      "OL": 2816,
      "ideo": 2817,
      "Ġ=Ċ": 2818,
      "Ġ||Ċ": 2819,
      "match": 2820,
      "header": 2821,
      "token": 2822,
      "bed": 2823,
      "ux": 2824,
      "element": 2825,
      "Ġservice": 2826,
      "css": 2827,
      "Ġcolumn": 2828,
      "Ġwithout": 2829,
      "Ġ$(": 2830,
      "Pr": 2831,
      "go": 2832,
      "dict": 2833,
      "Ġ>=": 2834,
      "ots": 2835,
      "Equals": 2836,
      "!Ċ": 2837,
      "height": 2838,
      "Ph": 2839,
      "Ġthrows": 2840,
      "(),Ċ": 2841,
      "Version": 2842,
      "Ġrequired": 2843,
      "URL": 2844,
      "build": 2845,
      "Ġcar": 2846,
      "Ob": 2847,
      "ding": 2848,
      "web": 2849,
      "è¿": 2850,
      "proto": 2851,
      "ves": 2852,
      "service": 2853,
      "Update": 2854,
      "Ġparent": 2855,
      "unit": 2856,
      "Temp": 2857,
      "äº": 2858,
      "Ġstill": 2859,
      "ĠBut": 2860,
      "Fl": 2861,
      "mathbb": 2862,
      "Ġtake": 2863,
      "Http": 2864,
      "cp": 2865,
      "Ġopt": 2866,
      "BU": 2867,
      "Collection": 2868,
      "Valid": 2869,
      "aterial": 2870,
      "ĠCont": 2871,
      "Ġlink": 2872,
      "Ġ{\\": 2873,
      "Ġexpected": 2874,
      "Answer": 2875,
      "Ġke": 2876,
      "Ġlength": 2877,
      "angle": 2878,
      "Format": 2879,
      "png": 2880,
      "Ġmade": 2881,
      "soft": 2882,
      "tributes": 2883,
      "QL": 2884,
      "close": 2885,
      "æķ": 2886,
      "Server": 2887,
      "Ġeffect": 2888,
      "ixed": 2889,
      "af": 2890,
      "OP": 2891,
      "asure": 2892,
      "ĠAdd": 2893,
      "Length": 2894,
      "display": 2895,
      "Ġpos": 2896,
      "mut": 2897,
      "position": 2898,
      "Ġ::": 2899,
      "ointer": 2900,
      "eps": 2901,
      "ĉĠĠĠ": 2902,
      "ĠFile": 2903,
      "../../": 2904,
      "ets": 2905,
      "Ġserver": 2906,
      "Ġ\"\"\"Ċ": 2907,
      "bool": 2908,
      ";čĊčĊ": 2909,
      "Mem": 2910,
      "Ġinte": 2911,
      "uid": 2912,
      "Ġ}čĊ": 2913,
      "]);Ċ": 2914,
      "Ġgra": 2915,
      "book": 2916,
      "Control": 2917,
      "amma": 2918,
      "pository": 2919,
      "etch": 2920,
      "ensor": 2921,
      "Ġhttp": 2922,
      "break": 2923,
      "Ñĭ": 2924,
      "++)": 2925,
      "íķ": 2926,
      "ibr": 2927,
      "Ġexec": 2928,
      "Ġheight": 2929,
      "UP": 2930,
      "instance": 2931,
      "control": 2932,
      "Ġdel": 2933,
      "asses": 2934,
      "andard": 2935,
      "ĠEn": 2936,
      "change": 2937,
      "21": 2938,
      "Ġexper": 2939,
      "Ġpartic": 2940,
      "Ġaccess": 2941,
      "Width": 2942,
      "ĠHow": 2943,
      ")(": 2944,
      "Ġlay": 2945,
      "Ġcome": 2946,
      "Ġload": 2947,
      "ln": 2948,
      "iginal": 2949,
      "ĉĉĉĉĉĉĉ": 2950,
      "UM": 2951,
      "],Ċ": 2952,
      "akes": 2953,
      "Ġpass": 2954,
      "çĶ¨": 2955,
      "Oper": 2956,
      "$.": 2957,
      "Ġport": 2958,
      "Ġappro": 2959,
      "times": 2960,
      "TP": 2961,
      "active": 2962,
      "mail": 2963,
      "ynam": 2964,
      "Ġword": 2965,
      "Ġ});ĊĊ": 2966,
      "anges": 2967,
      "Ġfore": 2968,
      "Ġexist": 2969,
      "()ĊĊ": 2970,
      "arge": 2971,
      "Ġconf": 2972,
      "buffer": 2973,
      "alth": 2974,
      "la": 2975,
      "child": 2976,
      "delete": 2977,
      "Output": 2978,
      "auth": 2979,
      "Gener": 2980,
      "`Ċ": 2981,
      "33": 2982,
      "ories": 2983,
      "tab": 2984,
      "Ġart": 2985,
      "imum": 2986,
      "printf": 2987,
      "ĠData": 2988,
      "KE": 2989,
      "ĠĠĠĠĠĠĠĠĠĠĠĠĠĠĠĠĠĠĠĠĠ": 2990,
      "ĠPar": 2991,
      "Ġyears": 2992,
      "Types": 2993,
      "Write": 2994,
      "PRO": 2995,
      "Ġmode": 2996,
      "Ġday": 2997,
      "Ġ/>Ċ": 2998,
      "ision": 2999,
      "Ġsuccess": 3000,
      "ited": 3001,
      "}^{": 3002,
      "Ġrow": 3003,
      "Ġproperty": 3004,
      "Ġwindow": 3005,
      "ĠTo": 3006,
      "argin": 3007,
      "admin": 3008,
      ":\"": 3009,
      "Function": 3010,
      "MS": 3011,
      "Ġdisplay": 3012,
      "bf": 3013,
      "27": 3014,
      "45": 3015,
      "component": 3016,
      "vironment": 3017,
      "Det": 3018,
      "Ġtoo": 3019,
      "Ġap": 3020,
      "gress": 3021,
      "Const": 3022,
      "quence": 3023,
      "202": 3024,
      "Ġsmall": 3025,
      "Pl": 3026,
      "\"\"": 3027,
      "ĠReturn": 3028,
      "spec": 3029,
      "android": 3030,
      "card": 3031,
      "TA": 3032,
      "oper": 3033,
      "Dec": 3034,
      "author": 3035,
      "typ": 3036,
      "])Ċ": 3037,
      "IC": 3038,
      "igma": 3039,
      "Menu": 3040,
      "graph": 3041,
      "Ġput": 3042,
      "Init": 3043,
      "ottom": 3044,
      "Ðº": 3045,
      "Ġos": 3046,
      "lin": 3047,
      "tag": 3048,
      "Arg": 3049,
      "Ġ<=": 3050,
      "Link": 3051,
      "column": 3052,
      "atures": 3053,
      "?ĊĊ": 3054,
      "Off": 3055,
      "imal": 3056,
      "Ġfilter": 3057,
      "arning": 3058,
      "Ġoption": 3059,
      "env": 3060,
      "pol": 3061,
      "thon": 3062,
      "mode": 3063,
      "lambda": 3064,
      "Ġanal": 3065,
      "Ġcalled": 3066,
      "Ġfin": 3067,
      "ĠArray": 3068,
      "Ġcontrol": 3069,
      "Ġwrite": 3070,
      "Ġincre": 3071,
      "Style": 3072,
      "logy": 3073,
      "stract": 3074,
      "Provider": 3075,
      "email": 3076,
      "Back": 3077,
      "28": 3078,
      "VE": 3079,
      "iness": 3080,
      "idden": 3081,
      "root": 3082,
      "æĪ": 3083,
      "sql": 3084,
      "Ġproblem": 3085,
      "Ġdate": 3086,
      "Ġbest": 3087,
      "Per": 3088,
      "ĠAt": 3089,
      "iod": 3090,
      "VAL": 3091,
      "Ġproduct": 3092,
      "Click": 3093,
      "~\\": 3094,
      "Ġ;": 3095,
      "Ġobj": 3096,
      "Ġworld": 3097,
      "ns": 3098,
      "26": 3099,
      "patch": 3100,
      "cod": 3101,
      "uss": 3102,
      "Address": 3103,
      "join": 3104,
      "uments": 3105,
      "Ġconsider": 3106,
      "Ġsearch": 3107,
      "Ġsum": 3108,
      "Ġcondition": 3109,
      "Sto": 3110,
      "Position": 3111,
      "Ã¤": 3112,
      "cor": 3113,
      "Del": 3114,
      "Ġauto": 3115,
      "ior": 3116,
      "urs": 3117,
      "location": 3118,
      "Ġver": 3119,
      "Ġmov": 3120,
      "ublish": 3121,
      "Ext": 3122,
      "NS": 3123,
      "Ġtask": 3124,
      "gen": 3125,
      "only": 3126,
      "project": 3127,
      "Ġ|Ċ": 3128,
      "Ġbody": 3129,
      "send": 3130,
      "Ġcustom": 3131,
      "Ġstore": 3132,
      "product": 3133,
      "åĬ": 3134,
      "era": 3135,
      "lit": 3136,
      "Ġframe": 3137,
      "ls": 3138,
      "ourse": 3139,
      "Ġjson": 3140,
      "ĠSo": 3141,
      "Ġformat": 3142,
      "side": 3143,
      "process": 3144,
      "ansp": 3145,
      "see": 3146,
      "apt": 3147,
      "Pre": 3148,
      "ead": 3149,
      "Ġinitial": 3150,
      "Change": 3151,
      "Ġ})Ċ": 3152,
      "river": 3153,
      "amily": 3154,
      "ĠÐ¿": 3155,
      "atform": 3156,
      "Ġmight": 3157,
      "device": 3158,
      "property": 3159,
      "amples": 3160,
      "Met": 3161,
      "empty": 3162,
      "Empty": 3163,
      "Ġfiles": 3164,
      "ĠBu": 3165,
      "Ġsince": 3166,
      "ination": 3167,
      "å¤": 3168,
      "irection": 3169,
      "inst": 3170,
      "offset": 3171,
      "stru": 3172,
      "Ġdisc": 3173,
      "à¸": 3174,
      "ĠID": 3175,
      "Ġsay": 3176,
      "imer": 3177,
      "ither": 3178,
      "ident": 3179,
      "Ġanother": 3180,
      "Entry": 3181,
      "exec": 3182,
      "Ġdone": 3183,
      "Ġpresent": 3184,
      "Ġder": 3185,
      "Header": 3186,
      "ism": 3187,
      "Ġperson": 3188,
      "Json": 3189,
      "creen": 3190,
      "Ġsomething": 3191,
      "PA": 3192,
      "istory": 3193,
      "}_{": 3194,
      "arm": 3195,
      "description": 3196,
      "ether": 3197,
      "ration": 3198,
      "Ġgr": 3199,
      "';ĊĊ": 3200,
      "ively": 3201,
      "Ġfunc": 3202,
      "HE": 3203,
      "mm": 3204,
      "Case": 3205,
      "Ġoverride": 3206,
      "Sup": 3207,
      "Ġalready": 3208,
      "anch": 3209,
      "Utils": 3210,
      "Ġconsole": 3211,
      "Ġavailable": 3212,
      "Ġdes": 3213,
      "ĠThere": 3214,
      "Ġtotal": 3215,
      "Ġ${": 3216,
      "ĠNo": 3217,
      "Ġter": 3218,
      "roups": 3219,
      "ĠĠĠĠĠĠĠĠĠĠĠĠĠĠĠĠĠĠĠĠĠĠĠĠĠĠĠĠĠĠĠĠĠĠĠĠĠĠĠ": 3220,
      "{čĊ": 3221,
      "Vis": 3222,
      "Ġquestion": 3223,
      "ho": 3224,
      "phi": 3225,
      "Ġcell": 3226,
      "Ġtre": 3227,
      "Num": 3228,
      "session": 3229,
      "aving": 3230,
      "ances": 3231,
      "Ġdefined": 3232,
      "Ġsure": 3233,
      "Child": 3234,
      "CL": 3235,
      "strong": 3236,
      "ront": 3237,
      "sol": 3238,
      "address": 3239,
      "Ġhttps": 3240,
      "Ġaround": 3241,
      "gment": 3242,
      "cription": 3243,
      "Module": 3244,
      "cat": 3245,
      "stack": 3246,
      "anguage": 3247,
      "inate": 3248,
      "ES": 3249,
      "ural": 3250,
      "You": 3251,
      "btn": 3252,
      "Ġaccount": 3253,
      "None": 3254,
      "Ġaddress": 3255,
      "Ġhome": 3256,
      "Ġ*)": 3257,
      "level": 3258,
      "det": 3259,
      "ĠclassName": 3260,
      "\"))": 3261,
      "ĉĉĊ": 3262,
      "Ġ...": 3263,
      "Ġsingle": 3264,
      "structor": 3265,
      "BO": 3266,
      "æĺ": 3267,
      "Max": 3268,
      "29": 3269,
      "Ġrest": 3270,
      "click": 3271,
      "Ġfree": 3272,
      "apping": 3273,
      "}čĊ": 3274,
      "bove": 3275,
      "});Ċ": 3276,
      "Ġdescri": 3277,
      "ND": 3278,
      "Part": 3279,
      "entry": 3280,
      "Ġ+Ċ": 3281,
      "Container": 3282,
      "Ġthree": 3283,
      "Ġclear": 3284,
      "byte": 3285,
      "################": 3286,
      "command": 3287,
      "-\\": 3288,
      "Ġop": 3289,
      "Ġprodu": 3290,
      "Ġresource": 3291,
      "gener": 3292,
      "addr": 3293,
      "ULT": 3294,
      "ai": 3295,
      "xml": 3296,
      "font": 3297,
      "ulation": 3298,
      "nav": 3299,
      "gl": 3300,
      "Ġpossible": 3301,
      "ÑĮ": 3302,
      "Connection": 3303,
      "ÂłÂł": 3304,
      "Ġbit": 3305,
      "Ġbus": 3306,
      "Draw": 3307,
      "utils": 3308,
      "password": 3309,
      "Spec": 3310,
      "Tag": 3311,
      "Char": 3312,
      ")}": 3313,
      "lip": 3314,
      "ids": 3315,
      "common": 3316,
      "Ġnp": 3317,
      "debug": 3318,
      "container": 3319,
      "CA": 3320,
      "ending": 3321,
      "Ġwithin": 3322,
      "Ġ*/ĊĊ": 3323,
      "Ġdevelop": 3324,
      "Ġalways": 3325,
      "way": 3326,
      "yles": 3327,
      "æķ°": 3328,
      "icrosoft": 3329,
      "Ġwrit": 3330,
      "inc": 3331,
      "Ġdiv": 3332,
      "ring": 3333,
      "Ġasync": 3334,
      "ained": 3335,
      "Ġdevice": 3336,
      "Ġreport": 3337,
      "Ġgame": 3338,
      "ZE": 3339,
      "double": 3340,
      "Ġspace": 3341,
      "asic": 3342,
      "rict": 3343,
      "ought": 3344,
      "Ġhapp": 3345,
      "bind": 3346,
      "''": 3347,
      "ĠÂ": 3348,
      "values": 3349,
      "Height": 3350,
      "\");ĊĊ": 3351,
      "uted": 3352,
      "Ġrecord": 3353,
      "ĠUser": 3354,
      "Ġdep": 3355,
      "Ġ}}": 3356,
      "task": 3357,
      "vector": 3358,
      "ĠLog": 3359,
      "Ġhandle": 3360,
      "beta": 3361,
      "Ġfull": 3362,
      "uture": 3363,
      "Target": 3364,
      "Ġident": 3365,
      "iff": 3366,
      "los": 3367,
      "fact": 3368,
      "annot": 3369,
      "Ġperform": 3370,
      "met": 3371,
      "Ġabove": 3372,
      "Ġparameters": 3373,
      "ators": 3374,
      "Ġå": 3375,
      "Auth": 3376,
      "ives": 3377,
      "direct": 3378,
      "igger": 3379,
      "}.": 3380,
      "Parameter": 3381,
      "ĠDE": 3382,
      "Ġask": 3383,
      "lem": 3384,
      "Ð²": 3385,
      "Ġprogram": 3386,
      "Ġpay": 3387,
      "Ġeas": 3388,
      "Ġbeh": 3389,
      "Pack": 3390,
      "reen": 3391,
      "hash": 3392,
      "Ġside": 3393,
      "ORT": 3394,
      "bers": 3395,
      "luster": 3396,
      "ÑģÑĤ": 3397,
      "SA": 3398,
      "stand": 3399,
      "itive": 3400,
      "Bar": 3401,
      "MM": 3402,
      "Ġanswer": 3403,
      "handle": 3404,
      "ëĭ": 3405,
      "window": 3406,
      "ram": 3407,
      "Ġmean": 3408,
      "ĠIs": 3409,
      "ĠLe": 3410,
      "Option": 3411,
      "Ġcert": 3412,
      "Rem": 3413,
      "Ġ_{": 3414,
      "ibility": 3415,
      "long": 3416,
      "GET": 3417,
      "Tags": 3418,
      "irtual": 3419,
      "ÐµÐ½": 3420,
      "ĠCreate": 3421,
      "Ġparameter": 3422,
      "ital": 3423,
      "\\\"": 3424,
      "$Ċ": 3425,
      "aces": 3426,
      "Us": 3427,
      "Ġspe": 3428,
      "FO": 3429,
      "Ġrepresent": 3430,
      "types": 3431,
      "save": 3432,
      "Ġaut": 3433,
      "Ġmove": 3434,
      "voke": 3435,
      "SET": 3436,
      "ience": 3437,
      "Ġequ": 3438,
      "ired": 3439,
      "final": 3440,
      "Ġbased": 3441,
      "OT": 3442,
      "imation": 3443,
      "Ptr": 3444,
      "ittle": 3445,
      "menu": 3446,
      "Ġlimit": 3447,
      "ãĥ¼": 3448,
      "ining": 3449,
      "ulti": 3450,
      "Cl": 3451,
      "04": 3452,
      "\"><": 3453,
      "fg": 3454,
      "Access": 3455,
      "STR": 3456,
      "();čĊ": 3457,
      "Ġvol": 3458,
      "udio": 3459,
      "ado": 3460,
      "Web": 3461,
      "document": 3462,
      "Dir": 3463,
      "Ġpop": 3464,
      "Order": 3465,
      "Location": 3466,
      "BA": 3467,
      "dest": 3468,
      "should": 3469,
      "raint": 3470,
      "è¡": 3471,
      "xx": 3472,
      "sa": 3473,
      "Ġgot": 3474,
      "Params": 3475,
      "arrow": 3476,
      "gor": 3477,
      "Level": 3478,
      "Ġiss": 3479,
      "35": 3480,
      "stamp": 3481,
      "ĠNot": 3482,
      "irm": 3483,
      "draw": 3484,
      "rapper": 3485,
      "^{\\": 3486,
      "valu": 3487,
      "Pol": 3488,
      "adding": 3489,
      "Ġparams": 3490,
      "ĠOr": 3491,
      "Ġbel": 3492,
      "cell": 3493,
      "02": 3494,
      "scope": 3495,
      "second": 3496,
      "Ġ'/": 3497,
      "ountry": 3498,
      "_\\": 3499,
      "rypt": 3500,
      "Ġinterface": 3501,
      "Ġmultip": 3502,
      "05": 3503,
      "cmd": 3504,
      "stion": 3505,
      "ĠTrue": 3506,
      "split": 3507,
      "dat": 3508,
      "è®": 3509,
      "aut": 3510,
      "ounds": 3511,
      "Ġ{@": 3512,
      "ilon": 3513,
      "ĠDate": 3514,
      "Ġbook": 3515,
      "Ġide": 3516,
      "ç»": 3517,
      "Ġbuffer": 3518,
      "____": 3519,
      "ird": 3520,
      "Ġpower": 3521,
      "apache": 3522,
      "Ġcopy": 3523,
      "False": 3524,
      "Settings": 3525,
      "Ġduring": 3526,
      "Ġocc": 3527,
      "....": 3528,
      "ached": 3529,
      "Ġgoing": 3530,
      "Ġrender": 3531,
      "ERROR": 3532,
      "ication": 3533,
      "romise": 3534,
      "Load": 3535,
      "files": 3536,
      "Ġfun": 3537,
      "ABLE": 3538,
      "aded": 3539,
      ".</": 3540,
      "GL": 3541,
      "ivers": 3542,
      "Assert": 3543,
      "```ĊĊ": 3544,
      "CP": 3545,
      "tmp": 3546,
      "Ġturn": 3547,
      "Fe": 3548,
      "ipp": 3549,
      "inary": 3550,
      "\"/": 3551,
      "ĠAPI": 3552,
      "Ġreally": 3553,
      "toString": 3554,
      "Ñĩ": 3555,
      "})Ċ": 3556,
      "Ġdistrib": 3557,
      "then": 3558,
      "API": 3559,
      "dist": 3560,
      "Ġtoken": 3561,
      "Ġapplication": 3562,
      "RL": 3563,
      "Ġlife": 3564,
      "ysis": 3565,
      "Current": 3566,
      "pose": 3567,
      "dr": 3568,
      "ias": 3569,
      "Ġclose": 3570,
      "Ġdescription": 3571,
      "Ġhost": 3572,
      "sv": 3573,
      "Ġinfo": 3574,
      "Ġnetwork": 3575,
      "Session": 3576,
      "Ġ);ĊĊ": 3577,
      "dated": 3578,
      "Ġoffset": 3579,
      "leted": 3580,
      "props": 3581,
      "36": 3582,
      "conf": 3583,
      "ately": 3584,
      "Api": 3585,
      "Hash": 3586,
      "edit": 3587,
      "ef": 3588,
      "Unit": 3589,
      "Interface": 3590,
      "ĠType": 3591,
      "'),Ċ": 3592,
      "Ġprob": 3593,
      "Ġgreat": 3594,
      "sec": 3595,
      "Ġdest": 3596,
      "Configuration": 3597,
      "total": 3598,
      "ilar": 3599,
      "cap": 3600,
      "replace": 3601,
      "Ġnever": 3602,
      "ĠRE": 3603,
      "Exec": 3604,
      "mathbf": 3605,
      "':Ċ": 3606,
      "Su": 3607,
      "chool": 3608,
      "Process": 3609,
      "Ġ};ĊĊ": 3610,
      "Cache": 3611,
      "Ġroot": 3612,
      "Return": 3613,
      "ii": 3614,
      "ATION": 3615,
      "Pos": 3616,
      "Ġcap": 3617,
      "Ġconnection": 3618,
      "arr": 3619,
      "31": 3620,
      "layout": 3621,
      "\".": 3622,
      "Ġmodule": 3623,
      "ĠShe": 3624,
      "ze": 3625,
      "TER": 3626,
      "ãģ®": 3627,
      "Min": 3628,
      "Ġ<!--": 3629,
      "(*": 3630,
      "gorith": 3631,
      "Ġpres": 3632,
      "Ġmet": 3633,
      "Range": 3634,
      "oh": 3635,
      "itude": 3636,
      "expected": 3637,
      "================================": 3638,
      "Ġ\"/": 3639,
      "items": 3640,
      "ĠThey": 3641,
      "Ġdb": 3642,
      "ITE": 3643,
      "Work": 3644,
      "Ġdelete": 3645,
      "custom": 3646,
      "Ð¼": 3647,
      "ĠBe": 3648,
      "Ġbegin": 3649,
      "free": 3650,
      "Ġswitch": 3651,
      "Ġlead": 3652,
      "90": 3653,
      "term": 3654,
      "_.": 3655,
      "Ġpur": 3656,
      "OK": 3657,
      "verse": 3658,
      "can": 3659,
      "icense": 3660,
      "tric": 3661,
      "Ġfew": 3662,
      "gine": 3663,
      "Windows": 3664,
      "ndle": 3665,
      "Ġ-->Ċ": 3666,
      "Ġaddition": 3667,
      "idx": 3668,
      "CTION": 3669,
      "ours": 3670,
      "}/": 3671,
      "Store": 3672,
      "delta": 3673,
      "));ĊĊ": 3674,
      "Ġcalcul": 3675,
      "Ġcommun": 3676,
      "Record": 3677,
      "AS": 3678,
      "RI": 3679,
      "Ġinterest": 3680,
      "Ġshort": 3681,
      "aper": 3682,
      "Thread": 3683,
      "Ġcreated": 3684,
      "istry": 3685,
      "Ġjob": 3686,
      "ocus": 3687,
      "Ġbutton": 3688,
      "cache": 3689,
      "Ġspecified": 3690,
      "utions": 3691,
      "VI": 3692,
      "sq": 3693,
      "Ġgl": 3694,
      "Ġbetter": 3695,
      "Tool": 3696,
      "els": 3697,
      "Ġ++": 3698,
      "iddle": 3699,
      "Ġfn": 3700,
      "Ġpy": 3701,
      "Ġgraph": 3702,
      "ĠUp": 3703,
      "olve": 3704,
      "Search": 3705,
      "resource": 3706,
      "make": 3707,
      "Ġcallback": 3708,
      "Ġentry": 3709,
      "AM": 3710,
      "Ġ\"\"\"": 3711,
      "ĠPh": 3712,
      "Ġless": 3713,
      "ĠException": 3714,
      "Ġ\"\\": 3715,
      "Device": 3716,
      "Ġ(\"": 3717,
      "Ġstop": 3718,
      "Ġmsg": 3719,
      "199": 3720,
      "ention": 3721,
      "Ã¼": 3722,
      "Ġ!==": 3723,
      "tool": 3724,
      "register": 3725,
      "ĠAssert": 3726,
      "Ġremove": 3727,
      "fn": 3728,
      "cle": 3729,
      "Open": 3730,
      "Integer": 3731,
      "anks": 3732,
      "Ġax": 3733,
      "Ġparse": 3734,
      "Ġ),Ċ": 3735,
      "nu": 3736,
      "wise": 3737,
      "tree": 3738,
      "member": 3739,
      "ouch": 3740,
      "ured": 3741,
      "land": 3742,
      "Ġlight": 3743,
      "Comm": 3744,
      "ites": 3745,
      "PC": 3746,
      "SIZE": 3747,
      "Question": 3748,
      "Ġ~": 3749,
      "SER": 3750,
      "Ġmodels": 3751,
      "ted": 3752,
      "34": 3753,
      "respond": 3754,
      "sigma": 3755,
      "iver": 3756,
      "500": 3757,
      "edia": 3758,
      "Title": 3759,
      "åŃ": 3760,
      "dim": 3761,
      "auto": 3762,
      "^{-": 3763,
      "38": 3764,
      "alf": 3765,
      "si": 3766,
      "Ġcorrect": 3767,
      "37": 3768,
      "INE": 3769,
      "\"));Ċ": 3770,
      "Ġtag": 3771,
      "Ġlittle": 3772,
      "lice": 3773,
      "ĠÐ²": 3774,
      "Helper": 3775,
      "cr": 3776,
      "Ġjav": 3777,
      "Ġear": 3778,
      "');ĊĊ": 3779,
      "Ġvari": 3780,
      "eded": 3781,
      "Ġæ": 3782,
      "ĠĠĠĠĠĠĠĠĠĠĠĠĠĠĠĠĠĠĠĠ": 3783,
      "roy": 3784,
      "inner": 3785,
      "ably": 3786,
      "\",\"": 3787,
      "Ġsizeof": 3788,
      "cluding": 3789,
      "Ġkeep": 3790,
      "AND": 3791,
      "Ġfont": 3792,
      "ters": 3793,
      "Tree": 3794,
      "ĠFalse": 3795,
      "Stack": 3796,
      "success": 3797,
      "ios": 3798,
      "insert": 3799,
      "Document": 3800,
      "Cell": 3801,
      "Vector": 3802,
      "ĠIm": 3803,
      "Ġdepend": 3804,
      "ug": 3805,
      "Ġtech": 3806,
      "Top": 3807,
      "Next": 3808,
      "!!": 3809,
      "requ": 3810,
      "plugin": 3811,
      "Ġlarge": 3812,
      "ĠAd": 3813,
      "Ġ(\\": 3814,
      "Ġreturns": 3815,
      "Ġsort": 3816,
      "ĠWhen": 3817,
      "oy": 3818,
      "lation": 3819,
      "AC": 3820,
      "returns": 3821,
      "used": 3822,
      "bold": 3823,
      "Ġcare": 3824,
      "Ġempty": 3825,
      "Enum": 3826,
      "Ġglobal": 3827,
      "ĠDis": 3828,
      "Ġequal": 3829,
      "----------------------------------------------------------------": 3830,
      "OS": 3831,
      "vest": 3832,
      "ium": 3833,
      "Callback": 3834,
      "Ġstream": 3835,
      "Ġdie": 3836,
      "Ġappe": 3837,
      "zure": 3838,
      "Post": 3839,
      "Ġobt": 3840,
      "ilt": 3841,
      "[$": 3842,
      "Offset": 3843,
      "pg": 3844,
      "?:": 3845,
      "Down": 3846,
      "rowser": 3847,
      "Ġemp": 3848,
      "'))": 3849,
      "One": 3850,
      "ensions": 3851,
      "orth": 3852,
      "omic": 3853,
      "Async": 3854,
      "Ġdoesn": 3855,
      "hat": 3856,
      "ĠQu": 3857,
      "cer": 3858,
      "Ġcontain": 3859,
      "ALL": 3860,
      "éĢ": 3861,
      "achine": 3862,
      "ĠReg": 3863,
      "vm": 3864,
      "ung": 3865,
      "channel": 3866,
      "Ġve": 3867,
      "settings": 3868,
      "copy": 3869,
      "Ġsession": 3870,
      "non": 3871,
      "Ġthings": 3872,
      "[:": 3873,
      "Ġden": 3874,
      "âĢĵ": 3875,
      "Ġunit": 3876,
      "`,": 3877,
      "unsigned": 3878,
      "ĠÑģ": 3879,
      "txt": 3880,
      "SU": 3881,
      "Values": 3882,
      "theta": 3883,
      "igin": 3884,
      "tt": 3885,
      "big": 3886,
      "category": 3887,
      "ĠDes": 3888,
      "Ġbtn": 3889,
      "Ġpoints": 3890,
      "ges": 3891,
      "equals": 3892,
      "SO": 3893,
      "Port": 3894,
      "pay": 3895,
      "08": 3896,
      "cm": 3897,
      "internal": 3898,
      "na": 3899,
      "Ġsend": 3900,
      "imate": 3901,
      ")->": 3902,
      "ById": 3903,
      "Ġcontinue": 3904,
      "miss": 3905,
      "FILE": 3906,
      "ĠMy": 3907,
      "umb": 3908,
      "(:": 3909,
      "meta": 3910,
      "Ġunsigned": 3911,
      "ds": 3912,
      "ĠTO": 3913,
      "render": 3914,
      "Ġenerg": 3915,
      "Template": 3916,
      ",čĊ": 3917,
      "Ġprevious": 3918,
      "ĠCheck": 3919,
      "NE": 3920,
      "Ġhard": 3921,
      "rep": 3922,
      "Ġweb": 3923,
      "ĠError": 3924,
      "ĠName": 3925,
      "Ġeither": 3926,
      "heet": 3927,
      "Ġsection": 3928,
      "ieve": 3929,
      "\"),": 3930,
      "Ġredu": 3931,
      "55": 3932,
      "sel": 3933,
      "sor": 3934,
      "lied": 3935,
      "åľ": 3936,
      "('#": 3937,
      "Ġgive": 3938,
      "Param": 3939,
      "Ġfields": 3940,
      "Core": 3941,
      "ĠEX": 3942,
      "Edit": 3943,
      "Ġcr": 3944,
      "Ġ\\\\Ċ": 3945,
      "vec": 3946,
      "foo": 3947,
      "Local": 3948,
      "Ġmeasure": 3949,
      "mission": 3950,
      "Items": 3951,
      "ied": 3952,
      "Ġchannel": 3953,
      "('/": 3954,
      "Ġcharacter": 3955,
      "+\\": 3956,
      "Ġdim": 3957,
      "Match": 3958,
      "mathrm": 3959,
      "gu": 3960,
      "\"),Ċ": 3961,
      "acy": 3962,
      "Sign": 3963,
      "~~": 3964,
      "oice": 3965,
      "07": 3966,
      "nap": 3967,
      "Ġinstall": 3968,
      "clear": 3969,
      "Ġfail": 3970,
      "ä¸Ģ": 3971,
      "system": 3972,
      "Ġlocation": 3973,
      "oment": 3974,
      "ggest": 3975,
      "Ġge": 3976,
      "Ġ],Ċ": 3977,
      "je": 3978,
      "widget": 3979,
      "\";ĊĊ": 3980,
      "ship": 3981,
      "actions": 3982,
      "react": 3983,
      "LL": 3984,
      "Script": 3985,
      "ibrary": 3986,
      "KEY": 3987,
      "Ġable": 3988,
      "utor": 3989,
      "Body": 3990,
      "Args": 3991,
      "}{\\": 3992,
      "raft": 3993,
      "ORD": 3994,
      "Ġ/**": 3995,
      "Application": 3996,
      "Ġoriginal": 3997,
      "Ġauth": 3998,
      "FT": 3999,
      "ving": 4000,
      "echo": 4001,
      "ĉĠ": 4002,
      "ĠBy": 4003,
      "Dialog": 4004,
      "Ġdatabase": 4005,
      "amera": 4006,
      "Ġmag": 4007,
      "iment": 4008,
      "ĠMap": 4009,
      "sort": 4010,
      "ĠĠĠĠĠĠĠĠĠĠĠĠĠĠĠĠĠĠ": 4011,
      "Obj": 4012,
      "aa": 4013,
      "ral": 4014,
      "nb": 4015,
      "Render": 4016,
      "Ġstep": 4017,
      "ggle": 4018,
      "Sec": 4019,
      "44": 4020,
      "Ġ}čĊčĊ": 4021,
      "Ġtemplate": 4022,
      "(!": 4023,
      "partial": 4024,
      "ĠText": 4025,
      "images": 4026,
      "Ġtypes": 4027,
      "Parser": 4028,
      "ynamic": 4029,
      "Ġsimp": 4030,
      "depend": 4031,
      "vas": 4032,
      "My": 4033,
      "Ġleast": 4034,
      "ries": 4035,
      "Ġmethods": 4036,
      "Ġê": 4037,
      "Ġwhether": 4038,
      "Ġassoci": 4039,
      "Rect": 4040,
      "bra": 4041,
      "Ġbelow": 4042,
      "Ġspecific": 4043,
      "åº": 4044,
      "ĠDo": 4045,
      "alloc": 4046,
      "ensure": 4047,
      "//Ċ": 4048,
      "ĠAll": 4049,
      "cel": 4050,
      "Ġgeneral": 4051,
      "Ġweek": 4052,
      "=$": 4053,
      "totype": 4054,
      "END": 4055,
      "ĠMath": 4056,
      "outer": 4057,
      "Description": 4058,
      "Icon": 4059,
      "JSON": 4060,
      "ãĢģ": 4061,
      "Ġmonth": 4062,
      "sd": 4063,
      "struction": 4064,
      "ged": 4065,
      "Ġproperties": 4066,
      "))ĊĊ": 4067,
      "Direct": 4068,
      "Ġrandom": 4069,
      "ĠHT": 4070,
      "ATA": 4071,
      "Ġmeans": 4072,
      "Ġwon": 4073,
      "ctionary": 4074,
      "Ġonce": 4075,
      "gamma": 4076,
      "igure": 4077,
      "Ã¶": 4078,
      "å¼": 4079,
      "ORM": 4080,
      "ceived": 4081,
      "ops": 4082,
      "Ġbro": 4083,
      "LOG": 4084,
      "That": 4085,
      "Ġseem": 4086,
      "inition": 4087,
      "lap": 4088,
      "*/Ċ": 4089,
      "Ġbyte": 4090,
      "Ġsimple": 4091,
      "POST": 4092,
      "Ġvector": 4093,
      "vi": 4094,
      "æĹ": 4095,
      "Channel": 4096,
      "tocol": 4097,
      "SD": 4098,
      "unch": 4099,
      "âĢľ": 4100,
      "pop": 4101,
      "access": 4102,
      ")ĊĊĊ": 4103,
      "ety": 4104,
      "ĠReturns": 4105,
      "ĠĠĠĠĠĠĠĠĠĠĠĠĠĠĠĠĠĠĠĠĠĠĠĠĠ": 4106,
      "]ĊĊ": 4107,
      "Ġwait": 4108,
      "Widget": 4109,
      "Ġfunctions": 4110,
      "Ġ(*": 4111,
      "Account": 4112,
      "Ġchildren": 4113,
      "Ġtimes": 4114,
      "oom": 4115,
      "connect": 4116,
      "Ġheader": 4117,
      "Ġdraw": 4118,
      "Ġitems": 4119,
      "Ġvert": 4120,
      "ĠSome": 4121,
      "Ġimportant": 4122,
      "scale": 4123,
      ",'": 4124,
      "Delete": 4125,
      "iler": 4126,
      "framework": 4127,
      "Activity": 4128,
      "rec": 4129,
      "æĺ¯": 4130,
      "'=>": 4131,
      "ĠTime": 4132,
      "orn": 4133,
      "Ġtool": 4134,
      "region": 4135,
      "ended": 4136,
      "rem": 4137,
      "ina": 4138,
      "known": 4139,
      "MAX": 4140,
      "Player": 4141,
      "ights": 4142,
      "Ġbackground": 4143,
      "Ġselected": 4144,
      "03": 4145,
      "Ġund": 4146,
      "Are": 4147,
      "ips": 4148,
      "Ġcannot": 4149,
      "ison": 4150,
      "anagement": 4151,
      "Ġdiff": 4152,
      "Properties": 4153,
      "Ġfri": 4154,
      "*)": 4155,
      "Ġmedi": 4156,
      "Tab": 4157,
      "curity": 4158,
      "CC": 4159,
      "Ġsolution": 4160,
      "Handle": 4161,
      "Ġnormal": 4162,
      "Project": 4163,
      "75": 4164,
      "__(": 4165,
      "Ġunderstand": 4166,
      "Ġrole": 4167,
      "Ġkind": 4168,
      ".'": 4169,
      "Ġworking": 4170,
      "Ab": 4171,
      "ĠMe": 4172,
      "ĠSp": 4173,
      "Reader": 4174,
      "Ġcent": 4175,
      "ently": 4176,
      "Ġrespect": 4177,
      "Ġnet": 4178,
      "global": 4179,
      "mock": 4180,
      "256": 4181,
      "ftware": 4182,
      "^\\": 4183,
      "tilde": 4184,
      "range": 4185,
      "acity": 4186,
      "48": 4187,
      "Ġrem": 4188,
      "conn": 4189,
      "alle": 4190,
      "Inst": 4191,
      "ĠGener": 4192,
      "/*Ċ": 4193,
      "acc": 4194,
      "Ġthought": 4195,
      "Ġinstead": 4196,
      "++;Ċ": 4197,
      "Ġuntil": 4198,
      "Ġindic": 4199,
      "idual": 4200,
      "ressed": 4201,
      "Impl": 4202,
      "Ġwhy": 4203,
      "example": 4204,
      "First": 4205,
      "Ġregister": 4206,
      "Ġelect": 4207,
      ").ĊĊ": 4208,
      "uri": 4209,
      "Ġagainst": 4210,
      "Ġenergy": 4211,
      "ao": 4212,
      "Ġpas": 4213,
      "plit": 4214,
      "println": 4215,
      "Ġhash": 4216,
      "Ġreason": 4217,
      "Ġelements": 4218,
      "termin": 4219,
      "Ġwater": 4220,
      "login": 4221,
      "igation": 4222,
      "06": 4223,
      "Changed": 4224,
      "Ġapply": 4225,
      "aring": 4226,
      "Custom": 4227,
      "ĠSub": 4228,
      "Ġarea": 4229,
      "holder": 4230,
      "ij": 4231,
      "Cal": 4232,
      "Ġsite": 4233,
      "Ġ'./": 4234,
      "Ġparticular": 4235,
      "istic": 4236,
      "Graph": 4237,
      "ĠComm": 4238,
      "ĠLo": 4239,
      "gorithm": 4240,
      "queue": 4241,
      "Ġraise": 4242,
      "XX": 4243,
      "ĠJSON": 4244,
      "Ġbecome": 4245,
      "Storage": 4246,
      "ĠThen": 4247,
      "IM": 4248,
      "Ġsave": 4249,
      "Ġev": 4250,
      "urren": 4251,
      "Ġ'<": 4252,
      "Ġcorrespond": 4253,
      "Grid": 4254,
      "Ġdidn": 4255,
      "alt": 4256,
      "ignment": 4257,
      "keys": 4258,
      "ĠPl": 4259,
      "ATH": 4260,
      "meric": 4261,
      "Ġqual": 4262,
      "Ġ..": 4263,
      "Left": 4264,
      "39": 4265,
      "Ġsat": 4266,
      "urther": 4267,
      "ãģĻ": 4268,
      "Ð¾Ð²": 4269,
      "models": 4270,
      "FAULT": 4271,
      "Ġinternal": 4272,
      "Ã§": 4273,
      "ERT": 4274,
      "Ð´": 4275,
      "ignore": 4276,
      "Panel": 4277,
      "account": 4278,
      "ĠForm": 4279,
      "%Ċ": 4280,
      "Ġexception": 4281,
      "ĠWhat": 4282,
      "Ġadded": 4283,
      "Repository": 4284,
      "Bind": 4285,
      "Ġclo": 4286,
      "support": 4287,
      "ands": 4288,
      "Ġprovided": 4289,
      "PRE": 4290,
      "Ġincluding": 4291,
      "Serial": 4292,
      "OUT": 4293,
      "Enabled": 4294,
      "Ġincrease": 4295,
      "Ġamount": 4296,
      "thread": 4297,
      "Ġdesign": 4298,
      "Ġhum": 4299,
      "docs": 4300,
      "rs": 4301,
      "Ġundefined": 4302,
      "Ġconfiguration": 4303,
      "Ġ<?": 4304,
      "Ġmatrix": 4305,
      "Ġ>>": 4306,
      "Last": 4307,
      "Cre": 4308,
      "ecess": 4309,
      "Ġio": 4310,
      "symbol": 4311,
      "åĽ": 4312,
      "dep": 4313,
      "rho": 4314,
      "ernel": 4315,
      "Co": 4316,
      "}ĊĊĊ": 4317,
      "Ġorgan": 4318,
      "Mock": 4319,
      "oose": 4320,
      "oney": 4321,
      "Ġiter": 4322,
      "Ste": 4323,
      "Ġthread": 4324,
      "Ġ?>": 4325,
      "leep": 4326,
      "Ġfeel": 4327,
      "ires": 4328,
      "Ġcost": 4329,
      "ging": 4330,
      "ube": 4331,
      "Ġscript": 4332,
      "Ġterm": 4333,
      "Ġcirc": 4334,
      "desc": 4335,
      "anner": 4336,
      "Ġjavax": 4337,
      "filename": 4338,
      "Ġmemory": 4339,
      "\\\\Ċ": 4340,
      "Ġreference": 4341,
      "licit": 4342,
      "otion": 4343,
      "ceive": 4344,
      "Ġstandard": 4345,
      "tau": 4346,
      "Ġvirtual": 4347,
      "ĠTe": 4348,
      "Ġexpl": 4349,
      "etime": 4350,
      "IR": 4351,
      "Ġdr": 4352,
      "âĶ": 4353,
      "ograph": 4354,
      "uck": 4355,
      "Ġhold": 4356,
      "ĠAct": 4357,
      "Bl": 4358,
      "ĠThat": 4359,
      "Host": 4360,
      "pk": 4361,
      "Ġfar": 4362,
      ">();Ċ": 4363,
      "Ġ]Ċ": 4364,
      "pped": 4365,
      "(){Ċ": 4366,
      "oup": 4367,
      "/**": 4368,
      "AGE": 4369,
      "(-": 4370,
      "ocial": 4371,
      "'],Ċ": 4372,
      "Ġsent": 4373,
      "finition": 4374,
      "Ġquant": 4375,
      "DIR": 4376,
      "}čĊčĊ": 4377,
      "mar": 4378,
      "Ġsever": 4379,
      "Float": 4380,
      "255": 4381,
      "Ġenough": 4382,
      "most": 4383,
      "Ġexcept": 4384,
      "|\\": 4385,
      "Ġpot": 4386,
      "game": 4387,
      "Ġcourse": 4388,
      "Bytes": 4389,
      "fields": 4390,
      "Ġbound": 4391,
      "PAR": 4392,
      "Font": 4393,
      "ished": 4394,
      "Vert": 4395,
      "Ġ('": 4396,
      "09": 4397,
      "Ġstructure": 4398,
      "86": 4399,
      "ority": 4400,
      "Ġauthor": 4401,
      "Logger": 4402,
      "Ġalong": 4403,
      "rest": 4404,
      "ĠPy": 4405,
      "So": 4406,
      ";->": 4407,
      "player": 4408,
      "Ġcover": 4409,
      "fd": 4410,
      "Delta": 4411,
      "]{": 4412,
      "Ġsimilar": 4413,
      "ssages": 4414,
      "just": 4415,
      "ĠCl": 4416,
      "figure": 4417,
      "gt": 4418,
      "Ġaway": 4419,
      "300": 4420,
      "uff": 4421,
      "Ġcause": 4422,
      "ĠÐ½": 4423,
      "Me": 4424,
      "ĠRun": 4425,
      "Ġ{{": 4426,
      "aly": 4427,
      "Ġ\",": 4428,
      "Display": 4429,
      "Ġcontains": 4430,
      "<<": 4431,
      "Ġ[\"": 4432,
      "flags": 4433,
      "Ġconn": 4434,
      "sim": 4435,
      "());ĊĊ": 4436,
      "CS": 4437,
      "NULL": 4438,
      "fit": 4439,
      "Ġnamespace": 4440,
      "'],": 4441,
      "mask": 4442,
      "interface": 4443,
      "Mon": 4444,
      "Ġchanges": 4445,
      "Msg": 4446,
      "des": 4447,
      "Ġfailed": 4448,
      "Ġbox": 4449,
      "selected": 4450,
      "ansport": 4451,
      "Ġ.Ċ": 4452,
      "Ġreq": 4453,
      "Ġemail": 4454,
      "Ġerrors": 4455,
      "lt": 4456,
      "Schema": 4457,
      "thers": 4458,
      "Product": 4459,
      "ĠEvent": 4460,
      "ario": 4461,
      "Ġcollection": 4462,
      "ONE": 4463,
      "Ġroom": 4464,
      "overn": 4465,
      "PER": 4466,
      "Op": 4467,
      "elf": 4468,
      ".__": 4469,
      "prop": 4470,
      "Di": 4471,
      "Ġevents": 4472,
      "ãĤĴ": 4473,
      "'ĊĊ": 4474,
      "uple": 4475,
      "enum": 4476,
      "æī": 4477,
      "shape": 4478,
      "////////////////////////////////": 4479,
      "Each": 4480,
      "mbers": 4481,
      "gn": 4482,
      "shot": 4483,
      "Ġpassword": 4484,
      "ogn": 4485,
      "ially": 4486,
      "username": 4487,
      "Ġstudy": 4488,
      "ament": 4489,
      "=\"{{": 4490,
      "Ġcenter": 4491,
      "Do": 4492,
      "ival": 4493,
      "ĠClass": 4494,
      "required": 4495,
      "ocket": 4496,
      "fully": 4497,
      "Ġplayer": 4498,
      "å°": 4499,
      "Ġbytes": 4500,
      "BUG": 4501,
      "ĠĠĠĠĠĠĠĠĠĠĠĠĠĠĠĠĠĠĠĠĠĠĠĠĠĠĠĠĠĠĠĠĠĠĠĠĠĠĠĠĠĠĠ": 4502,
      "():Ċ": 4503,
      "application": 4504,
      "Ġregion": 4505,
      "Ġlater": 4506,
      "Ġtrack": 4507,
      "Byte": 4508,
      "iant": 4509,
      "SQL": 4510,
      "Ġbusiness": 4511,
      "Ġfour": 4512,
      "reference": 4513,
      "Ġtell": 4514,
      "ĠUI": 4515,
      ")]Ċ": 4516,
      "ROM": 4517,
      "exception": 4518,
      "atal": 4519,
      "fill": 4520,
      ":(": 4521,
      "cb": 4522,
      "Ġworks": 4523,
      "Ġbar": 4524,
      "Ġthing": 4525,
      "88": 4526,
      "Long": 4527,
      "Ġtree": 4528,
      "Ġmut": 4529,
      "Operation": 4530,
      "Active": 4531,
      "Ġsettings": 4532,
      "EQ": 4533,
      "Ġrunning": 4534,
      "leq": 4535,
      "ä¸ª": 4536,
      "Debug": 4537,
      "Ġdays": 4538,
      "URE": 4539,
      "ĠKey": 4540,
      "bytes": 4541,
      "Ġinf": 4542,
      "gether": 4543,
      "ĠLO": 4544,
      "Found": 4545,
      "Ġ{}": 4546,
      "Ġoperation": 4547,
      "Rule": 4548,
      "ĠCO": 4549,
      "ragment": 4550,
      "aved": 4551,
      "ĠAb": 4552,
      "Database": 4553,
      "Ġcommon": 4554,
      "sqrt": 4555,
      "Root": 4556,
      "Ġcard": 4557,
      "Names": 4558,
      "ĠčĊ": 4559,
      "Ġopp": 4560,
      "Ġcontainer": 4561,
      "LECT": 4562,
      "Right": 4563,
      "Ġsupp": 4564,
      "Expression": 4565,
      "Ġgrow": 4566,
      "ba": 4567,
      "Ġforeach": 4568,
      "full": 4569,
      "PT": 4570,
      "Iter": 4571,
      "verage": 4572,
      "Ġactive": 4573,
      "Ġapproach": 4574,
      "erc": 4575,
      "dom": 4576,
      "prototype": 4577,
      "ĠÐ¸": 4578,
      "ersist": 4579,
      "fficient": 4580,
      "Ġdue": 4581,
      "ä¸Ń": 4582,
      "MD": 4583,
      "Ġenc": 4584,
      "Ġrate": 4585,
      "Ġfil": 4586,
      ";;": 4587,
      "ĠValue": 4588,
      "ipel": 4589,
      "lev": 4590,
      "ording": 4591,
      "Ġmultiple": 4592,
      "'.": 4593,
      "rong": 4594,
      "gan": 4595,
      "Invalid": 4596,
      "ĠTra": 4597,
      "Ġactual": 4598,
      "66": 4599,
      "Ġadv": 4600,
      "ĠIO": 4601,
      "Ġclick": 4602,
      "Ġtmp": 4603,
      "Ġlines": 4604,
      "Ġperiod": 4605,
      "git": 4606,
      "AA": 4607,
      "ĠCan": 4608,
      "(\"#": 4609,
      "zz": 4610,
      "rate": 4611,
      "ĠView": 4612,
      "Ġscale": 4613,
      "ancel": 4614,
      "Ġborder": 4615,
      "np": 4616,
      "Route": 4617,
      "UID": 4618,
      "ĠHowever": 4619,
      "GS": 4620,
      "Ġey": 4621,
      "ĠĠĠĠĠĠĠĠĠĠĠĠĠĠĠĠĠĠĠĠĠĠĠĠ": 4622,
      "Ġrelation": 4623,
      ".*": 4624,
      "Ġterms": 4625,
      "PS": 4626,
      "wner": 4627,
      "drop": 4628,
      "Ġcomput": 4629,
      "boot": 4630,
      "Ġmass": 4631,
      "Ġfamily": 4632,
      "isk": 4633,
      "ĠWith": 4634,
      "omega": 4635,
      "quired": 4636,
      "Ġ^{": 4637,
      "clus": 4638,
      "rip": 4639,
      "ĠST": 4640,
      "grid": 4641,
      "ĠCON": 4642,
      "Ġ\"$": 4643,
      "Ġsepar": 4644,
      "Ġhaving": 4645,
      "car": 4646,
      "STAT": 4647,
      "ones": 4648,
      "Ġenum": 4649,
      "Ġspecial": 4650,
      "ĠOption": 4651,
      "Ġplan": 4652,
      "ĠAmeric": 4653,
      "PH": 4654,
      "WR": 4655,
      "Ġbig": 4656,
      "users": 4657,
      "inline": 4658,
      "rodu": 4659,
      "Ġtw": 4660,
      "record": 4661,
      "hs": 4662,
      "Ġmoment": 4663,
      "Ġthough": 4664,
      "lies": 4665,
      "lim": 4666,
      "Ġgen": 4667,
      "Ġenvironment": 4668,
      "ynt": 4669,
      "à¤": 4670,
      "Ġsuggest": 4671,
      "Ġdirectory": 4672,
      "aken": 4673,
      "media": 4674,
      "Ġpattern": 4675,
      "('.": 4676,
      "job": 4677,
      "Ġphys": 4678,
      "fty": 4679,
      "}}Ċ": 4680,
      "')ĊĊ": 4681,
      "atio": 4682,
      "Reference": 4683,
      "Ġneeded": 4684,
      "TEST": 4685,
      "ï¼ļ": 4686,
      "ascript": 4687,
      "Ġcy": 4688,
      "Ð°Ð½": 4689,
      "ÐµÑĢ": 4690,
      "ĠInst": 4691,
      "Ġinvest": 4692,
      "Parameters": 4693,
      "DF": 4694,
      "Ġ;Ċ": 4695,
      "ĠEd": 4696,
      "home": 4697,
      "Ġknown": 4698,
      "une": 4699,
      "++)Ċ": 4700,
      "PORT": 4701,
      "lab": 4702,
      "()).": 4703,
      "Ġneeds": 4704,
      "Ġsample": 4705,
      "ĠURL": 4706,
      "Ġctx": 4707,
      "Ġnear": 4708,
      "Te": 4709,
      "Props": 4710,
      "400": 4711,
      "Forms": 4712,
      ")).": 4713,
      "Ġlot": 4714,
      "]]": 4715,
      "Game": 4716,
      "Writer": 4717,
      "step": 4718,
      "chan": 4719,
      "Ġconvert": 4720,
      "domain": 4721,
      "gre": 4722,
      "obile": 4723,
      "modal": 4724,
      "Ġpair": 4725,
      "ensity": 4726,
      "ores": 4727,
      "connection": 4728,
      "------------": 4729,
      "Ġflow": 4730,
      "65": 4731,
      "Password": 4732,
      "icker": 4733,
      "points": 4734,
      "ìĹ": 4735,
      "Ġcertain": 4736,
      "Ġlik": 4737,
      "Ġnecess": 4738,
      "Ġaccept": 4739,
      "æł": 4740,
      "Adapter": 4741,
      "Ġwom": 4742,
      "legate": 4743,
      "Ġfeature": 4744,
      "sys": 4745,
      "Ġoperator": 4746,
      "Ġyet": 4747,
      "Ã£": 4748,
      "47": 4749,
      "ev": 4750,
      "Show": 4751,
      "stop": 4752,
      "Build": 4753,
      "oriz": 4754,
      "infty": 4755,
      "ĠCal": 4756,
      "ike": 4757,
      "Ġau": 4758,
      "Ġlower": 4759,
      "Ġobjects": 4760,
      "cdot": 4761,
      "Ġlaw": 4762,
      "Metadata": 4763,
      "Ġvariables": 4764,
      "ITY": 4765,
      "ello": 4766,
      "ĠState": 4767,
      "Pri": 4768,
      "components": 4769,
      "ĠNS": 4770,
      "Ġintegr": 4771,
      "Ġcache": 4772,
      "{\"": 4773,
      "Ð¿": 4774,
      "encies": 4775,
      "otal": 4776,
      "DA": 4777,
      "Head": 4778,
      "outh": 4779,
      "Ġrelease": 4780,
      "Rel": 4781,
      "Ġexact": 4782,
      "Card": 4783,
      "():": 4784,
      "SSERT": 4785,
      "Def": 4786,
      "Queue": 4787,
      "Job": 4788,
      "Ġok": 4789,
      "Parent": 4790,
      "ĠBase": 4791,
      "SION": 4792,
      "quad": 4793,
      "Ġmargin": 4794,
      "$-": 4795,
      "olution": 4796,
      "spring": 4797,
      "*}Ċ": 4798,
      "Ã³n": 4799,
      "123": 4800,
      "help": 4801,
      "ĠTrans": 4802,
      "usic": 4803,
      "rist": 4804,
      "formed": 4805,
      "Close": 4806,
      "cret": 4807,
      "Ġmock": 4808,
      "ç½": 4809,
      "ixel": 4810,
      "Ġdetails": 4811,
      "Ġconnect": 4812,
      "Ġface": 4813,
      "errors": 4814,
      "ilities": 4815,
      "rupt": 4816,
      "Ġ[]Ċ": 4817,
      "scribe": 4818,
      "IF": 4819,
      "year": 4820,
      "Argument": 4821,
      "Ġimpro": 4822,
      "Print": 4823,
      "REG": 4824,
      "Definition": 4825,
      "ĠSc": 4826,
      "Ġhealth": 4827,
      "---Ċ": 4828,
      "Red": 4829,
      "Ġdat": 4830,
      "Ø§": 4831,
      "Ġarguments": 4832,
      "ka": 4833,
      "yntax": 4834,
      "logger": 4835,
      "lier": 4836,
      "Ġlooking": 4837,
      "Ġí": 4838,
      "Ġteam": 4839,
      "')->": 4840,
      "room": 4841,
      "å¯": 4842,
      "CHE": 4843,
      "agn": 4844,
      "PL": 4845,
      "ĠReact": 4846,
      "ĠÎ": 4847,
      "DS": 4848,
      "Descript": 4849,
      "Ġreturned": 4850,
      "hidden": 4851,
      "What": 4852,
      "aps": 4853,
      "aff": 4854,
      "dt": 4855,
      "styles": 4856,
      "ĠInd": 4857,
      "Ġvia": 4858,
      "ĠâĢĶ": 4859,
      "Ġconstant": 4860,
      "Ã¨": 4861,
      "Ġlogger": 4862,
      "Ġusers": 4863,
      "ctor": 4864,
      "callback": 4865,
      "ros": 4866,
      "ĠĠĠĠĠĠĠĠĠĠĠĠĠĠĠĠĠĠĠĠĠĠ": 4867,
      "Ġant": 4868,
      "åĩ": 4869,
      "_,": 4870,
      "ailed": 4871,
      "ĠMay": 4872,
      "impl": 4873,
      "There": 4874,
      "Ġoffer": 4875,
      "jav": 4876,
      "ĠFe": 4877,
      "Ġremo": 4878,
      "XT": 4879,
      "pag": 4880,
      "tries": 4881,
      "42": 4882,
      "When": 4883,
      "Selected": 4884,
      "ĠGL": 4885,
      "ĠCre": 4886,
      "Ġ).": 4887,
      "encode": 4888,
      "SK": 4889,
      "ĠOR": 4890,
      "\"))Ċ": 4891,
      "ometry": 4892,
      "ada": 4893,
      "Ġedit": 4894,
      "ĠInteger": 4895,
      "Ġtrying": 4896,
      "hr": 4897,
      "prefix": 4898,
      "issing": 4899,
      "Ġclean": 4900,
      "ÐµÑĤ": 4901,
      "pu": 4902,
      "Ġstrong": 4903,
      "Can": 4904,
      "coding": 4905,
      "Ġactually": 4906,
      "Ġ'@": 4907,
      "ëĭ¤": 4908,
      "wide": 4909,
      "Variable": 4910,
      "Ġindiv": 4911,
      "Ġsubject": 4912,
      "Ind": 4913,
      "Ġcoord": 4914,
      "']['": 4915,
      "Ġlanguage": 4916,
      "Ġnothing": 4917,
      "ports": 4918,
      "Ġmen": 4919,
      "boolean": 4920,
      "æľī": 4921,
      "junit": 4922,
      "Ġshown": 4923,
      "eting": 4924,
      "FIG": 4925,
      "CR": 4926,
      "Ġzero": 4927,
      "profile": 4928,
      "'),": 4929,
      "Non": 4930,
      "Ġcompany": 4931,
      "cert": 4932,
      "Ġloop": 4933,
      "ĠĠĠĠĠĠĠĠĠĠĠĠĊ": 4934,
      "strap": 4935,
      "urity": 4936,
      "ipeline": 4937,
      "Ġpackage": 4938,
      "Sw": 4939,
      "ĠThese": 4940,
      "Ġargument": 4941,
      "izes": 4942,
      "Ġissue": 4943,
      "mes": 4944,
      "(\"/": 4945,
      "ãĥ³": 4946,
      "éĩ": 4947,
      "Pay": 4948,
      "ategy": 4949,
      "Timeout": 4950,
      "CD": 4951,
      "95": 4952,
      "Ġcame": 4953,
      "bt": 4954,
      "Ġneg": 4955,
      "CESS": 4956,
      "MB": 4957,
      "lines": 4958,
      "Ġcomplet": 4959,
      "67": 4960,
      "foot": 4961,
      "åį": 4962,
      "ART": 4963,
      "cloud": 4964,
      "Xml": 4965,
      "Ñħ": 4966,
      "ĠMar": 4967,
      "ĠInter": 4968,
      "ĠÐº": 4969,
      "ĠĊĊ": 4970,
      "Ass": 4971,
      "atist": 4972,
      "HO": 4973,
      "åľ¨": 4974,
      "|Ċ": 4975,
      "rain": 4976,
      "iversity": 4977,
      "\")ĊĊ": 4978,
      "CI": 4979,
      "Ġmaterial": 4980,
      "ula": 4981,
      "Ġjoin": 4982,
      "ĠÐ¾": 4983,
      "?.": 4984,
      "=\"#": 4985,
      "normal": 4986,
      "random": 4987,
      "Ins": 4988,
      "xi": 4989,
      "Ã£o": 4990,
      "}(\\": 4991,
      "Ġtogether": 4992,
      "ĠVal": 4993,
      "endar": 4994,
      "cover": 4995,
      "allow": 4996,
      "Ġtransform": 4997,
      "loor": 4998,
      "Ġattribute": 4999,
      "ĠEng": 5000,
      "vision": 5001,
      "ĠPr": 5002,
      "Ġservices": 5003,
      "Fields": 5004,
      "{}": 5005,
      "exists": 5006,
      "ifdef": 5007,
      "Ġinside": 5008,
      "Ġlove": 5009,
      "Ġexists": 5010,
      "Mark": 5011,
      "Main": 5012,
      "contains": 5013,
      "ĠLicense": 5014,
      "FLA": 5015,
      "Ġpract": 5016,
      ".âĢĿ": 5017,
      "Ġdoing": 5018,
      "Ġapi": 5019,
      "ĠWeb": 5020,
      "Ġschool": 5021,
      "Ġpat": 5022,
      "Ġhtml": 5023,
      "ipe": 5024,
      "ä¿": 5025,
      ")/": 5026,
      "Lock": 5027,
      "How": 5028,
      "å®ļ": 5029,
      "urch": 5030,
      "Ġscreen": 5031,
      "}.Ċ": 5032,
      "avior": 5033,
      "UB": 5034,
      "master": 5035,
      "Ġentity": 5036,
      "Ġtalk": 5037,
      "çĽ": 5038,
      "æį": 5039,
      "Ġdig": 5040,
      "Ġ?>Ċ": 5041,
      "ĠMod": 5042,
      "$(": 5043,
      "Ġer": 5044,
      "incip": 5045,
      "=(": 5046,
      "Ident": 5047,
      "Ġalign": 5048,
      "cing": 5049,
      "Ġleg": 5050,
      "ised": 5051,
      "128": 5052,
      "Ġstack": 5053,
      "ookie": 5054,
      "aced": 5055,
      "sing": 5056,
      "Plugin": 5057,
      "Ġseveral": 5058,
      "served": 5059,
      "assertEquals": 5060,
      "mount": 5061,
      "Meta": 5062,
      "icate": 5063,
      "']Ċ": 5064,
      "names": 5065,
      "åĨ": 5066,
      "Ġtab": 5067,
      "while": 5068,
      "Ġexpression": 5069,
      "wait": 5070,
      "Ġutil": 5071,
      "ĠGe": 5072,
      "annotation": 5073,
      "orem": 5074,
      "Ġautom": 5075,
      "area": 5076,
      "Ġcontinu": 5077,
      "mi": 5078,
      "Ġpast": 5079,
      "attribute": 5080,
      "switch": 5081,
      "Bundle": 5082,
      "Ġoften": 5083,
      "Network": 5084,
      "ALSE": 5085,
      "ĠWindow": 5086,
      "ĠSee": 5087,
      "reshold": 5088,
      "Ġ''": 5089,
      "PECT": 5090,
      "adow": 5091,
      "Ġ\"Ċ": 5092,
      "Ġ\"<": 5093,
      "entication": 5094,
      "Ġnames": 5095,
      "Ġlayer": 5096,
      "(@": 5097,
      "Category": 5098,
      "Ġ&&Ċ": 5099,
      "Ġunique": 5100,
      "Ġmaking": 5101,
      "gging": 5102,
      "like": 5103,
      "ĠLoc": 5104,
      "ĠTask": 5105,
      "Ġcomplex": 5106,
      "eric": 5107,
      "Net": 5108,
      "ortun": 5109,
      "Ġdefine": 5110,
      "illi": 5111,
      "PATH": 5112,
      "ĠOut": 5113,
      "manager": 5114,
      ")))Ċ": 5115,
      "Ġseen": 5116,
      "ĠEnd": 5117,
      "Ġwords": 5118,
      "limit": 5119,
      "Ġhappen": 5120,
      "llum": 5121,
      "chedule": 5122,
      "ä¹": 5123,
      "ĠRead": 5124,
      "Ġblack": 5125,
      "%%%%": 5126,
      "Pool": 5127,
      "chron": 5128,
      "Ġdir": 5129,
      "Ġtyp": 5130,
      "->_": 5131,
      "OF": 5132,
      "ä»¶": 5133,
      "Policy": 5134,
      "Ġfuture": 5135,
      ".čĊ": 5136,
      "semb": 5137,
      "ĠÃ©": 5138,
      "Ġcomment": 5139,
      "ĠRem": 5140,
      "Ġles": 5141,
      "Ġacross": 5142,
      "Ġlib": 5143,
      "Ġanalysis": 5144,
      "Rep": 5145,
      "Ġnote": 5146,
      "uro": 5147,
      "Layer": 5148,
      "Ġcomplete": 5149,
      "route": 5150,
      "dius": 5151,
      "fmt": 5152,
      "Ġdecl": 5153,
      "ä¸į": 5154,
      ")]": 5155,
      "49": 5156,
      "fail": 5157,
      "DATA": 5158,
      "none": 5159,
      "uk": 5160,
      "Ġprof": 5161,
      "ĠTODO": 5162,
      "Bit": 5163,
      "posed": 5164,
      "ĠConfig": 5165,
      "Ġenter": 5166,
      "ari": 5167,
      "\":Ċ": 5168,
      "Ġnav": 5169,
      "idence": 5170,
      "Ġconditions": 5171,
      "handler": 5172,
      "Ġinvoke": 5173,
      "Ġremain": 5174,
      "sf": 5175,
      "AX": 5176,
      "tk": 5177,
      "Ð°ÑĤ": 5178,
      "Ġrefer": 5179,
      "anced": 5180,
      "DR": 5181,
      "Ġfeatures": 5182,
      "ĠSup": 5183,
      "Has": 5184,
      "Ġsignific": 5185,
      "è¦": 5186,
      "peed": 5187,
      "alance": 5188,
      "Ġmatter": 5189,
      "Selector": 5190,
      "reset": 5191,
      "Ð¾Ð»": 5192,
      "Func": 5193,
      "kens": 5194,
      "åı¯": 5195,
      "Ġdetermin": 5196,
      "ĠassertEquals": 5197,
      "ĠNode": 5198,
      "Ġcmd": 5199,
      "lluminate": 5200,
      "ĠInit": 5201,
      "Ġlate": 5202,
      "mat": 5203,
      "Ġplugin": 5204,
      "Ġextra": 5205,
      "oll": 5206,
      "ĠModel": 5207,
      "quote": 5208,
      "omb": 5209,
      "ĠÃł": 5210,
      "});ĊĊ": 5211,
      "Ġassociated": 5212,
      "Admin": 5213,
      "tip": 5214,
      "Ġelif": 5215,
      "Ġ\"%": 5216,
      "77": 5217,
      "role": 5218,
      "Matrix": 5219,
      "wrap": 5220,
      "Ġconstructor": 5221,
      "Ġparam": 5222,
      "Ġanything": 5223,
      "(\"%": 5224,
      "assets": 5225,
      "Ġresearch": 5226,
      "READ": 5227,
      "win": 5228,
      "Ġair": 5229,
      "Ġdefinition": 5230,
      "lg": 5231,
      "Ġactiv": 5232,
      "ws": 5233,
      "ĠDefault": 5234,
      "]:": 5235,
      "Ġmer": 5236,
      "Ġbad": 5237,
      "ony": 5238,
      "foreach": 5239,
      "![": 5240,
      "Ġpub": 5241,
      "ember": 5242,
      "Ġshows": 5243,
      "yy": 5244,
      "submit": 5245,
      "Ġmakes": 5246,
      "];ĊĊ": 5247,
      "LS": 5248,
      "circ": 5249,
      "`ĊĊ": 5250,
      "ĠCar": 5251,
      "anger": 5252,
      "ToString": 5253,
      "quare": 5254,
      "ategories": 5255,
      "Ġhy": 5256,
      "exports": 5257,
      "ango": 5258,
      "Ġexit": 5259,
      "?\"Ċ": 5260,
      "ks": 5261,
      "Ġindividual": 5262,
      "Ġicon": 5263,
      "ohn": 5264,
      "wards": 5265,
      "SY": 5266,
      "ising": 5267,
      "ĠNO": 5268,
      "=\"<?": 5269,
      "ĠĠĠĠĠĠĠĠĠĠĠĠĠĠĠĠĠĠĠĠĠĠĠĠĠĠĠĠĠ": 5270,
      "weight": 5271,
      "Ġinstanceof": 5272,
      "Ġche": 5273,
      "Drawing": 5274,
      "Ġcred": 5275,
      "TIME": 5276,
      "After": 5277,
      "ived": 5278,
      "shared": 5279,
      "(()": 5280,
      "Ġfix": 5281,
      "press": 5282,
      "rief": 5283,
      "asing": 5284,
      "Ġpotential": 5285,
      "****************************************************************": 5286,
      "acing": 5287,
      "Dist": 5288,
      "pass": 5289,
      "ighb": 5290,
      "Ġ$_": 5291,
      "results": 5292,
      "ases": 5293,
      "INFO": 5294,
      "lide": 5295,
      "Directory": 5296,
      "Ġbuf": 5297,
      "ino": 5298,
      "âĢ¦": 5299,
      "bot": 5300,
      "ãģĹ": 5301,
      "logical": 5302,
      "protobuf": 5303,
      "pub": 5304,
      "ĠUpdate": 5305,
      "erature": 5306,
      "bsite": 5307,
      "izing": 5308,
      "Ġdev": 5309,
      "PR": 5310,
      "Ġlearn": 5311,
      "ĠOne": 5312,
      "MI": 5313,
      "ha": 5314,
      "Email": 5315,
      "Use": 5316,
      "Transaction": 5317,
      "uest": 5318,
      "Only": 5319,
      "Ġexperience": 5320,
      "ĠÐ´": 5321,
      "Descriptor": 5322,
      "pa": 5323,
      "cfg": 5324,
      "Ġgetting": 5325,
      "Ġaff": 5326,
      "Ġrule": 5327,
      "super": 5328,
      "Ġcontact": 5329,
      "mbox": 5330,
      "ables": 5331,
      "Support": 5332,
      "'];Ċ": 5333,
      "virtual": 5334,
      "ĠVector": 5335,
      "Ġinteger": 5336,
      "aml": 5337,
      "Ġassume": 5338,
      "ĠPer": 5339,
      "âĶĢ": 5340,
      "jpg": 5341,
      "Ġ{\"": 5342,
      "eds": 5343,
      "Ä±": 5344,
      "Ġimplements": 5345,
      "Ġcases": 5346,
      "cmp": 5347,
      "Ġrelated": 5348,
      "Ġwhole": 5349,
      "execute": 5350,
      "Ġdoc": 5351,
      "è¡Į": 5352,
      "ourn": 5353,
      "Ġdistribution": 5354,
      "avor": 5355,
      "Ġ[[": 5356,
      "primary": 5357,
      "istration": 5358,
      "comment": 5359,
      "}}\\": 5360,
      "Sk": 5361,
      "ĠAzure": 5362,
      "Ġweight": 5363,
      "åĮ": 5364,
      "Ġrot": 5365,
      "REQ": 5366,
      "Ġgenerate": 5367,
      "flag": 5368,
      "ìĿ´": 5369,
      "Ne": 5370,
      "Ġvisit": 5371,
      "assertEqual": 5372,
      "Ġfurther": 5373,
      "Parse": 5374,
      "Any": 5375,
      "nbsp": 5376,
      "andid": 5377,
      "Ġlock": 5378,
      "/Ċ": 5379,
      "expr": 5380,
      "Ġseries": 5381,
      "itter": 5382,
      "Perm": 5383,
      "napshot": 5384,
      "PUT": 5385,
      "words": 5386,
      "ëĬ": 5387,
      "Details": 5388,
      "ERE": 5389,
      "Ġpaper": 5390,
      "urrency": 5391,
      "lat": 5392,
      "network": 5393,
      "Ġinsert": 5394,
      "Ġwatch": 5395,
      "Ġbas": 5396,
      "ĠUS": 5397,
      "SELECT": 5398,
      "Ġdistance": 5399,
      "pename": 5400,
      "dot": 5401,
      "fix": 5402,
      "Err": 5403,
      "æŀ": 5404,
      "utf": 5405,
      "Ġpublish": 5406,
      "Ġrather": 5407,
      "Ġarr": 5408,
      "Profile": 5409,
      "oder": 5410,
      "Big": 5411,
      "exit": 5412,
      "Ġcluster": 5413,
      "OM": 5414,
      "LINE": 5415,
      "Ġothers": 5416,
      "ä»¥": 5417,
      "bb": 5418,
      "OD": 5419,
      "ided": 5420,
      "Ġ(_": 5421,
      "Ġinv": 5422,
      "aker": 5423,
      "ĠFunction": 5424,
      "ä¸º": 5425,
      "hip": 5426,
      "Ġdirection": 5427,
      "unt": 5428,
      "Ġred": 5429,
      "children": 5430,
      "Struct": 5431,
      "Ġpush": 5432,
      "eqn": 5433,
      "Role": 5434,
      "\");čĊ": 5435,
      ":čĊ": 5436,
      "Ġsl": 5437,
      "pare": 5438,
      "Find": 5439,
      "aves": 5440,
      "Ġnat": 5441,
      "Let": 5442,
      "\")]Ċ": 5443,
      "II": 5444,
      "Track": 5445,
      "psilon": 5446,
      "Ġstorage": 5447,
      "ĠUse": 5448,
      "getName": 5449,
      "price": 5450,
      "screen": 5451,
      "ä¼": 5452,
      "wargs": 5453,
      "Ġplease": 5454,
      "Ġmind": 5455,
      "}[": 5456,
      "ills": 5457,
      "æİ": 5458,
      "transform": 5459,
      "Files": 5460,
      "Ġ}ĊĊĊ": 5461,
      "eqref": 5462,
      "Ġetc": 5463,
      "Ġstarted": 5464,
      "æĿ": 5465,
      "enable": 5466,
      "WS": 5467,
      "Ġfrequ": 5468,
      "Ġsetup": 5469,
      "Ġperformance": 5470,
      "Ġir": 5471,
      "short": 5472,
      "ĠDB": 5473,
      "Now": 5474,
      "```Ċ": 5475,
      "Ġfilename": 5476,
      "Success": 5477,
      "storage": 5478,
      "Ġ{'": 5479,
      "70": 5480,
      "Ġ{}Ċ": 5481,
      "OB": 5482,
      "zer": 5483,
      "Copy": 5484,
      "Ġvideo": 5485,
      "aim": 5486,
      "matrix": 5487,
      "collection": 5488,
      "Step": 5489,
      "Flags": 5490,
      "Ġreadonly": 5491,
      ")=": 5492,
      "bottom": 5493,
      "getElement": 5494,
      "Ġdem": 5495,
      "psi": 5496,
      "ĠĠĊĠĠĊ": 5497,
      "Ġhandler": 5498,
      "Ġdomain": 5499,
      "85": 5500,
      "ua": 5501,
      "ledge": 5502,
      "Ġmenu": 5503,
      "Ġmember": 5504,
      "Ġ'\\": 5505,
      "Ver": 5506,
      "Ġgrid": 5507,
      "ni": 5508,
      "MODE": 5509,
      "Ġbind": 5510,
      "wd": 5511,
      "(__": 5512,
      "ria": 5513,
      "HTML": 5514,
      "ients": 5515,
      "Ġimages": 5516,
      "COL": 5517,
      "iding": 5518,
      "ĠâĢĺ": 5519,
      "apply": 5520,
      "validate": 5521,
      "But": 5522,
      "46": 5523,
      "variable": 5524,
      "amil": 5525,
      "border": 5526,
      "Ġidea": 5527,
      "ĠResult": 5528,
      "Double": 5529,
      "Ġsyn": 5530,
      "Boolean": 5531,
      "ĠBl": 5532,
      "NotNull": 5533,
      "ĠOpen": 5534,
      "ama": 5535,
      "Ġnumbers": 5536,
      "phone": 5537,
      "Ġhigher": 5538,
      "Ġadmin": 5539,
      "$.Ċ": 5540,
      ")));Ċ": 5541,
      "Ġsetting": 5542,
      "Ge": 5543,
      "real": 5544,
      "plot": 5545,
      "Ġhouse": 5546,
      "fi": 5547,
      "Register": 5548,
      "Ġwrong": 5549,
      "Ġevalu": 5550,
      "Ġcore": 5551,
      "Ġsequence": 5552,
      "ury": 5553,
      "va": 5554,
      "Ġwent": 5555,
      "Ð¾ÑĢ": 5556,
      "oss": 5557,
      "Editor": 5558,
      "ĠInput": 5559,
      "iform": 5560,
      "Ġtx": 5561,
      "Ġtook": 5562,
      "Ġalt": 5563,
      "å½": 5564,
      "Ġflag": 5565,
      "ley": 5566,
      "Ġeasy": 5567,
      "entials": 5568,
      "Ġemploy": 5569,
      "102": 5570,
      "ulate": 5571,
      "Ġadditional": 5572,
      "aws": 5573,
      "Ġscope": 5574,
      "\\,": 5575,
      "site": 5576,
      "Ġpassed": 5577,
      "Ġcountry": 5578,
      "ãģ«": 5579,
      "ĠPart": 5580,
      "ĠTable": 5581,
      "Ġstre": 5582,
      "acters": 5583,
      "Ġdu": 5584,
      "iny": 5585,
      "ä½¿": 5586,
      "éĹ": 5587,
      "ãĤĭ": 5588,
      "ĠSQL": 5589,
      "enn": 5590,
      "Rad": 5591,
      "tags": 5592,
      "lug": 5593,
      "ĠImp": 5594,
      "Ġmaj": 5595,
      "small": 5596,
      "LEN": 5597,
      "itemize": 5598,
      "rand": 5599,
      "æ³": 5600,
      "Generic": 5601,
      "Ġmis": 5602,
      "Ġarch": 5603,
      "Ġfront": 5604,
      "cheme": 5605,
      "Ġwalk": 5606,
      "Ġspect": 5607,
      "WORD": 5608,
      "views": 5609,
      "aries": 5610,
      "Ð·": 5611,
      "');": 5612,
      "orph": 5613,
      "Ġhalf": 5614,
      "ĠDep": 5615,
      "mpt": 5616,
      "Ġgovern": 5617,
      "arp": 5618,
      "ĠImage": 5619,
      "Ġbuilder": 5620,
      "Ġmed": 5621,
      "operator": 5622,
      "Ret": 5623,
      "Ġnodes": 5624,
      "iven": 5625,
      "Ġ<-": 5626,
      "abs": 5627,
      "iles": 5628,
      "æĸĩ": 5629,
      "iving": 5630,
      "ĠTR": 5631,
      "Send": 5632,
      "alert": 5633,
      "mega": 5634,
      "ĠPol": 5635,
      "Ġobserv": 5636,
      "ĠRequest": 5637,
      "Kind": 5638,
      "orch": 5639,
      "background": 5640,
      "ãģ¾": 5641,
      "Ġce": 5642,
      "Collections": 5643,
      "Ġexisting": 5644,
      "ĠHttp": 5645,
      "CODE": 5646,
      "GB": 5647,
      "icult": 5648,
      "Ġassign": 5649,
      "each": 5650,
      "Doc": 5651,
      "ĠAND": 5652,
      "ĠArrayList": 5653,
      "graphics": 5654,
      "Ġinvol": 5655,
      "Ġmembers": 5656,
      "Package": 5657,
      "Ġpara": 5658,
      ");čĊčĊ": 5659,
      "rf": 5660,
      "ĠNe": 5661,
      "Ġsymbol": 5662,
      "Ġparser": 5663,
      "(`": 5664,
      "oding": 5665,
      "olver": 5666,
      "Ġforce": 5667,
      "Ġchanged": 5668,
      "schema": 5669,
      "aging": 5670,
      "astic": 5671,
      "Ġhuman": 5672,
      "89": 5673,
      "ooth": 5674,
      "elt": 5675,
      "ymme": 5676,
      "){": 5677,
      "sess": 5678,
      "æĢ": 5679,
      "Ġflu": 5680,
      "itions": 5681,
      "Ġfit": 5682,
      "DU": 5683,
      ",âĢĿ": 5684,
      "*Ċ": 5685,
      "lications": 5686,
      "Engine": 5687,
      "cos": 5688,
      "Ġmar": 5689,
      "ĠIP": 5690,
      "198": 5691,
      "ĠMicrosoft": 5692,
      "}$,": 5693,
      "ĉĉĉĉĉĉĉĉĉ": 5694,
      "Ag": 5695,
      "rangle": 5696,
      "Ġ},ĊĊ": 5697,
      "goto": 5698,
      "note": 5699,
      "though": 5700,
      "reat": 5701,
      "è§": 5702,
      "controller": 5703,
      "iet": 5704,
      "Author": 5705,
      "metadata": 5706,
      "æĹ¶": 5707,
      "Ġpointer": 5708,
      "Ġpress": 5709,
      "maz": 5710,
      "parser": 5711,
      "ĠSE": 5712,
      "LD": 5713,
      "ante": 5714,
      "pid": 5715,
      "MENT": 5716,
      "Ġprice": 5717,
      "Ġitself": 5718,
      "Ġscal": 5719,
      "Save": 5720,
      "Ġenv": 5721,
      "rule": 5722,
      "Screen": 5723,
      "Rest": 5724,
      "done": 5725,
      "testing": 5726,
      "rightarrow": 5727,
      "Nav": 5728,
      "sumer": 5729,
      "tml": 5730,
      "ĉĉĉĊ": 5731,
      "ried": 5732,
      "Ġsignal": 5733,
      "tw": 5734,
      "Ġfill": 5735,
      "ounded": 5736,
      "ĠMessage": 5737,
      "Ġ\\\\": 5738,
      "ĠNote": 5739,
      "Ġsets": 5740,
      "ĠHash": 5741,
      "Member": 5742,
      "Ġdescribe": 5743,
      "Ġfixed": 5744,
      "Global": 5745,
      "Ġfall": 5746,
      "Ġattr": 5747,
      "DEBUG": 5748,
      "nn": 5749,
      "ECT": 5750,
      "dp": 5751,
      "Ġ->Ċ": 5752,
      "ëĬĶ": 5753,
      "fetch": 5754,
      "Ġ)ĊĊ": 5755,
      "åĢ": 5756,
      "Ġuses": 5757,
      "Ġgroups": 5758,
      "Total": 5759,
      "Ġotherwise": 5760,
      "Fail": 5761,
      "bus": 5762,
      "orizont": 5763,
      "Ġtests": 5764,
      "upload": 5765,
      "Ġsignificant": 5766,
      "dec": 5767,
      "Ġcomponents": 5768,
      "illion": 5769,
      "ides": 5770,
      "TEXT": 5771,
      "SR": 5772,
      "Ġroute": 5773,
      "ĠĠĠĠĠĠĠĠĠĠĠĠĠĠĠĠĠĠĠĠĠĠĠĠĠĠ": 5774,
      "ĠId": 5775,
      "Ġanaly": 5776,
      "æĶ": 5777,
      "report": 5778,
      "'));Ċ": 5779,
      "Auto": 5780,
      "Av": 5781,
      "sample": 5782,
      "rot": 5783,
      "\"`Ċ": 5784,
      "ana": 5785,
      "Keys": 5786,
      "ĠService": 5787,
      "ĠÑ": 5788,
      "Loader": 5789,
      "Ġignore": 5790,
      "Ġkeys": 5791,
      "ĠSte": 5792,
      "pdf": 5793,
      "Ġsystems": 5794,
      "ĠCo": 5795,
      "Failed": 5796,
      "panel": 5797,
      "Ġhistory": 5798,
      "Ġsupported": 5799,
      "PP": 5800,
      "ker": 5801,
      "egr": 5802,
      "Second": 5803,
      "Ġ$('#": 5804,
      "Attributes": 5805,
      "pool": 5806,
      "Ġsql": 5807,
      "Ġedge": 5808,
      "Ġhowever": 5809,
      "Ġseems": 5810,
      "Ġallowed": 5811,
      "async": 5812,
      "Ġsays": 5813,
      "Sync": 5814,
      "track": 5815,
      "41": 5816,
      "springframework": 5817,
      "é¡": 5818,
      "Ġ:Ċ": 5819,
      "Sum": 5820,
      "Ġshape": 5821,
      "fect": 5822,
      "Ġgenerated": 5823,
      "sy": 5824,
      "Ġtraining": 5825,
      "CRE": 5826,
      "Note": 5827,
      "typeof": 5828,
      "Ġtaken": 5829,
      "ificate": 5830,
      "hy": 5831,
      "ìĦ": 5832,
      ",$": 5833,
      "epsilon": 5834,
      "notation": 5835,
      "Remove": 5836,
      "anaged": 5837,
      "Ġupon": 5838,
      "por": 5839,
      "Ġnight": 5840,
      "ãĢĤĊĊ": 5841,
      "install": 5842,
      "legal": 5843,
      "Ġinline": 5844,
      "ĠAss": 5845,
      "Ġentire": 5846,
      "ien": 5847,
      "jango": 5848,
      "console": 5849,
      "è¦ģ": 5850,
      "Ac": 5851,
      "Ġpadding": 5852,
      "ĠFROM": 5853,
      "Trace": 5854,
      "Ġquestions": 5855,
      "iteral": 5856,
      "ĠStr": 5857,
      "Ġmaximum": 5858,
      "...Ċ": 5859,
      "MIN": 5860,
      "raints": 5861,
      "Ġmath": 5862,
      "Ġindu": 5863,
      "Ġresources": 5864,
      "Ġprec": 5865,
      "Ġdirectly": 5866,
      "Ġasked": 5867,
      "Ġupdated": 5868,
      "Ġsurface": 5869,
      "Events": 5870,
      "Ġshare": 5871,
      "Ġstudents": 5872,
      "oth": 5873,
      "Ġeverything": 5874,
      "Py": 5875,
      "[\\": 5876,
      "Ġcross": 5877,
      "Dest": 5878,
      "jection": 5879,
      "ÐµÐ½Ð¸": 5880,
      "throws": 5881,
      "WN": 5882,
      "CF": 5883,
      "Ġquick": 5884,
      "Ġstates": 5885,
      "»¿": 5886,
      "mac": 5887,
      "Ġwritten": 5888,
      "Ġ=>Ċ": 5889,
      "gy": 5890,
      "Mapping": 5891,
      "Ġaccording": 5892,
      "tection": 5893,
      "Ġ\\(": 5894,
      "ï»¿": 5895,
      "kt": 5896,
      "Extension": 5897,
      "pair": 5898,
      "Ġfire": 5899,
      "æį®": 5900,
      "Ġsimply": 5901,
      "Ġfmt": 5902,
      "services": 5903,
      "ĉĉĠĠĠ": 5904,
      "allel": 5905,
      "iki": 5906,
      "icles": 5907,
      "database": 5908,
      "Ġreceived": 5909,
      "RES": 5910,
      "Ġalloc": 5911,
      "NT": 5912,
      "æĪĲ": 5913,
      "Ġ),": 5914,
      "dates": 5915,
      "Vol": 5916,
      "Selection": 5917,
      "Ġdevelopment": 5918,
      "Expect": 5919,
      "VERSION": 5920,
      "events": 5921,
      "volution": 5922,
      "edge": 5923,
      "MAGE": 5924,
      "Transform": 5925,
      "den": 5926,
      "ĠUniversity": 5927,
      "Constants": 5928,
      "dc": 5929,
      "ĠâĪ": 5930,
      "EXT": 5931,
      "stat": 5932,
      "ĠCall": 5933,
      "Ġnecessary": 5934,
      "builder": 5935,
      "Ġxml": 5936,
      "Pointer": 5937,
      "ACE": 5938,
      "Ġcorresponding": 5939,
      "Media": 5940,
      ":'": 5941,
      "feature": 5942,
      "ä½¿çĶ¨": 5943,
      "Db": 5944,
      "ench": 5945,
      "(['": 5946,
      "Ġprobably": 5947,
      "ustr": 5948,
      "VALUE": 5949,
      "iÃ³n": 5950,
      "socket": 5951,
      "Ġmoney": 5952,
      "oring": 5953,
      "ĠMin": 5954,
      "DateTime": 5955,
      "Ġtried": 5956,
      "åıĸ": 5957,
      "Ġvolume": 5958,
      "íķĺ": 5959,
      "59": 5960,
      "ä¾": 5961,
      "Ġ${\\": 5962,
      "Ġtakes": 5963,
      "è¡¨": 5964,
      "<!--": 5965,
      "Ids": 5966,
      "assign": 5967,
      "Ġsoftware": 5968,
      "faces": 5969,
      "Ġmat": 5970,
      "eral": 5971,
      "Ġpick": 5972,
      "`.": 5973,
      "ius": 5974,
      "Ġalmost": 5975,
      "ç½®": 5976,
      "Ġclasses": 5977,
      "Ġreplace": 5978,
      "look": 5979,
      "Conf": 5980,
      "scal": 5981,
      "batch": 5982,
      "ĥ½": 5983,
      "Ġ_,": 5984,
      "ĠÐ¿ÑĢ": 5985,
      "isset": 5986,
      "ĠEXPECT": 5987,
      "aven": 5988,
      "USER": 5989,
      "wp": 5990,
      "created": 5991,
      "Ġsys": 5992,
      "TS": 5993,
      "bound": 5994,
      "WRITE": 5995,
      "allet": 5996,
      "Ġengine": 5997,
      "ãĤ¹": 5998,
      "Ġ\".": 5999,
      "Ġ*/čĊ": 6000,
      "ĠĠĠĠĠĠĠĠĠĠĠĠĠĠĠĠĠĠĠĠĠĠĠĠĠĠĠĠĠĠĠĠĠĠĠĠĠĠĠĠĠĠĠĠĠĠĠĠĠĠĠĠĠĠĠĠĠĠĠĠĠĠĠĠ": 6001,
      "Ġrequ": 6002,
      "Internal": 6003,
      "57": 6004,
      "vc": 6005,
      "catch": 6006,
      "Ġappend": 6007,
      "ĠMon": 6008,
      "dk": 6009,
      "Ð¸ÑĤ": 6010,
      "Ġann": 6011,
      "Ġphot": 6012,
      "Ġach": 6013,
      "Ġmedia": 6014,
      "Dep": 6015,
      ":\\": 6016,
      "USE": 6017,
      "translation": 6018,
      "vare": 6019,
      "release": 6020,
      "Ġpositive": 6021,
      "Play": 6022,
      "AG": 6023,
      "ĠNumber": 6024,
      "\"]Ċ": 6025,
      "Ġintrodu": 6026,
      "El": 6027,
      "properties": 6028,
      "Ġisn": 6029,
      "ming": 6030,
      "[Ċ": 6031,
      "ĠAny": 6032,
      "eqnarray": 6033,
      "tty": 6034,
      "Ġforward": 6035,
      "ĠColor": 6036,
      "toggle": 6037,
      "DATE": 6038,
      "æĮ": 6039,
      "Ġcategory": 6040,
      "ĠGod": 6041,
      "orizontal": 6042,
      "force": 6043,
      "Ġbene": 6044,
      "Ġlos": 6045,
      "ĠOF": 6046,
      "Space": 6047,
      "=\\\"": 6048,
      "Full": 6049,
      "Ġnullptr": 6050,
      "ĠLet": 6051,
      "Att": 6052,
      "Ġspeed": 6053,
      "56": 6054,
      "001": 6055,
      "&&": 6056,
      "å¾": 6057,
      "Ġlinear": 6058,
      "locity": 6059,
      "NET": 6060,
      "ĠCode": 6061,
      "eter": 6062,
      "ards": 6063,
      "more": 6064,
      "Ġobtain": 6065,
      "Ð¾Ð´": 6066,
      "ĠTH": 6067,
      "Ġwhite": 6068,
      "ĠStart": 6069,
      "Ġflags": 6070,
      "Ġprintf": 6071,
      "Socket": 6072,
      "modules": 6073,
      "Ġ//Ċ": 6074,
      "ãĥĪ": 6075,
      "gb": 6076,
      "prec": 6077,
      "Ġfac": 6078,
      "ĠServer": 6079,
      "urb": 6080,
      "Ġdrop": 6081,
      "Ġpercent": 6082,
      "loader": 6083,
      "Ġserial": 6084,
      "hide": 6085,
      "Ġextension": 6086,
      "à¦": 6087,
      "NUM": 6088,
      "some": 6089,
      "43": 6090,
      "Ñİ": 6091,
      "Ġland": 6092,
      "Report": 6093,
      "Mut": 6094,
      "orter": 6095,
      "lower": 6096,
      "priv": 6097,
      "ĠChar": 6098,
      "\";": 6099,
      "'])": 6100,
      "ĠFr": 6101,
      "}`": 6102,
      "150": 6103,
      "Ġrows": 6104,
      "Ġamong": 6105,
      "safe": 6106,
      "Ġcounter": 6107,
      "Ġvarious": 6108,
      "Ġcut": 6109,
      "Ġarticle": 6110,
      "Ġlibrary": 6111,
      "Omega": 6112,
      "Ġpolicy": 6113,
      "Ġwin": 6114,
      "ology": 6115,
      "ìĹĲ": 6116,
      "HERE": 6117,
      "æŃ": 6118,
      "Ġ[];Ċ": 6119,
      "ĠBoolean": 6120,
      "éĻ": 6121,
      "ality": 6122,
      "Ġdiscuss": 6123,
      "zone": 6124,
      "Login": 6125,
      "parameters": 6126,
      "ĠFl": 6127,
      "initial": 6128,
      "Ġ>Ċ": 6129,
      "fp": 6130,
      "Ġmarket": 6131,
      "ifest": 6132,
      "Ġyield": 6133,
      "Ġfollows": 6134,
      "Ġum": 6135,
      "ica": 6136,
      "imated": 6137,
      "WA": 6138,
      "Ġcity": 6139,
      "video": 6140,
      ")),Ċ": 6141,
      "stats": 6142,
      "varepsilon": 6143,
      "Ġtoday": 6144,
      "lying": 6145,
      "Ġcollect": 6146,
      "];": 6147,
      "Section": 6148,
      "Results": 6149,
      "Ġdifference": 6150,
      "Ġalgorithm": 6151,
      "sync": 6152,
      "COMP": 6153,
      "Ġcommunity": 6154,
      "Ġplatform": 6155,
      "Ġrelative": 6156,
      "Domain": 6157,
      "outes": 6158,
      "Ġsense": 6159,
      "()));Ċ": 6160,
      "Ġraw": 6161,
      "(\"\\": 6162,
      "\">čĊ": 6163,
      "xs": 6164,
      "Ġstory": 6165,
      "ocker": 6166,
      "Required": 6167,
      "Wrapper": 6168,
      "icture": 6169,
      "ĠCor": 6170,
      "Rec": 6171,
      "Ġplot": 6172,
      "after": 6173,
      "Memory": 6174,
      "Ġbottom": 6175,
      "Ljava": 6176,
      "Ġprovides": 6177,
      "Ġwor": 6178,
      "ĠWindows": 6179,
      "Ġimplementation": 6180,
      "Ġ^": 6181,
      "Ġ\\\"": 6182,
      "shift": 6183,
      "Ġheaders": 6184,
      "Ġproblems": 6185,
      "Area": 6186,
      "\":\"": 6187,
      "87": 6188,
      "Prefix": 6189,
      "seq": 6190,
      "gree": 6191,
      "nil": 6192,
      "under": 6193,
      "tf": 6194,
      "ura": 6195,
      "Visible": 6196,
      "ĠSw": 6197,
      ">'": 6198,
      "Ġsplit": 6199,
      "ĠĠĠĠĠĠĠĠĠĠĠĠĠĠĠĠĠĠĠĠĠĠĠĠĠĠĠĠ": 6200,
      "based": 6201,
      "Ġdeal": 6202,
      "FORM": 6203,
      "FS": 6204,
      "HTTP": 6205,
      "Ġimg": 6206,
      "EV": 6207,
      "Ġdesc": 6208,
      "ĠAD": 6209,
      ">&": 6210,
      "Ġcamp": 6211,
      "Scale": 6212,
      "ians": 6213,
      "Ġfood": 6214,
      "Ġqueue": 6215,
      "uler": 6216,
      "Symbol": 6217,
      "nology": 6218,
      "protected": 6219,
      "Ġlive": 6220,
      "}_{\\": 6221,
      "Ġtheory": 6222,
      "ILE": 6223,
      "sin": 6224,
      "Ġfactor": 6225,
      "Ġproper": 6226,
      "iterator": 6227,
      "ĠOb": 6228,
      "Scroll": 6229,
      "Ġste": 6230,
      "ĠRed": 6231,
      "Import": 6232,
      "Ġ``": 6233,
      "Effect": 6234,
      "()čĊ": 6235,
      "which": 6236,
      "ĠNOT": 6237,
      "cpu": 6238,
      "Ġtreat": 6239,
      "Ġvers": 6240,
      "Ġquite": 6241,
      "score": 6242,
      "reed": 6243,
      "rb": 6244,
      "bon": 6245,
      "ĠPromise": 6246,
      "anging": 6247,
      "ture": 6248,
      "Flag": 6249,
      "dient": 6250,
      "Ġquality": 6251,
      "Ġprom": 6252,
      "ĠÑĤ": 6253,
      "Ġsatis": 6254,
      "gp": 6255,
      "Ġprefix": 6256,
      "Ġfriend": 6257,
      ")*": 6258,
      "ĠĠĠĠĠĠĠĠĠĠĠĠĠĠĠĠĠĠĠĠĠĠĠĠĠĠĠĠĠĠĠĠĠĠĠĠĠĠĠĠĠĠĠĠĠĠĠ": 6259,
      "vention": 6260,
      "Ġaverage": 6261,
      "cha": 6262,
      "Ġequation": 6263,
      "driver": 6264,
      "?\"": 6265,
      "axis": 6266,
      "Ġvi": 6267,
      "âĢī": 6268,
      "Ġcurrently": 6269,
      "Ġfund": 6270,
      "LOCK": 6271,
      "fx": 6272,
      "lates": 6273,
      "throw": 6274,
      "RT": 6275,
      "Math": 6276,
      "ĠPath": 6277,
      "coder": 6278,
      "high": 6279,
      "ĠGoogle": 6280,
      "bad": 6281,
      "ggreg": 6282,
      "svg": 6283,
      "otes": 6284,
      ">,": 6285,
      "decode": 6286,
      "ney": 6287,
      "loop": 6288,
      "Ġintern": 6289,
      "Ġ'.": 6290,
      "Ġda": 6291,
      ")[": 6292,
      "Ġprops": 6293,
      "SL": 6294,
      "Ġplaceholder": 6295,
      "Ġtold": 6296,
      "headers": 6297,
      "Ġ(:": 6298,
      "Ġjs": 6299,
      "train": 6300,
      "bits": 6301,
      "python": 6302,
      "Ġalert": 6303,
      "Ġcontroller": 6304,
      "$$": 6305,
      "Ġissues": 6306,
      "ĠChrist": 6307,
      "Ġattemp": 6308,
      "Ġfinally": 6309,
      "javascript": 6310,
      "when": 6311,
      "rd": 6312,
      "dependent": 6313,
      "Ġil": 6314,
      "contin": 6315,
      "ë¥": 6316,
      "ito": 6317,
      "Ġprofile": 6318,
      "Ġattributes": 6319,
      "Ġphase": 6320,
      "VICE": 6321,
      "ĠLOG": 6322,
      "Ġavoid": 6323,
      "!(": 6324,
      ">\\": 6325,
      "Gamma": 6326,
      "cf": 6327,
      "}=": 6328,
      "CLA": 6329,
      "ç§": 6330,
      "ĠMethod": 6331,
      "Decl": 6332,
      "Ġcontrib": 6333,
      "kit": 6334,
      "Ġsn": 6335,
      "riteria": 6336,
      "Ġonline": 6337,
      "iece": 6338,
      "Single": 6339,
      "Ġ|=": 6340,
      "Ġshift": 6341,
      "Ġconsist": 6342,
      "Ġ'#": 6343,
      "ĠHand": 6344,
      "star": 6345,
      "icode": 6346,
      "Ġlearning": 6347,
      "Scope": 6348,
      "ashboard": 6349,
      "IST": 6350,
      "dialog": 6351,
      "cade": 6352,
      "Ġca": 6353,
      "Statement": 6354,
      "--Ċ": 6355,
      "ering": 6356,
      "ested": 6357,
      "ĠNow": 6358,
      "uary": 6359,
      "Ġallows": 6360,
      "Ġmessages": 6361,
      "Models": 6362,
      "Ġvec": 6363,
      "Price": 6364,
      "verter": 6365,
      "nodes": 6366,
      "atically": 6367,
      "Ġoptim": 6368,
      "Ġearly": 6369,
      "ä¸ĭ": 6370,
      "ceiver": 6371,
      "Ġloss": 6372,
      "LIC": 6373,
      "libr": 6374,
      "inates": 6375,
      "erate": 6376,
      "dig": 6377,
      "DEFAULT": 6378,
      "timeout": 6379,
      "ÑĨ": 6380,
      ")),": 6381,
      "theme": 6382,
      "Man": 6383,
      "IB": 6384,
      "Identifier": 6385,
      "ĠWork": 6386,
      "Ġnone": 6387,
      "zero": 6388,
      "missions": 6389,
      "Ġflex": 6390,
      "Ġcolumns": 6391,
      "igen": 6392,
      "Ġdict": 6393,
      "Ġactivity": 6394,
      "rome": 6395,
      "Ð±": 6396,
      "ĠĠĠĊ": 6397,
      "Before": 6398,
      "very": 6399,
      "Ġsocial": 6400,
      "Fragment": 6401,
      "MT": 6402,
      "ĠJava": 6403,
      "Ġdebug": 6404,
      "Desc": 6405,
      "Coord": 6406,
      "Ġaxis": 6407,
      "Ġensure": 6408,
      "Ax": 6409,
      "ĠPost": 6410,
      "ĠAfter": 6411,
      "']);Ċ": 6412,
      "Ġpanel": 6413,
      "ĠDi": 6414,
      "STATUS": 6415,
      "chain": 6416,
      "STATE": 6417,
      "pb": 6418,
      "sur": 6419,
      "amount": 6420,
      "Ġproducts": 6421,
      "coming": 6422,
      "ĠResponse": 6423,
      "relation": 6424,
      "Ġ'../": 6425,
      "Cluster": 6426,
      "serial": 6427,
      "contact": 6428,
      "alled": 6429,
      "Ġenable": 6430,
      "Ġinvalid": 6431,
      "Ġlayout": 6432,
      "Ġproces": 6433,
      "Ġreset": 6434,
      "¦Ĥ": 6435,
      "Len": 6436,
      "________": 6437,
      "Ġincluded": 6438,
      "Registry": 6439,
      "Initial": 6440,
      "Ġage": 6441,
      "ĠPublic": 6442,
      "ĠSec": 6443,
      "skip": 6444,
      "ä½ľ": 6445,
      "BE": 6446,
      "Ġreceive": 6447,
      "Ġoffic": 6448,
      "ĠGu": 6449,
      "Conn": 6450,
      "Ġmask": 6451,
      "Ġhours": 6452,
      "redu": 6453,
      "resolve": 6454,
      "Ġregular": 6455,
      "Ġcapt": 6456,
      "udent": 6457,
      "Ġcommit": 6458,
      "dx": 6459,
      "mos": 6460,
      "Ġ```": 6461,
      "Word": 6462,
      "Ġbatch": 6463,
      "Ġsitu": 6464,
      "-Ċ": 6465,
      "Ġwriting": 6466,
      "ĠTHE": 6467,
      "Ġdom": 6468,
      "################################": 6469,
      "alysis": 6470,
      "Ġsomeone": 6471,
      "Proxy": 6472,
      "prev": 6473,
      "Ġè": 6474,
      "loyment": 6475,
      "invalid": 6476,
      "Common": 6477,
      "ifications": 6478,
      "rie": 6479,
      "caption": 6480,
      "Ġfolder": 6481,
      "Ġ\"#": 6482,
      "\",čĊ": 6483,
      "VM": 6484,
      "Ġprogress": 6485,
      "_;Ċ": 6486,
      "activ": 6487,
      "Ġcomb": 6488,
      "selves": 6489,
      "Ġrules": 6490,
      "ĠField": 6491,
      ")+": 6492,
      "Texture": 6493,
      "XML": 6494,
      "97": 6495,
      "margin": 6496,
      "Ġeyes": 6497,
      "ĠAR": 6498,
      "solute": 6499,
      "Ġang": 6500,
      "Condition": 6501,
      "Ð½Ñĭ": 6502,
      "chi": 6503,
      "Ġparts": 6504,
      "Ġfetch": 6505,
      "Ġcomes": 6506,
      "Ġwanted": 6507,
      "Ġscore": 6508,
      "Ð¾Ð¼": 6509,
      "ĠIOException": 6510,
      "ìł": 6511,
      "illed": 6512,
      "Ġselection": 6513,
      "ÑĢÐ°Ð": 6514,
      "Ġlang": 6515,
      "ico": 6516,
      "Runtime": 6517,
      "PU": 6518,
      "Dim": 6519,
      "setup": 6520,
      "]['": 6521,
      "sem": 6522,
      "agent": 6523,
      "engine": 6524,
      "iders": 6525,
      "Ġlonger": 6526,
      "ilit": 6527,
      "ny": 6528,
      "Ġsens": 6529,
      "\");": 6530,
      "atory": 6531,
      "tc": 6532,
      "ablish": 6533,
      "atistics": 6534,
      "Interval": 6535,
      "Ġcharacters": 6536,
      "ç¤": 6537,
      "ìļ": 6538,
      "ĠItem": 6539,
      "Iterator": 6540,
      "iling": 6541,
      "ĠFig": 6542,
      "forEach": 6543,
      "Ġ\"-": 6544,
      "âĶĢâĶĢ": 6545,
      "=\"/": 6546,
      "Ġheart": 6547,
      "Ġmot": 6548,
      "Progress": 6549,
      "ãĢĤĊ": 6550,
      "Ġsil": 6551,
      "Pair": 6552,
      "Ġfast": 6553,
      "ë¡": 6554,
      "BIT": 6555,
      "Ġconsidered": 6556,
      "Ġwar": 6557,
      "Ġmachine": 6558,
      "Ġredirect": 6559,
      "Feature": 6560,
      "Cor": 6561,
      "hib": 6562,
      "cons": 6563,
      "Ġappear": 6564,
      "Ġteach": 6565,
      "scroll": 6566,
      "ales": 6567,
      "Folder": 6568,
      "Ġfocus": 6569,
      "equ": 6570,
      "igration": 6571,
      "Ġill": 6572,
      "Ġstatement": 6573,
      "Ġprop": 6574,
      "Ġcoup": 6575,
      "anded": 6576,
      "Ġmaint": 6577,
      "ĠAS": 6578,
      "Ġpa": 6579,
      "Ġreader": 6580,
      "cedure": 6581,
      "Ġdifficult": 6582,
      "attributes": 6583,
      "Protocol": 6584,
      "DEF": 6585,
      "yg": 6586,
      "Uri": 6587,
      "Ġapprox": 6588,
      "Ġrecomm": 6589,
      "Ġground": 6590,
      "Acc": 6591,
      "ĠMark": 6592,
      "Simple": 6593,
      "oost": 6594,
      "Ġlooked": 6595,
      "NOT": 6596,
      "language": 6597,
      "Ġthird": 6598,
      "ners": 6599,
      "isEmpty": 6600,
      "osite": 6601,
      "Ġexc": 6602,
      "Ġdownload": 6603,
      "Art": 6604,
      "Ġess": 6605,
      "Ġoutside": 6606,
      "Ġcompar": 6607,
      "runtime": 6608,
      "Ġinterval": 6609,
      "JECT": 6610,
      "ĠDec": 6611,
      "details": 6612,
      "'=>'": 6613,
      "Ġexpress": 6614,
      "checked": 6615,
      "Ġ'\"": 6616,
      "marks": 6617,
      "Ġhope": 6618,
      "çī": 6619,
      "GER": 6620,
      "ãģ§": 6621,
      "Ġcontaining": 6622,
      "counter": 6623,
      "trics": 6624,
      "68": 6625,
      "sembly": 6626,
      "CM": 6627,
      "Sort": 6628,
      "Ġty": 6629,
      "TION": 6630,
      "Bean": 6631,
      "{$": 6632,
      "Ġtaking": 6633,
      "æķ°æį®": 6634,
      "åĲį": 6635,
      "Ġextract": 6636,
      "Ġsecurity": 6637,
      "ĠLong": 6638,
      "Ġshall": 6639,
      "router": 6640,
      "Ġdeep": 6641,
      "\"/>Ċ": 6642,
      "platform": 6643,
      "ĠPre": 6644,
      "boldsymbol": 6645,
      "ITH": 6646,
      "diff": 6647,
      "security": 6648,
      "Background": 6649,
      "commit": 6650,
      "ĠValid": 6651,
      "ACT": 6652,
      "rad": 6653,
      "Ġlikely": 6654,
      "atar": 6655,
      "toBe": 6656,
      "plus": 6657,
      "loaded": 6658,
      "blockquote": 6659,
      "=-": 6660,
      "FE": 6661,
      "ĠIS": 6662,
      "VALID": 6663,
      "sn": 6664,
      "Ġexport": 6665,
      "agnost": 6666,
      "Ġ/>": 6667,
      "Ġpool": 6668,
      "Ġbelieve": 6669,
      "Īëĭ¤": 6670,
      "peat": 6671,
      "197": 6672,
      "ÂłÂłÂłÂł": 6673,
      "ĠFrom": 6674,
      "ÐµÐ»": 6675,
      "IVE": 6676,
      "ĠYour": 6677,
      "Ġ.=": 6678,
      "zip": 6679,
      "å·": 6680,
      "æĸ¹": 6681,
      "Ġexecute": 6682,
      "ste": 6683,
      "Ġein": 6684,
      "pring": 6685,
      "swing": 6686,
      "Ġconstruct": 6687,
      "LAY": 6688,
      "Ġful": 6689,
      "decl": 6690,
      "Ġoptional": 6691,
      "asset": 6692,
      "Users": 6693,
      "construct": 6694,
      "RAN": 6695,
      "Ġhot": 6696,
      "coord": 6697,
      "Ġ\"'": 6698,
      "augh": 6699,
      "}^{\\": 6700,
      "unique": 6701,
      ".\");Ċ": 6702,
      "Ġuseful": 6703,
      "IGHT": 6704,
      "åħ¥": 6705,
      "ellow": 6706,
      "LOC": 6707,
      "Ġobtained": 6708,
      "ffff": 6709,
      "LIST": 6710,
      "angular": 6711,
      "fc": 6712,
      "120": 6713,
      "ulture": 6714,
      "ĠArg": 6715,
      ",-": 6716,
      "Cmd": 6717,
      "CCESS": 6718,
      "etic": 6719,
      "800": 6720,
      "Attr": 6721,
      "=%": 6722,
      "Ġsolid": 6723,
      "Ġdark": 6724,
      "_(": 6725,
      "cluster": 6726,
      "CONFIG": 6727,
      "Ġpul": 6728,
      "Ġtemperature": 6729,
      "Ġgives": 6730,
      "ping": 6731,
      "uplic": 6732,
      "Ġstrings": 6733,
      "aining": 6734,
      "Ġmissing": 6735,
      "single": 6736,
      "mov": 6737,
      "bootstrap": 6738,
      "Ġrect": 6739,
      "ĠCopy": 6740,
      "Ġschema": 6741,
      "ĠÐ¼": 6742,
      "ĠExp": 6743,
      "ĠJohn": 6744,
      "ìĿĦ": 6745,
      "Detail": 6746,
      "Ð½Ð¾": 6747,
      "argument": 6748,
      "Nodes": 6749,
      "bose": 6750,
      "Ã©s": 6751,
      "ummy": 6752,
      "bm": 6753,
      "zy": 6754,
      "material": 6755,
      "ateway": 6756,
      "ÐµÐ¼": 6757,
      "ĠSk": 6758,
      "Ġyoung": 6759,
      "å¸": 6760,
      "Ġidx": 6761,
      "{ĊĊ": 6762,
      "Some": 6763,
      "ensive": 6764,
      "Ġcrit": 6765,
      "editor": 6766,
      "Ġdescribed": 6767,
      "Pop": 6768,
      "Ġwebsite": 6769,
      "Ġpi": 6770,
      "shal": 6771,
      "?>": 6772,
      "Tx": 6773,
      "Ġmo": 6774,
      "åĪ°": 6775,
      "Ġson": 6776,
      "Ġsus": 6777,
      "herit": 6778,
      "inf": 6779,
      "Cap": 6780,
      "dst": 6781,
      "ASE": 6782,
      "Modal": 6783,
      "Rate": 6784,
      "ĠHTTP": 6785,
      "osp": 6786,
      "joy": 6787,
      "Ġminutes": 6788,
      "ĠVer": 6789,
      "Ġstrict": 6790,
      "grade": 6791,
      "trace": 6792,
      "åī": 6793,
      "ises": 6794,
      "Ġmetadata": 6795,
      "edback": 6796,
      "Ġtimeout": 6797,
      "Ġprimary": 6798,
      "lood": 6799,
      "})$": 6800,
      "Ġtypeof": 6801,
      "Ġ'%": 6802,
      "Ġbuilt": 6803,
      "WE": 6804,
      "Mouse": 6805,
      "Ġsy": 6806,
      "]->": 6807,
      "cli": 6808,
      "ĠFirst": 6809,
      "Ġvalidate": 6810,
      "Sql": 6811,
      "Ġbuilding": 6812,
      "Pe": 6813,
      "Opt": 6814,
      "Ġrisk": 6815,
      "Ġ-=": 6816,
      "hi": 6817,
      "getElementById": 6818,
      "EM": 6819,
      "Ġreading": 6820,
      "azure": 6821,
      "objects": 6822,
      "ĠHere": 6823,
      "'))Ċ": 6824,
      "varphi": 6825,
      "vs": 6826,
      "Ġexactly": 6827,
      "rier": 6828,
      "ç±": 6829,
      ",ĊĊ": 6830,
      "Pattern": 6831,
      "UNT": 6832,
      "\\\\\\\\": 6833,
      "ç¤º": 6834,
      "}\"": 6835,
      "Ġeq": 6836,
      "Ġsi": 6837,
      "letion": 6838,
      "rew": 6839,
      "white": 6840,
      ")-": 6841,
      "Ġabstract": 6842,
      "}</": 6843,
      "Mask": 6844,
      "Cred": 6845,
      "çĲ": 6846,
      "road": 6847,
      "ulated": 6848,
      "Ġpersonal": 6849,
      "Move": 6850,
      "RR": 6851,
      "Ġdelay": 6852,
      "Shape": 6853,
      "Ġbasic": 6854,
      ";ĊĊĊ": 6855,
      "åĪĨ": 6856,
      "Book": 6857,
      "opts": 6858,
      "disable": 6859,
      "Ġbranch": 6860,
      "Ġnatural": 6861,
      "esh": 6862,
      "96": 6863,
      "ç¨": 6864,
      "Services": 6865,
      "Mess": 6866,
      "QU": 6867,
      "Ġtrigger": 6868,
      "lots": 6869,
      "Ãª": 6870,
      "Ġexperiment": 6871,
      ")^": 6872,
      "Ġsteps": 6873,
      "ĠAN": 6874,
      "è¾": 6875,
      "Ġtrain": 6876,
      "ĠSto": 6877,
      "zen": 6878,
      "Ġsaw": 6879,
      "dl": 6880,
      "ying": 6881,
      "getValue": 6882,
      "za": 6883,
      "Ġcour": 6884,
      "ques": 6885,
      "Ġperfect": 6886,
      "apped": 6887,
      "overline": 6888,
      "STRING": 6889,
      "ãĤ¯": 6890,
      "Flow": 6891,
      "haps": 6892,
      "Security": 6893,
      "Ġprincip": 6894,
      "Ð°Ð»": 6895,
      "Ġshared": 6896,
      "ĠMore": 6897,
      "Ġround": 6898,
      "resses": 6899,
      "ĠSpec": 6900,
      "Bus": 6901,
      "ĠSch": 6902,
      "kwargs": 6903,
      "ĠSD": 6904,
      "ĠAction": 6905,
      "Home": 6906,
      "FUN": 6907,
      "Ġverify": 6908,
      "Ġgovernment": 6909,
      "Timer": 6910,
      "onal": 6911,
      "ĠJust": 6912,
      "sequ": 6913,
      "rown": 6914,
      "roke": 6915,
      "yl": 6916,
      "Notification": 6917,
      "ANCE": 6918,
      "Ġcombin": 6919,
      "how": 6920,
      "Ġip": 6921,
      "ĠĠĠĠĠĠĠĠĠĠĠĠĠĠĠĠĠĠĠĠĠĠĠĠĠĠĠĠĠĠ": 6922,
      "mk": 6923,
      "ĠSO": 6924,
      "native": 6925,
      "Ġbehind": 6926,
      "tion": 6927,
      "ando": 6928,
      "Ġlar": 6929,
      "Limit": 6930,
      "Ġconc": 6931,
      "Ġ})": 6932,
      "trim": 6933,
      "Ġeff": 6934,
      "ceed": 6935,
      "Ġmor": 6936,
      "uses": 6937,
      "Vertex": 6938,
      "Ġtax": 6939,
      "Ġclosed": 6940,
      ">::": 6941,
      "istr": 6942,
      "Ġhimself": 6943,
      "Ġecon": 6944,
      "bg": 6945,
      "Ġstand": 6946,
      "Ġfive": 6947,
      "ares": 6948,
      "Ġri": 6949,
      "Ġstarting": 6950,
      "ĠGame": 6951,
      "AV": 6952,
      "/{": 6953,
      "INTER": 6954,
      "ifact": 6955,
      "ãģ¯": 6956,
      "FIX": 6957,
      "Ġwhose": 6958,
      "igr": 6959,
      "Ġwriter": 6960,
      "PIO": 6961,
      "Ġfra": 6962,
      "]+": 6963,
      "ĠMain": 6964,
      "textbf": 6965,
      "Ġchall": 6966,
      "ae": 6967,
      "library": 6968,
      "ĠPoint": 6969,
      "urope": 6970,
      "produ": 6971,
      "ìŀ": 6972,
      "icket": 6973,
      "](#": 6974,
      "AME": 6975,
      "blog": 6976,
      "rx": 6977,
      "Ġthus": 6978,
      "ç®": 6979,
      "ournal": 6980,
      "blob": 6981,
      "á»": 6982,
      "uly": 6983,
      "blue": 6984,
      "ãģ¾ãģĻ": 6985,
      "chor": 6986,
      "Ġreview": 6987,
      "UEST": 6988,
      "Ġmusic": 6989,
      "Ġespec": 6990,
      "Ġtags": 6991,
      "Ġdataset": 6992,
      "linux": 6993,
      "(\".": 6994,
      "ĠCom": 6995,
      "Ġusername": 6996,
      "Gu": 6997,
      "CHECK": 6998,
      "Ġdimension": 6999,
      "classes": 7000,
      "mitted": 7001,
      "Ġwomen": 7002,
      "enabled": 7003,
      "abilities": 7004,
      "Ġ\\,": 7005,
      "æĸ°": 7006,
      "hook": 7007,
      "Ġbehavior": 7008,
      "Ġmeta": 7009,
      "usion": 7010,
      "Ġdoor": 7011,
      "clean": 7012,
      "\"},Ċ": 7013,
      "Ġchoose": 7014,
      "Ġclaim": 7015,
      "Ġexternal": 7016,
      "chart": 7017,
      "ĠJson": 7018,
      "ë¥¼": 7019,
      "çĲĨ": 7020,
      "ĠProject": 7021,
      "eration": 7022,
      "Ġdriver": 7023,
      "topic": 7024,
      "600": 7025,
      "ç±»": 7026,
      "Ġten": 7027,
      "Ġsound": 7028,
      "footer": 7029,
      "Html": 7030,
      "avi": 7031,
      "Contact": 7032,
      "ulk": 7033,
      "cut": 7034,
      "Ġdiag": 7035,
      "Amount": 7036,
      "*}": 7037,
      "Ġrequires": 7038,
      "Ġimmedi": 7039,
      "Ġrequests": 7040,
      "Cert": 7041,
      "hood": 7042,
      "ĠLink": 7043,
      "Ġreach": 7044,
      "Duration": 7045,
      "vlet": 7046,
      "pages": 7047,
      "ê°": 7048,
      "Ġknowledge": 7049,
      "Idx": 7050,
      "ĴĮ": 7051,
      "icks": 7052,
      "ndef": 7053,
      "hpp": 7054,
      "enced": 7055,
      "endor": 7056,
      "llegal": 7057,
      "Region": 7058,
      "world": 7059,
      "Ġsix": 7060,
      "timestamp": 7061,
      "references": 7062,
      "xsl": 7063,
      "ĠComponent": 7064,
      "\">ĊĊ": 7065,
      "cpy": 7066,
      "Ġmention": 7067,
      "Ġord": 7068,
      "ĠPRO": 7069,
      "^{(": 7070,
      "EC": 7071,
      "CHAR": 7072,
      "plan": 7073,
      "Language": 7074,
      "Ġremoved": 7075,
      "parameter": 7076,
      "ĠCustom": 7077,
      "oken": 7078,
      "ato": 7079,
      "ä¸Ĭ": 7080,
      "directory": 7081,
      "argv": 7082,
      "BASE": 7083,
      "uel": 7084,
      "ĠBuild": 7085,
      "aste": 7086,
      "Ġactions": 7087,
      "csv": 7088,
      "owner": 7089,
      "Ġaria": 7090,
      "Ġaccur": 7091,
      "typedef": 7092,
      "resources": 7093,
      "optional": 7094,
      "ĠEl": 7095,
      "but": 7096,
      "Ġupper": 7097,
      "Ġoperations": 7098,
      "Ġtransaction": 7099,
      "($_": 7100,
      "ĠOptional": 7101,
      "langle": 7102,
      "front": 7103,
      "URI": 7104,
      "Ġrespons": 7105,
      "Ġlogin": 7106,
      "ĠGroup": 7107,
      "Ġmulti": 7108,
      "Ġdriv": 7109,
      "Ġlogging": 7110,
      "ventory": 7111,
      "$$Ċ": 7112,
      "Ġremote": 7113,
      "Expr": 7114,
      "fire": 7115,
      "Ġchoice": 7116,
      "Ġpayload": 7117,
      "Ġhit": 7118,
      "Join": 7119,
      "Counter": 7120,
      "Ġexplo": 7121,
      "awn": 7122,
      "emon": 7123,
      "ja": 7124,
      "Ġsatisf": 7125,
      "ĠWorld": 7126,
      "MenuItem": 7127,
      "dump": 7128,
      "clone": 7129,
      "ĠConst": 7130,
      "UD": 7131,
      "ursor": 7132,
      "ropri": 7133,
      "ped": 7134,
      "writ": 7135,
      "Ġincludes": 7136,
      "Ġmonths": 7137,
      "180": 7138,
      "slice": 7139,
      "å¯¹": 7140,
      "cn": 7141,
      "ĠIntern": 7142,
      "Ġmechan": 7143,
      "Br": 7144,
      "Resources": 7145,
      "Ġfoot": 7146,
      "Ġapplied": 7147,
      "factory": 7148,
      "Ġcreating": 7149,
      "frak": 7150,
      "destroy": 7151,
      "tools": 7152,
      "Ġenabled": 7153,
      "ĠFind": 7154,
      "memory": 7155,
      "Look": 7156,
      "timer": 7157,
      "detail": 7158,
      "mic": 7159,
      "ãģ¦": 7160,
      "Ġattack": 7161,
      "ĠAmerican": 7162,
      "Ġfine": 7163,
      "ìĬ": 7164,
      "Ġmajor": 7165,
      "Ġwide": 7166,
      "}>Ċ": 7167,
      "èĥ½": 7168,
      "ĠAuth": 7169,
      "ĠCommand": 7170,
      "umpy": 7171,
      "ĠClient": 7172,
      "CHAN": 7173,
      "pad": 7174,
      "mid": 7175,
      "Abstract": 7176,
      "termine": 7177,
      "ifndef": 7178,
      ";\\": 7179,
      "Ġleave": 7180,
      "ĠFALSE": 7181,
      "Aut": 7182,
      "Ġlisten": 7183,
      "Ġsoon": 7184,
      "\"čĊ": 7185,
      "integer": 7186,
      "ĠCH": 7187,
      "Volume": 7188,
      "........": 7189,
      "variant": 7190,
      "pattern": 7191,
      "sb": 7192,
      "^*": 7193,
      "amage": 7194,
      "Ġinner": 7195,
      "coded": 7196,
      "Ġsb": 7197,
      "Tests": 7198,
      "Ġwonder": 7199,
      "IMAGE": 7200,
      "irth": 7201,
      "åŃĹ": 7202,
      "Ġ#[": 7203,
      "istor": 7204,
      "month": 7205,
      "58": 7206,
      "ĠHis": 7207,
      "Ġ\"\";Ċ": 7208,
      "å±": 7209,
      "Ġpor": 7210,
      "Ġparticip": 7211,
      "vey": 7212,
      "JS": 7213,
      "Ġboard": 7214,
      "found": 7215,
      "pret": 7216,
      "extern": 7217,
      "Should": 7218,
      "lers": 7219,
      "ffix": 7220,
      "assertTrue": 7221,
      "sr": 7222,
      "Ġproduction": 7223,
      "GN": 7224,
      "trl": 7225,
      "peated": 7226,
      "itional": 7227,
      "Ġprevent": 7228,
      "Ġtransfer": 7229,
      "]\\": 7230,
      "arnings": 7231,
      "Ġrecogn": 7232,
      "columns": 7233,
      "Sequence": 7234,
      "ĠPlease": 7235,
      "ãĤ¤": 7236,
      "Ġdf": 7237,
      "ball": 7238,
      "LOW": 7239,
      "Video": 7240,
      "Ġdst": 7241,
      "Ġbinary": 7242,
      "groups": 7243,
      "Ġwall": 7244,
      "Ġready": 7245,
      "Ġcontract": 7246,
      "cred": 7247,
      "geq": 7248,
      "gnore": 7249,
      "Ġbring": 7250,
      "mutable": 7251,
      "ĊĊĊĊ": 7252,
      "Ð¹": 7253,
      "\"\"\"Ċ": 7254,
      "ĠHTML": 7255,
      "Stats": 7256,
      "sect": 7257,
      "Ġeffects": 7258,
      "Ġretr": 7259,
      "Lambda": 7260,
      "Ġ$.": 7261,
      "ography": 7262,
      "proc": 7263,
      "Ġdensity": 7264,
      "generate": 7265,
      "Ġlab": 7266,
      "scriptor": 7267,
      "Ġpredict": 7268,
      "ãĥ¼ãĥ": 7269,
      ".'Ċ": 7270,
      "Ġcompan": 7271,
      "brief": 7272,
      "å¼ı": 7273,
      "aration": 7274,
      "éĿ": 7275,
      "Ġcalls": 7276,
      "([Ċ": 7277,
      "Ġdepth": 7278,
      "Ġmount": 7279,
      "ifies": 7280,
      "Mar": 7281,
      "ONG": 7282,
      "imes": 7283,
      "Ġappropri": 7284,
      "ĠDirect": 7285,
      "ĠTRUE": 7286,
      "Ġknew": 7287,
      "Ġcoun": 7288,
      "usr": 7289,
      "ĠLa": 7290,
      "eries": 7291,
      "ota": 7292,
      "ADD": 7293,
      "ĠTemp": 7294,
      "FC": 7295,
      "ĠCount": 7296,
      "ĠSince": 7297,
      "rim": 7298,
      "Then": 7299,
      "ĠLoad": 7300,
      "Ġgets": 7301,
      "åĬł": 7302,
      "cape": 7303,
      "Ġbrowser": 7304,
      "proof": 7305,
      "Ġseconds": 7306,
      "sequence": 7307,
      "ĠWrite": 7308,
      "ematic": 7309,
      "Errorf": 7310,
      "Ġfs": 7311,
      "azy": 7312,
      "Ġsocket": 7313,
      "å¹": 7314,
      "ĠĠĠĠĠĠĠĠĠĠĠĠĠĠĠĠĠĠĠĠĠĠĠĠĠĠĠĠĠĠĠĠĠ": 7315,
      "\";čĊ": 7316,
      "TAG": 7317,
      "hicle": 7318,
      "Ġorigin": 7319,
      "Ġpython": 7320,
      "ELD": 7321,
      "98": 7322,
      "Ġstage": 7323,
      "ĠGeneral": 7324,
      ")))": 7325,
      "Ġresolve": 7326,
      "getId": 7327,
      "jo": 7328,
      "BY": 7329,
      "ĠOper": 7330,
      "that": 7331,
      "AUT": 7332,
      "ANG": 7333,
      ")^{": 7334,
      "Ãł": 7335,
      "ATCH": 7336,
      "pher": 7337,
      "ĠDr": 7338,
      "ĠassertThat": 7339,
      "Ġconnected": 7340,
      "ĠMake": 7341,
      "ĠIlluminate": 7342,
      "ĠVis": 7343,
      "oms": 7344,
      "convert": 7345,
      "microsoft": 7346,
      "Vec": 7347,
      "=[": 7348,
      "Ġslow": 7349,
      "}-": 7350,
      "ĠBar": 7351,
      "Ġsec": 7352,
      "exist": 7353,
      "ano": 7354,
      "appro": 7355,
      "Ġ$(\"#": 7356,
      "BL": 7357,
      "Ġpolit": 7358,
      "ëĭĪëĭ¤": 7359,
      "pkg": 7360,
      "tl": 7361,
      "inger": 7362,
      "mathfrak": 7363,
      "Ġcells": 7364,
      "achment": 7365,
      "Ġ'',Ċ": 7366,
      "Ġways": 7367,
      "kind": 7368,
      "Ġneighb": 7369,
      "Ġmix": 7370,
      "bum": 7371,
      "Ġnegative": 7372,
      "esis": 7373,
      "Ġfigure": 7374,
      "Ġdiscover": 7375,
      "Ġphysical": 7376,
      "~~~~": 7377,
      "Ġestablish": 7378,
      "LETE": 7379,
      "ils": 7380,
      "ĠJan": 7381,
      "BC": 7382,
      "Ġrc": 7383,
      "Ġequival": 7384,
      "Ġstay": 7385,
      "Ġusually": 7386,
      "mult": 7387,
      "ĠPage": 7388,
      "/\\": 7389,
      "ãģĦ": 7390,
      "ĠWHERE": 7391,
      "MC": 7392,
      "EE": 7393,
      "before": 7394,
      "Ġcook": 7395,
      "Ġtf": 7396,
      "Ġcompute": 7397,
      "aled": 7398,
      "mutex": 7399,
      "Ġpretty": 7400,
      "losed": 7401,
      "black": 7402,
      "Day": 7403,
      "Ġcop": 7404,
      "!\\": 7405,
      "Ġvan": 7406,
      "och": 7407,
      "ĠÐ·": 7408,
      "UND": 7409,
      "):ĊĊ": 7410,
      "merge": 7411,
      "èĢ": 7412,
      "anning": 7413,
      "Ġlooks": 7414,
      "Ġprovider": 7415,
      "configuration": 7416,
      "ously": 7417,
      "SSION": 7418,
      "}}$": 7419,
      "ajax": 7420,
      "ĠMet": 7421,
      "Ġminimum": 7422,
      "SUCCESS": 7423,
      "odo": 7424,
      "resents": 7425,
      "Ġblue": 7426,
      "Ġmiddle": 7427,
      "Headers": 7428,
      "Ġdetermine": 7429,
      "rollers": 7430,
      "Ġ\"\",": 7431,
[...]
